import java.awt.AlphaComposite;
import java.awt.BasicStroke;
import java.awt.Color;
import java.awt.Composite;
import java.awt.Desktop;
import java.awt.Dimension;
import java.awt.Graphics;
import java.awt.Graphics2D;
import java.awt.Shape;
import java.awt.event.MouseEvent;
import java.awt.event.MouseListener;
import java.awt.event.MouseMotionListener;
import java.awt.geom.AffineTransform;
import java.awt.geom.GeneralPath;
import java.awt.geom.PathIterator;
import java.awt.geom.Point2D;
import java.awt.geom.Rectangle2D;
import java.io.IOException;
import java.net.URI;
import java.net.URISyntaxException;

import javax.swing.JPanel;


@SuppressWarnings("serial")
public class Mexico extends JPanel implements MouseListener, MouseMotionListener, Shape {
	private Poligono[] estados;
	private Integer mouseX;
	private Integer mouseY;
	private String estadoActual;
	private boolean inState;
	private boolean drawSquares;
	
	public Mexico(int w, int h){
		super();
		this.drawSquares = false;
		this.estadoActual ="";
		this.mouseX = 0;
		this.mouseY = 0;
		this.setPreferredSize(new Dimension(w,h));
		this.requestFocusInWindow(true);
		//this.setBackground(Color.LIGHT_GRAY);
		this.setBackground(new Color(0x085fa3));
		this.addMouseListener(this);
		this.addMouseMotionListener(this);
	}

	private void paintSquare(Graphics2D g, Shape shape){
		g.setColor(Color.black);
	    g.draw(shape.getBounds());
	}
	
	@SuppressWarnings("unused")
	private Shape getSquare(Shape s){
		return s.getBounds();
	}
	
	private void detectMouse(Graphics2D g, Shape shape,String estado) {
		// TODO Auto-generated method stub
		try{
			if(shape.contains(getMousePosition())){
		    	this.inState = true;
		    	this.estadoActual = estado;
		    	g.setColor(new Color(0xD3D3D3));
		    	g.fill(shape);
		    }
		}
		catch(NullPointerException r){
			//System.out.println(r);
			this.inState = false;
		}
		
		
	}
	
	/**
	 * Paints the transcoded SVG image on the specified graphics context. You
	 * can install a custom transformation on the graphics context to scale the
	 * image.nano
	 * 
	 * @param g Graphics context.
	 */
	@Override
	public boolean contains(Point2D q) {
		// TODO Auto-generated method stub
		return false;
		
	}

	@Override
	public boolean contains(Rectangle2D arg0) {
		// TODO Auto-generated method stub
		return false;
		
	}

	@Override
	public boolean contains(double arg0, double arg1) {
		// TODO Auto-generated method stub
		return false;
	}

	@Override
	public boolean contains(double arg0, double arg1, double arg2, double arg3) {
		// TODO Auto-generated method stub
		return false;
	}

	@Override
	public Rectangle2D getBounds2D() {
		// TODO Auto-generated method stub
		return null;
	}

	@Override
	public PathIterator getPathIterator(AffineTransform arg0) {
		// TODO Auto-generated method stub
		return null;
	}

	@Override
	public PathIterator getPathIterator(AffineTransform arg0, double arg1) {
		// TODO Auto-generated method stub
		return null;
	}

	@Override
	public boolean intersects(Rectangle2D arg0) {
		// TODO Auto-generated method stub
		return false;
	}

	@Override
	public boolean intersects(double arg0, double arg1, double arg2, double arg3) {
		// TODO Auto-generated method stub
		return false;
	}
	
	@Override
	public void paint(Graphics g){
		super.paint(g);
		this.paintMexico((Graphics2D) g);
		g.setColor(Color.WHITE);
		if (this.inState){
			g.drawString(this.estadoActual, 0, 10);
		}
		/*
		g.drawString("X: "+this.getMouseX().toString(), this.getWidth()-100, 10);
		g.drawString("Y: "+this.getMouseY().toString(), this.getWidth()-1z00, 20);
		*/
	}

	private void paintMexico(Graphics2D g) {
		
	    Shape shape = null;
	    
	    float origAlpha = 1.0f;
	    Composite origComposite = ((Graphics2D)g).getComposite();
	    if (origComposite instanceof AlphaComposite) {
	        AlphaComposite origAlphaComposite = (AlphaComposite)origComposite;
	        if (origAlphaComposite.getRule() == AlphaComposite.SRC_OVER) {
	            origAlpha = origAlphaComposite.getAlpha();
	        }
	    }
	    
	    java.util.LinkedList<AffineTransform> transformations = new java.util.LinkedList<AffineTransform>();
	    
	
	    // 
	
	    // _0
	    transformations.offer(g.getTransform());
	    g.transform(new AffineTransform(1, 0, 0, 1, 0.1250195f, 0.4949951f));
	
	    // _0_0
	    transformations.offer(g.getTransform());
	    g.transform(new AffineTransform(1, 0, 0, 1, -2, -12));
	
	    // _0_0_0
	
	    // _0_0_0_0
	    /*
	     * 
	     * 
	     *  Campeche
	     * 
	     * 
	     * */
	    shape = new GeneralPath();
	    ((GeneralPath) shape).moveTo(821.877, 500.95642);
	    ((GeneralPath) shape).curveTo(820.9086, 501.76303, 820.2155, 502.03073, 819.24426, 502.77823);
	    ((GeneralPath) shape).curveTo(818.10864, 503.65106, 818.02673, 503.91733, 816.61115, 503.9924);
	    ((GeneralPath) shape).curveTo(815.28485, 504.0629, 813.4295, 505.01678, 812.35803, 505.61166);
	    ((GeneralPath) shape).curveTo(811.78577, 505.9293, 811.5367, 506.65588, 811.34534, 507.23056);
	    ((GeneralPath) shape).curveTo(810.99097, 508.29425, 818.38007, 505.99725, 818.8389, 505.61166);
	    ((GeneralPath) shape).curveTo(820.04297, 504.59933, 821.37744, 504.9488, 822.48474, 503.58768);
	    ((GeneralPath) shape).curveTo(822.83765, 503.1532, 823.0301, 501.76624, 821.8771, 500.95642);
	    ((GeneralPath) shape).closePath();
	    ((GeneralPath) shape).moveTo(803.85175, 456.63306);
	    ((GeneralPath) shape).curveTo(803.77386, 456.29633, 803.8521, 455.90045, 803.64905, 455.62106);
	    ((GeneralPath) shape).curveTo(803.57007, 455.51236, 803.35846, 455.69226, 803.244, 455.62106);
	    ((GeneralPath) shape).curveTo(803.1296, 455.54956, 803.1363, 455.3236, 803.0413, 455.41852);
	    ((GeneralPath) shape).lineTo(802.839, 455.62106);
	    ((GeneralPath) shape).lineTo(802.839, 456.22797);
	    ((GeneralPath) shape).curveTo(802.839, 456.30627, 802.4864, 456.17377, 802.43396, 456.63306);
	    ((GeneralPath) shape).curveTo(802.4103, 456.8402, 802.4974, 457.28104, 802.43396, 457.4425);
	    ((GeneralPath) shape).curveTo(802.2983, 457.78705, 801.49994, 457.4719, 801.8263, 458.04977);
	    ((GeneralPath) shape).curveTo(801.96735, 458.29904, 802.3181, 458.33905, 802.43396, 458.4545);
	    ((GeneralPath) shape).curveTo(802.6094, 458.6298, 802.25183, 458.73282, 802.839, 458.65668);
	    ((GeneralPath) shape).curveTo(802.9722, 458.63968, 802.9148, 458.50015, 803.0413, 458.4545);
	    ((GeneralPath) shape).curveTo(803.3216, 458.35394, 803.8517, 458.5494, 803.8517, 458.25195);
	    ((GeneralPath) shape).lineTo(803.8517, 458.04977);
	    ((GeneralPath) shape).lineTo(804.054, 458.04977);
	    ((GeneralPath) shape).curveTo(804.24927, 458.04977, 804.2567, 457.7371, 803.8517, 456.63306);
	    ((GeneralPath) shape).lineTo(803.8517, 456.63306);
	    ((GeneralPath) shape).closePath();
	    ((GeneralPath) shape).moveTo(791.497, 432.95322);
	    ((GeneralPath) shape).lineTo(792.1047, 431.94122);
	    ((GeneralPath) shape).curveTo(792.2872, 431.63705, 791.84705, 431.73868, 791.69965, 431.73868);
	    ((GeneralPath) shape).curveTo(791.3627, 431.73868, 791.0232, 431.76068, 790.68695, 431.73868);
	    ((GeneralPath) shape).curveTo(790.11395, 431.70218, 790.9339, 431.06943, 790.48425, 431.33395);
	    ((GeneralPath) shape).curveTo(790.42017, 431.37146, 790.1026, 431.881, 790.0792, 431.94122);
	    ((GeneralPath) shape).curveTo(790.0672, 431.97342, 790.0654, 432.52618, 790.0792, 432.5485);
	    ((GeneralPath) shape).curveTo(790.15015, 432.66287, 790.1469, 432.75067, 790.2819, 432.75067);
	    ((GeneralPath) shape).lineTo(790.48425, 432.75067);
	    ((GeneralPath) shape).curveTo(790.73267, 432.75067, 790.3025, 433.029, 790.8896, 432.95322);
	    ((GeneralPath) shape).curveTo(791.3279, 432.8962, 790.85516, 432.8969, 791.49695, 432.95322);
	    ((GeneralPath) shape).lineTo(791.49695, 432.95322);
	    ((GeneralPath) shape).closePath();
	    ((GeneralPath) shape).moveTo(894.08, 530.011);
	    ((GeneralPath) shape).lineTo(894.08, 477.64108);
	    ((GeneralPath) shape).lineTo(878.787, 460.84827);
	    ((GeneralPath) shape).lineTo(878.1871, 450.65277);
	    ((GeneralPath) shape).lineTo(875.78827, 451.25266);
	    ((GeneralPath) shape).lineTo(874.2892, 453.3517);
	    ((GeneralPath) shape).lineTo(871.5902, 450.05325);
	    ((GeneralPath) shape).lineTo(870.0907, 450.05325);
	    ((GeneralPath) shape).lineTo(869.4912, 444.35562);
	    ((GeneralPath) shape).lineTo(858.9955, 444.9555);
	    ((GeneralPath) shape).lineTo(858.9955, 440.75705);
	    ((GeneralPath) shape).lineTo(855.09717, 440.45728);
	    ((GeneralPath) shape).lineTo(852.69836, 440.45728);
	    ((GeneralPath) shape).lineTo(852.09845, 429.962);
	    ((GeneralPath) shape).lineTo(850.1647, 429.87262);
	    ((GeneralPath) shape).curveTo(848.032, 435.42584, 847.5698, 443.7001, 847.5697, 447.43134);
	    ((GeneralPath) shape).curveTo(847.5696, 450.19785, 850.87695, 453.65518, 850.61505, 458.20065);
	    ((GeneralPath) shape).curveTo(850.4804, 460.5412, 847.2198, 466.0696, 846.1638, 468.50116);
	    ((GeneralPath) shape).curveTo(842.75934, 476.3425, 846.05505, 481.05475, 839.60425, 486.29318);
	    ((GeneralPath) shape).curveTo(835.98926, 489.2286, 828.0092, 498.80853, 823.6742, 499.169);
	    ((GeneralPath) shape).curveTo(824.1221, 500.36227, 823.8173, 500.80774, 824.84564, 500.80774);
	    ((GeneralPath) shape).curveTo(825.73254, 500.80774, 826.634, 500.33963, 827.1882, 500.33963);
	    ((GeneralPath) shape).curveTo(827.6878, 500.33963, 827.692, 501.62427, 827.8908, 501.97836);
	    ((GeneralPath) shape).curveTo(828.46765, 503.00345, 832.8494, 502.68054, 833.98193, 502.68054);
	    ((GeneralPath) shape).curveTo(831.5278, 502.68054, 827.40753, 502.78394, 829.2965, 506.6602);
	    ((GeneralPath) shape).curveTo(829.3213, 506.71048, 830.4715, 506.6602, 831.4052, 506.6602);
	    ((GeneralPath) shape).curveTo(833.1585, 506.6602, 829.15656, 507.08615, 828.82806, 507.12863);
	    ((GeneralPath) shape).curveTo(827.9167, 507.24725, 826.90186, 510.88873, 825.07983, 510.1717);
	    ((GeneralPath) shape).curveTo(820.6807, 508.4402, 822.7012, 514.66547, 818.7545, 514.1517);
	    ((GeneralPath) shape).curveTo(818.33496, 514.09717, 816.9598, 512.81464, 815.9432, 513.44916);
	    ((GeneralPath) shape).curveTo(814.91876, 514.08936, 815.23486, 516.7266, 814.3033, 516.7266);
	    ((GeneralPath) shape).lineTo(811.4923, 516.7266);
	    ((GeneralPath) shape).curveTo(809.7582, 516.7266, 810.1795, 516.9387, 810.0867, 515.3223);
	    ((GeneralPath) shape).curveTo(810.0417, 514.5366, 809.727, 514.6758, 811.02356, 514.6198);
	    ((GeneralPath) shape).curveTo(811.02954, 514.6198, 812.5855, 514.77563, 812.195, 514.1517);
	    ((GeneralPath) shape).curveTo(811.8343, 513.5745, 811.25775, 513.3359, 811.25775, 512.51294);
	    ((GeneralPath) shape).curveTo(811.25775, 510.15717, 810.1795, 513.3167, 809.38367, 512.0448);
	    ((GeneralPath) shape).curveTo(807.84125, 509.5782, 807.2651, 513.0628, 805.63544, 512.0448);
	    ((GeneralPath) shape).curveTo(804.9346, 511.60715, 805.6284, 511.9966, 804.464, 511.57635);
	    ((GeneralPath) shape).curveTo(804.22125, 511.48926, 803.54236, 510.43442, 803.2929, 510.4061);
	    ((GeneralPath) shape).curveTo(802.03644, 510.26163, 802.18207, 510.871, 801.653, 511.57635);
	    ((GeneralPath) shape).curveTo(801.1732, 511.65634, 799.2212, 512.0519, 798.6075, 511.8104);
	    ((GeneralPath) shape).curveTo(797.83466, 511.50623, 797.5299, 511.34195, 798.3733, 511.10825);
	    ((GeneralPath) shape).curveTo(798.7613, 511.0006, 799.58124, 511.10825, 800.0132, 511.10825);
	    ((GeneralPath) shape).curveTo(800.47876, 511.10825, 801.4139, 511.3816, 801.18427, 510.64014);
	    ((GeneralPath) shape).curveTo(801.0294, 510.13947, 800.76404, 509.8034, 800.7158, 509.23544);
	    ((GeneralPath) shape).curveTo(800.67084, 508.70926, 800.64, 508.73972, 800.95, 508.53293);
	    ((GeneralPath) shape).curveTo(802.744, 508.53293, 804.31976, 508.44193, 805.8697, 509.0014);
	    ((GeneralPath) shape).curveTo(806.60815, 509.26733, 807.33984, 508.2989, 808.4468, 508.2989);
	    ((GeneralPath) shape).curveTo(809.0084, 508.2989, 809.67847, 507.65692, 809.1494, 507.12863);
	    ((GeneralPath) shape).curveTo(808.6374, 506.61697, 805.83777, 506.69275, 804.9328, 505.958);
	    ((GeneralPath) shape).curveTo(803.2366, 504.5806, 800.319, 506.62512, 798.8417, 507.3627);
	    ((GeneralPath) shape).curveTo(797.84247, 507.86197, 795.37476, 507.4251, 794.15625, 507.8308);
	    ((GeneralPath) shape).curveTo(792.66614, 508.32693, 791.6315, 508.05167, 790.61646, 508.359);
	    ((GeneralPath) shape).lineTo(790.60394, 509.78186);
	    ((GeneralPath) shape).lineTo(793.40924, 510.5329);
	    ((GeneralPath) shape).lineTo(793.40924, 513.428);
	    ((GeneralPath) shape).lineTo(795.06757, 513.22473);
	    ((GeneralPath) shape).curveTo(795.2674, 513.6238, 795.3932, 514.0023, 795.47363, 514.4414);
	    ((GeneralPath) shape).curveTo(795.54095, 514.8082, 797.071, 514.6443, 797.50226, 514.6443);
	    ((GeneralPath) shape).lineTo(798.111, 514.6443);
	    ((GeneralPath) shape).curveTo(798.5401, 514.6443, 799.61273, 513.6288, 799.73425, 514.2385);
	    ((GeneralPath) shape).curveTo(799.9231, 515.18463, 800.34406, 514.2644, 800.9514, 514.6443);
	    ((GeneralPath) shape).curveTo(801.23596, 514.8217, 800.6619, 514.8468, 801.3575, 514.8468);
	    ((GeneralPath) shape).lineTo(802.3716, 514.8468);
	    ((GeneralPath) shape).lineTo(802.3716, 522.3486);
	    ((GeneralPath) shape).curveTo(803.8343, 522.47003, 803.18976, 526.20074, 804.1978, 526.20074);
	    ((GeneralPath) shape).curveTo(805.2226, 526.20074, 805.6921, 526.3293, 806.22675, 525.7953);
	    ((GeneralPath) shape).curveTo(806.72705, 525.295, 809.56714, 527.3625, 810.2843, 527.61993);
	    ((GeneralPath) shape).curveTo(810.5802, 527.72614, 811.8473, 527.4985, 812.1106, 527.8228);
	    ((GeneralPath) shape).curveTo(812.8455, 528.7268, 811.1351, 529.64746, 812.922, 529.64746);
	    ((GeneralPath) shape).curveTo(813.75116, 529.64746, 816.48346, 529.6351, 816.9799, 530.2558);
	    ((GeneralPath) shape).curveTo(817.8856, 531.38745, 819.23846, 531.4721, 820.8348, 531.4721);
	    ((GeneralPath) shape).lineTo(820.8348, 523.9459);
	    ((GeneralPath) shape).lineTo(823.8782, 523.97034);
	    ((GeneralPath) shape).curveTo(825.22076, 523.98096, 826.12787, 524.9519, 827.53, 525.3899);
	    ((GeneralPath) shape).curveTo(829.8917, 526.12714, 829.9583, 524.6148, 832.19666, 526.4033);
	    ((GeneralPath) shape).curveTo(834.0587, 527.89154, 838.30994, 526.0093, 840.65674, 528.1193);
	    ((GeneralPath) shape).lineTo(840.68976, 532.4365);
	    ((GeneralPath) shape).curveTo(859.4546, 532.3239, 875.54816, 531.308, 894.08, 530.011);
	    ((GeneralPath) shape).closePath();
	    
	    
	    g.setPaint(new Color(0x3c7a51));
	    //g.setPaint(new Color(0xD3D3D3));
	    g.fill(shape);
	    g.setPaint(Color.WHITE);
	    
	    g.setStroke(new BasicStroke(0.75f, 0, 0, 4));
	    g.draw(shape);
	    this.detectMouse(g,shape,"Campeche");
	    if (this.drawSquares){ this.paintSquare(g, shape); }
	
	    // _0_0_0_1
	    /*
	     * 
	     * Chiapas
	     * 
	     * 
	     * */
	    shape = new GeneralPath();
	    ((GeneralPath) shape).moveTo(745.6772, 597.9821);
	    ((GeneralPath) shape).curveTo(745.6333, 597.22723, 745.5852, 596.4679, 745.5473, 595.6942);
	    ((GeneralPath) shape).curveTo(745.4814, 594.3416, 746.1936, 594.45526, 746.1936, 593.4344);
	    ((GeneralPath) shape).curveTo(746.1936, 591.699, 745.7666, 591.9394, 747.48553, 591.82007);
	    ((GeneralPath) shape).curveTo(748.1294, 591.77576, 747.80865, 589.91504, 747.80865, 589.2377);
	    ((GeneralPath) shape).lineTo(747.80865, 586.0094);
	    ((GeneralPath) shape).curveTo(747.80865, 583.9532, 745.9374, 583.8551, 743.609, 583.7496);
	    ((GeneralPath) shape).lineTo(750.7143, 561.8007);
	    ((GeneralPath) shape).curveTo(751.5317, 561.53186, 752.28503, 561.47845, 752.76196, 560.983);
	    ((GeneralPath) shape).curveTo(753.2178, 560.50946, 752.076, 559.6304, 753.0167, 558.6899);
	    ((GeneralPath) shape).curveTo(753.8526, 557.8549, 756.1628, 558.7716, 756.586, 557.67084);
	    ((GeneralPath) shape).curveTo(756.7239, 557.3122, 756.7853, 556.9617, 756.8255, 556.69006);
	    ((GeneralPath) shape).curveTo(757.6713, 554.8508, 759.2393, 557.9247, 759.4859, 554.1285);
	    ((GeneralPath) shape).curveTo(759.5784, 552.7026, 760.8094, 553.19934, 761.0645, 552.55066);
	    ((GeneralPath) shape).curveTo(761.6297, 551.1162, 761.9139, 550.1212, 762.29266, 548.5186);
	    ((GeneralPath) shape).curveTo(762.6204, 547.1299, 762.883, 547.7534, 763.5208, 547.116);
	    ((GeneralPath) shape).curveTo(764.3578, 546.27966, 763.2466, 545.7383, 764.5732, 544.66144);
	    ((GeneralPath) shape).curveTo(764.9056, 544.39233, 765.50366, 544.1512, 765.80133, 543.7851);
	    ((GeneralPath) shape).curveTo(766.89764, 542.4353, 766.79205, 540.45416, 764.5732, 540.45416);
	    ((GeneralPath) shape).lineTo(764.39777, 537.2985);
	    ((GeneralPath) shape).lineTo(765.4505, 533.61707);
	    ((GeneralPath) shape).curveTo(766.82605, 533.0282, 766.76263, 534.02075, 767.20483, 532.91595);
	    ((GeneralPath) shape).curveTo(767.36676, 532.5105, 768.0386, 532.7017, 768.25757, 532.56506);
	    ((GeneralPath) shape).curveTo(768.7143, 532.27966, 769.3323, 532.47797, 770.0119, 532.3898);
	    ((GeneralPath) shape).curveTo(770.4081, 532.33875, 770.0314, 531.68866, 770.7135, 531.68866);
	    ((GeneralPath) shape).curveTo(771.3396, 531.68866, 773.0702, 532.52783, 771.94165, 533.0912);
	    ((GeneralPath) shape).curveTo(771.7312, 533.19635, 770.96936, 532.84686, 771.2397, 533.4417);
	    ((GeneralPath) shape).curveTo(771.64716, 534.3376, 771.6748, 533.6726, 772.2924, 534.3181);
	    ((GeneralPath) shape).curveTo(772.46106, 534.49445, 772.6783, 535.1948, 772.8186, 535.1948);
	    ((GeneralPath) shape).curveTo(773.3175, 535.1948, 773.7505, 534.8443, 774.3975, 534.8443);
	    ((GeneralPath) shape).curveTo(775.2426, 534.8443, 774.9237, 535.453, 774.9237, 536.2468);
	    ((GeneralPath) shape).curveTo(774.9237, 536.7999, 775.2809, 537.0786, 774.9237, 537.64905);
	    ((GeneralPath) shape).curveTo(774.5112, 538.30945, 776.33966, 538.32324, 776.5026, 538.3505);
	    ((GeneralPath) shape).lineTo(776.5026, 544.6615);
	    ((GeneralPath) shape).curveTo(777.0189, 544.6615, 777.9062, 545.36505, 777.9062, 545.8888);
	    ((GeneralPath) shape).curveTo(777.9062, 547.30444, 777.4753, 547.4666, 779.13434, 547.4666);
	    ((GeneralPath) shape).curveTo(779.9621, 547.4666, 780.76215, 547.2913, 781.5903, 547.2913);
	    ((GeneralPath) shape).curveTo(783.97925, 547.2913, 782.47363, 547.3681, 783.52, 548.5186);
	    ((GeneralPath) shape).curveTo(783.7192, 548.73676, 784.031, 548.6131, 783.87085, 548.86914);
	    ((GeneralPath) shape).curveTo(783.6618, 549.20447, 782.6484, 551.0659, 783.69543, 550.79755);
	    ((GeneralPath) shape).curveTo(784.0026, 550.71924, 785.2396, 550.70233, 785.27435, 550.97284);
	    ((GeneralPath) shape).curveTo(785.36255, 551.6534, 784.40375, 551.726, 784.9235, 552.02484);
	    ((GeneralPath) shape).curveTo(786.06274, 552.67993, 785.5525, 552.72595, 787.20404, 552.72595);
	    ((GeneralPath) shape).curveTo(787.3128, 552.39984, 787.60834, 552.60913, 787.7306, 552.20013);
	    ((GeneralPath) shape).curveTo(787.8096, 551.936, 787.96655, 551.61804, 787.906, 551.14813);
	    ((GeneralPath) shape).curveTo(787.8479, 550.69916, 787.7887, 551.2465, 787.7306, 550.7976);
	    ((GeneralPath) shape).curveTo(787.65717, 550.23035, 788.2742, 549.1231, 788.78296, 548.8692);
	    ((GeneralPath) shape).curveTo(788.9555, 548.7831, 789.1827, 548.7715, 789.3095, 548.5187);
	    ((GeneralPath) shape).curveTo(789.45905, 548.2191, 789.3889, 546.6561, 789.4849, 546.2394);
	    ((GeneralPath) shape).curveTo(790.08307, 546.2394, 792.1163, 546.2294, 792.1163, 545.53827);
	    ((GeneralPath) shape).curveTo(792.1163, 544.32056, 792.7374, 544.5036, 793.6952, 544.13574);
	    ((GeneralPath) shape).curveTo(795.63446, 543.3904, 797.0912, 544.4559, 798.08124, 542.0321);
	    ((GeneralPath) shape).curveTo(798.6751, 540.5782, 797.1153, 539.7532, 799.48444, 539.7532);
	    ((GeneralPath) shape).curveTo(800.2647, 539.7532, 798.56244, 540.6104, 799.66016, 539.227);
	    ((GeneralPath) shape).curveTo(800.13885, 538.62396, 801.198, 538.64026, 801.5899, 538.17535);
	    ((GeneralPath) shape).curveTo(802.41376, 537.19806, 804.74744, 536.47504, 804.74744, 535.54553);
	    ((GeneralPath) shape).curveTo(804.74744, 534.5073, 804.73535, 534.64545, 805.8002, 534.31824);
	    ((GeneralPath) shape).curveTo(806.5677, 534.0629, 807.5545, 534.32025, 807.5545, 533.0913);
	    ((GeneralPath) shape).curveTo(807.5545, 531.68274, 808.38293, 529.2505, 809.1334, 531.6888);
	    ((GeneralPath) shape).curveTo(809.3336, 532.341, 809.6596, 531.7444, 809.6596, 532.7408);
	    ((GeneralPath) shape).curveTo(809.6596, 534.15717, 810.84875, 533.6894, 810.88776, 533.0913);
	    ((GeneralPath) shape).curveTo(810.95013, 532.12604, 810.95044, 532.38983, 811.9405, 532.38983);
	    ((GeneralPath) shape).curveTo(812.9798, 532.38983, 813.0719, 532.79065, 814.04565, 533.0913);
	    ((GeneralPath) shape).curveTo(814.4255, 533.2081, 814.9981, 533.2595, 815.098, 533.6171);
	    ((GeneralPath) shape).curveTo(815.28546, 534.2839, 815.093, 534.8016, 815.44916, 535.37024);
	    ((GeneralPath) shape).curveTo(815.86194, 536.031, 815.3386, 536.3412, 815.2734, 537.12335);
	    ((GeneralPath) shape).curveTo(815.57916, 537.3521, 815.62134, 537.80853, 815.7999, 537.8248);
	    ((GeneralPath) shape).curveTo(816.32684, 537.8715, 816.3063, 537.874, 816.67694, 538.17535);
	    ((GeneralPath) shape).curveTo(817.56494, 538.8952, 817.13367, 538.45935, 818.0805, 538.35065);
	    ((GeneralPath) shape).curveTo(819.3593, 538.20404, 818.943, 538.36414, 819.13324, 539.4023);
	    ((GeneralPath) shape).curveTo(819.3122, 540.37854, 819.6594, 538.90265, 819.6594, 540.279);
	    ((GeneralPath) shape).curveTo(819.6594, 541.56366, 820.75433, 540.52295, 820.8876, 541.6815);
	    ((GeneralPath) shape).curveTo(820.9808, 542.49664, 820.007, 542.9584, 820.53644, 543.6099);
	    ((GeneralPath) shape).curveTo(820.80255, 543.9378, 820.7749, 544.6403, 820.53644, 544.8372);
	    ((GeneralPath) shape).curveTo(819.9745, 545.3007, 819.2771, 545.2561, 820.01025, 545.7136);
	    ((GeneralPath) shape).curveTo(820.2303, 545.851, 820.18567, 546.39703, 820.18567, 546.7656);
	    ((GeneralPath) shape).curveTo(819.6297, 546.95044, 820.1877, 547.6091, 820.88763, 547.29144);
	    ((GeneralPath) shape).curveTo(821.30756, 547.1006, 821.57043, 546.9409, 822.46655, 546.9409);
	    ((GeneralPath) shape).curveTo(823.846, 546.9409, 823.37616, 547.99255, 824.2209, 547.99255);
	    ((GeneralPath) shape).curveTo(824.5522, 547.99255, 826.4405, 547.5524, 826.5014, 547.99255);
	    ((GeneralPath) shape).curveTo(826.59033, 548.6335, 826.79694, 550.38336, 827.5538, 548.86926);
	    ((GeneralPath) shape).curveTo(827.9694, 548.0375, 827.9333, 548.1965, 828.25574, 548.51874);
	    ((GeneralPath) shape).curveTo(828.49884, 548.76166, 829.13275, 548.7351, 829.13275, 549.21985);
	    ((GeneralPath) shape).curveTo(829.13275, 550.496, 828.43115, 549.6525, 828.43115, 550.97296);
	    ((GeneralPath) shape).curveTo(828.43115, 551.52606, 828.2182, 552.2615, 828.25574, 552.5508);
	    ((GeneralPath) shape).curveTo(828.32025, 553.05145, 829.64264, 552.3716, 829.9828, 553.0178);
	    ((GeneralPath) shape).lineTo(829.08984, 553.0362);
	    ((GeneralPath) shape).curveTo(829.4825, 553.8067, 829.56006, 553.90796, 830.29034, 554.31024);
	    ((GeneralPath) shape).curveTo(830.47565, 554.4126, 830.37225, 554.37787, 830.5685, 554.4494);
	    ((GeneralPath) shape).curveTo(831.2711, 554.704, 830.73505, 554.81976, 831.1248, 555.4221);
	    ((GeneralPath) shape).curveTo(831.375, 555.8095, 831.7187, 556.1168, 832.0982, 556.1168);
	    ((GeneralPath) shape).curveTo(832.5053, 556.1168, 833.00604, 556.05133, 833.21045, 556.2556);
	    ((GeneralPath) shape).curveTo(833.5017, 556.5467, 834.18414, 556.5194, 834.18414, 557.0895);
	    ((GeneralPath) shape).curveTo(834.3712, 557.69745, 834.3131, 557.991, 834.87933, 558.20135);
	    ((GeneralPath) shape).curveTo(835.9831, 558.611, 836.5479, 557.9985, 836.5479, 559.174);
	    ((GeneralPath) shape).curveTo(836.5479, 560.4792, 837.6556, 560.00226, 837.7998, 561.39734);
	    ((GeneralPath) shape).curveTo(837.8664, 562.0425, 842.0352, 560.7157, 840.99805, 562.2312);
	    ((GeneralPath) shape).curveTo(840.7362, 562.6133, 840.5023, 562.0085, 840.581, 562.9259);
	    ((GeneralPath) shape).curveTo(840.6444, 563.67163, 841.5579, 565.01044, 842.2496, 565.01044);
	    ((GeneralPath) shape).curveTo(842.85443, 565.01044, 843.309, 564.5937, 844.05743, 564.5937);
	    ((GeneralPath) shape).curveTo(844.05743, 566.95404, 844.6066, 566.6782, 846.69977, 566.6782);
	    ((GeneralPath) shape).curveTo(849.3559, 566.6782, 852.8206, 569.44086, 852.9574, 571.81995);
	    ((GeneralPath) shape).curveTo(852.9992, 572.54724, 853.79895, 574.51385, 854.2093, 574.5992);
	    ((GeneralPath) shape).curveTo(856.26373, 575.02625, 855.5246, 578.485, 857.82465, 577.7952);
	    ((GeneralPath) shape).curveTo(859.20905, 577.44965, 859.64844, 576.92346, 860.8844, 578.21234);
	    ((GeneralPath) shape).curveTo(861.20435, 578.54663, 861.4634, 578.94214, 861.8578, 579.18506);
	    ((GeneralPath) shape).curveTo(862.06506, 579.31323, 863.04626, 578.9071, 863.52637, 578.9071);
	    ((GeneralPath) shape).lineTo(863.52637, 580.5749);
	    ((GeneralPath) shape).curveTo(863.52637, 581.5901, 862.51794, 580.74805, 862.4141, 581.5476);
	    ((GeneralPath) shape).curveTo(862.2628, 582.7101, 861.3192, 583.3542, 861.57965, 584.6048);
	    ((GeneralPath) shape).curveTo(861.7717, 585.5279, 862.2054, 589.90875, 862.9701, 590.1633);
	    ((GeneralPath) shape).lineTo(822.36383, 591.9699);
	    ((GeneralPath) shape).lineTo(807.2059, 621.7086);
	    ((GeneralPath) shape).lineTo(811.93384, 625.59973);
	    ((GeneralPath) shape).curveTo(811.93384, 629.9076, 809.8482, 632.4861, 809.8482, 636.57794);
	    ((GeneralPath) shape).curveTo(809.8482, 638.483, 809.2919, 639.1989, 809.2919, 641.02496);
	    ((GeneralPath) shape).curveTo(809.2919, 642.9303, 808.332, 643.71356, 807.545, 644.66003);
	    ((GeneralPath) shape).curveTo(803.34357, 641.2519, 800.0018, 638.23645, 799.38275, 637.3385);
	    ((GeneralPath) shape).curveTo(791.87854, 626.4527, 779.27966, 620.4427, 769.3645, 611.16693);
	    ((GeneralPath) shape).curveTo(764.76697, 606.8658, 756.60944, 604.58563, 751.6358, 600.2953);
	    ((GeneralPath) shape).curveTo(750.18726, 599.0457, 747.96985, 598.4899, 745.67706, 597.9822);
	    ((GeneralPath) shape).closePath();
	    
	    g.setPaint(new Color(0x3c7a51));

	    g.fill(shape);
	    g.setPaint(Color.WHITE);
	    g.draw(shape);
	    this.detectMouse(g,shape,"Chiapas");
	    if (this.drawSquares){ this.paintSquare(g, shape); }
	    // _0_0_0_2
	    /*
	     * Tabasco
	     * */
	    shape = new GeneralPath();
	    ((GeneralPath) shape).moveTo(740.7985, 526.78876);
	    ((GeneralPath) shape).lineTo(742.05383, 529.1367);
	    ((GeneralPath) shape).curveTo(742.05383, 530.33923, 742.30896, 531.27966, 742.30896, 532.44855);
	    ((GeneralPath) shape).curveTo(742.30896, 534.04126, 742.80115, 533.0434, 743.32874, 533.9772);
	    ((GeneralPath) shape).curveTo(743.5481, 534.3649, 741.80365, 536.1605, 742.81885, 537.5443);
	    ((GeneralPath) shape).curveTo(743.0506, 537.8598, 745.39954, 537.2742, 745.87823, 537.5443);
	    ((GeneralPath) shape).curveTo(747.4136, 538.4115, 744.9906, 538.9543, 747.9178, 540.092);
	    ((GeneralPath) shape).curveTo(749.15765, 541.0204, 749.5318, 542.7969, 751.2323, 542.8942);
	    ((GeneralPath) shape).curveTo(752.8233, 542.9856, 755.21295, 543.9614, 754.8016, 545.4419);
	    ((GeneralPath) shape).curveTo(754.3239, 547.161, 756.8082, 547.0038, 757.09595, 547.735);
	    ((GeneralPath) shape).curveTo(757.1218, 547.7998, 757.6058, 552.1681, 756.8412, 552.57544);
	    ((GeneralPath) shape).curveTo(755.48676, 553.297, 756.8583, 554.801, 756.82556, 556.69006);
	    ((GeneralPath) shape).curveTo(757.6714, 554.8508, 759.2394, 557.9247, 759.48596, 554.1285);
	    ((GeneralPath) shape).curveTo(759.5785, 552.7026, 760.80945, 553.19934, 761.0646, 552.55066);
	    ((GeneralPath) shape).curveTo(761.62976, 551.1162, 761.91394, 550.1212, 762.2927, 548.5186);
	    ((GeneralPath) shape).curveTo(762.6205, 547.1299, 762.88306, 547.7534, 763.5209, 547.116);
	    ((GeneralPath) shape).curveTo(764.35785, 546.27966, 763.24664, 545.7383, 764.57324, 544.66144);
	    ((GeneralPath) shape).curveTo(764.90564, 544.39233, 765.5037, 544.1512, 765.8014, 543.7851);
	    ((GeneralPath) shape).curveTo(766.8977, 542.4353, 766.7921, 540.45416, 764.57324, 540.45416);
	    ((GeneralPath) shape).lineTo(764.3978, 537.2985);
	    ((GeneralPath) shape).lineTo(765.45056, 533.61707);
	    ((GeneralPath) shape).curveTo(766.8261, 533.0282, 766.7627, 534.02075, 767.2049, 532.91595);
	    ((GeneralPath) shape).curveTo(767.3668, 532.5105, 768.03864, 532.7017, 768.2576, 532.56506);
	    ((GeneralPath) shape).curveTo(768.71436, 532.27966, 769.33234, 532.47797, 770.01196, 532.3898);
	    ((GeneralPath) shape).curveTo(770.40814, 532.33875, 770.03143, 531.68866, 770.71356, 531.68866);
	    ((GeneralPath) shape).curveTo(771.33966, 531.68866, 773.0703, 532.52783, 771.9417, 533.0912);
	    ((GeneralPath) shape).curveTo(771.73126, 533.19635, 770.9694, 532.84686, 771.23975, 533.4417);
	    ((GeneralPath) shape).curveTo(771.6472, 534.3376, 771.67487, 533.6726, 772.2925, 534.3181);
	    ((GeneralPath) shape).curveTo(772.4611, 534.49445, 772.67834, 535.1948, 772.81866, 535.1948);
	    ((GeneralPath) shape).curveTo(773.31757, 535.1948, 773.75055, 534.8443, 774.3976, 534.8443);
	    ((GeneralPath) shape).curveTo(775.2427, 534.8443, 774.92377, 535.453, 774.92377, 536.2468);
	    ((GeneralPath) shape).curveTo(774.92377, 536.7999, 775.28094, 537.0786, 774.92377, 537.64905);
	    ((GeneralPath) shape).curveTo(774.5113, 538.30945, 776.3397, 538.32324, 776.5027, 538.3505);
	    ((GeneralPath) shape).lineTo(776.5027, 544.6615);
	    ((GeneralPath) shape).curveTo(777.019, 544.6615, 777.90625, 545.36505, 777.90625, 545.8888);
	    ((GeneralPath) shape).curveTo(777.90625, 547.30444, 777.47534, 547.4666, 779.1344, 547.4666);
	    ((GeneralPath) shape).curveTo(779.96216, 547.4666, 780.7622, 547.2913, 781.59033, 547.2913);
	    ((GeneralPath) shape).curveTo(783.9793, 547.2913, 782.4737, 547.3681, 783.5201, 548.5186);
	    ((GeneralPath) shape).curveTo(783.71924, 548.73676, 784.03107, 548.6131, 783.8709, 548.86914);
	    ((GeneralPath) shape).curveTo(783.66187, 549.20447, 782.64844, 551.0659, 783.6955, 550.79755);
	    ((GeneralPath) shape).curveTo(784.0027, 550.71924, 785.2397, 550.70233, 785.2744, 550.97284);
	    ((GeneralPath) shape).curveTo(785.3626, 551.6534, 784.4038, 551.726, 784.9236, 552.02484);
	    ((GeneralPath) shape).curveTo(786.0628, 552.67993, 785.55255, 552.72595, 787.2041, 552.72595);
	    ((GeneralPath) shape).curveTo(787.31287, 552.39984, 787.6084, 552.60913, 787.73065, 552.20013);
	    ((GeneralPath) shape).curveTo(787.80963, 551.936, 787.9666, 551.61804, 787.90607, 551.14813);
	    ((GeneralPath) shape).curveTo(787.84796, 550.69916, 787.78876, 551.2465, 787.73065, 550.7976);
	    ((GeneralPath) shape).curveTo(787.6572, 550.23035, 788.27423, 549.1231, 788.783, 548.8692);
	    ((GeneralPath) shape).curveTo(788.95557, 548.7831, 789.18274, 548.7715, 789.3096, 548.5187);
	    ((GeneralPath) shape).curveTo(789.4591, 548.2191, 789.389, 546.6561, 789.485, 546.2394);
	    ((GeneralPath) shape).curveTo(790.0831, 546.2394, 792.11633, 546.2294, 792.11633, 545.53827);
	    ((GeneralPath) shape).curveTo(792.11633, 544.32056, 792.7375, 544.5036, 793.69525, 544.13574);
	    ((GeneralPath) shape).curveTo(795.6345, 543.3904, 797.09125, 544.4559, 798.0813, 542.0321);
	    ((GeneralPath) shape).curveTo(798.6752, 540.5782, 797.11536, 539.7532, 799.4845, 539.7532);
	    ((GeneralPath) shape).curveTo(800.2648, 539.7532, 798.5625, 540.6104, 799.6602, 539.227);
	    ((GeneralPath) shape).curveTo(800.1389, 538.62396, 801.19806, 538.64026, 801.58997, 538.17535);
	    ((GeneralPath) shape).curveTo(802.4138, 537.19806, 804.7475, 536.47504, 804.7475, 535.54553);
	    ((GeneralPath) shape).curveTo(804.7475, 534.5073, 804.7354, 534.64545, 805.80023, 534.31824);
	    ((GeneralPath) shape).curveTo(806.56775, 534.0629, 807.55457, 534.32025, 807.55457, 533.0913);
	    ((GeneralPath) shape).curveTo(807.55457, 531.68274, 808.383, 529.2505, 809.1335, 531.6888);
	    ((GeneralPath) shape).curveTo(809.3337, 532.341, 809.65967, 531.7444, 809.65967, 532.7408);
	    ((GeneralPath) shape).curveTo(809.65967, 534.15717, 810.8488, 533.6894, 810.8878, 533.0913);
	    ((GeneralPath) shape).curveTo(810.9502, 532.12604, 810.9505, 532.38983, 811.94055, 532.38983);
	    ((GeneralPath) shape).curveTo(812.97986, 532.38983, 813.07196, 532.79065, 814.0457, 533.0913);
	    ((GeneralPath) shape).curveTo(814.42554, 533.2081, 814.99817, 533.2595, 815.0981, 533.6171);
	    ((GeneralPath) shape).curveTo(815.2855, 534.2839, 815.0931, 534.8016, 815.4492, 535.37024);
	    ((GeneralPath) shape).curveTo(815.862, 536.031, 815.3387, 536.3412, 815.27344, 537.12335);
	    ((GeneralPath) shape).curveTo(815.5792, 537.3521, 815.6214, 537.80853, 815.8, 537.8248);
	    ((GeneralPath) shape).curveTo(816.3269, 537.8715, 816.30634, 537.874, 816.677, 538.17535);
	    ((GeneralPath) shape).curveTo(817.565, 538.8952, 817.1337, 538.45935, 818.08057, 538.35065);
	    ((GeneralPath) shape).curveTo(819.3594, 538.20404, 818.94305, 538.36414, 819.1333, 539.4023);
	    ((GeneralPath) shape).curveTo(819.31226, 540.37854, 819.6595, 538.90265, 819.6595, 540.279);
	    ((GeneralPath) shape).curveTo(819.6595, 541.56366, 820.7544, 540.52295, 820.88763, 541.6815);
	    ((GeneralPath) shape).curveTo(820.98083, 542.49664, 820.0071, 542.9584, 820.5365, 543.6099);
	    ((GeneralPath) shape).curveTo(820.8026, 543.9378, 820.77496, 544.6403, 820.5365, 544.8372);
	    ((GeneralPath) shape).curveTo(819.97455, 545.3007, 819.27716, 545.2561, 820.0103, 545.7136);
	    ((GeneralPath) shape).curveTo(820.23035, 545.851, 820.1857, 546.39703, 820.1857, 546.7656);
	    ((GeneralPath) shape).curveTo(819.62976, 546.95044, 820.18774, 547.6091, 820.8877, 547.29144);
	    ((GeneralPath) shape).curveTo(821.3076, 547.1006, 821.5705, 546.9409, 822.4666, 546.9409);
	    ((GeneralPath) shape).curveTo(823.84607, 546.9409, 823.3762, 547.99255, 824.22095, 547.99255);
	    ((GeneralPath) shape).curveTo(824.55225, 547.99255, 826.44055, 547.5524, 826.50146, 547.99255);
	    ((GeneralPath) shape).curveTo(826.5904, 548.6335, 826.797, 550.38336, 827.55383, 548.86926);
	    ((GeneralPath) shape).curveTo(827.9695, 548.0375, 827.93335, 548.1965, 828.2558, 548.51874);
	    ((GeneralPath) shape).curveTo(828.4989, 548.76166, 829.1328, 548.7351, 829.1328, 549.21985);
	    ((GeneralPath) shape).curveTo(829.1328, 550.496, 828.4312, 549.6525, 828.4312, 550.97296);
	    ((GeneralPath) shape).curveTo(828.4312, 551.52606, 828.21826, 552.2615, 828.2558, 552.5508);
	    ((GeneralPath) shape).curveTo(828.3203, 553.05145, 829.6427, 552.3716, 829.95056, 553.01935);
	    ((GeneralPath) shape).lineTo(840.91815, 552.7983);
	    ((GeneralPath) shape).lineTo(840.83624, 545.8319);
	    ((GeneralPath) shape).lineTo(840.6568, 528.11926);
	    ((GeneralPath) shape).curveTo(838.31, 526.0092, 834.0588, 527.89154, 832.1967, 526.40326);
	    ((GeneralPath) shape).curveTo(829.9584, 524.61475, 829.8917, 526.1271, 827.5301, 525.38983);
	    ((GeneralPath) shape).curveTo(826.128, 524.95184, 825.2208, 523.9809, 823.87823, 523.9703);
	    ((GeneralPath) shape).lineTo(820.83484, 523.94586);
	    ((GeneralPath) shape).lineTo(820.83484, 531.47205);
	    ((GeneralPath) shape).curveTo(819.2385, 531.47205, 817.8857, 531.38745, 816.98, 530.25574);
	    ((GeneralPath) shape).curveTo(816.4835, 529.635, 813.7512, 529.6474, 812.92206, 529.6474);
	    ((GeneralPath) shape).curveTo(811.13513, 529.6474, 812.8456, 528.72675, 812.11066, 527.82275);
	    ((GeneralPath) shape).curveTo(811.84735, 527.4984, 810.58026, 527.7261, 810.28436, 527.6199);
	    ((GeneralPath) shape).curveTo(809.5672, 527.3624, 806.7272, 525.2949, 806.2268, 525.7952);
	    ((GeneralPath) shape).curveTo(805.69214, 526.3292, 805.2226, 526.2007, 804.1979, 526.2007);
	    ((GeneralPath) shape).curveTo(803.18976, 526.2007, 803.83435, 522.47, 802.37164, 522.3485);
	    ((GeneralPath) shape).lineTo(802.37164, 514.84674);
	    ((GeneralPath) shape).lineTo(801.35754, 514.84674);
	    ((GeneralPath) shape).curveTo(800.662, 514.84674, 801.236, 514.82166, 800.9515, 514.6442);
	    ((GeneralPath) shape).curveTo(800.3441, 514.2643, 799.92316, 515.1846, 799.7343, 514.23846);
	    ((GeneralPath) shape).curveTo(799.6128, 513.6287, 798.54016, 514.6442, 798.1111, 514.6442);
	    ((GeneralPath) shape).lineTo(797.5023, 514.6442);
	    ((GeneralPath) shape).curveTo(797.0711, 514.6442, 795.5411, 514.80817, 795.4737, 514.44135);
	    ((GeneralPath) shape).curveTo(795.3933, 514.00226, 795.26746, 513.6237, 795.0676, 513.2247);
	    ((GeneralPath) shape).lineTo(793.4093, 513.4279);
	    ((GeneralPath) shape).lineTo(793.4093, 510.53287);
	    ((GeneralPath) shape).lineTo(790.604, 509.78183);
	    ((GeneralPath) shape).lineTo(790.604, 508.36194);
	    ((GeneralPath) shape).curveTo(790.1604, 508.50073, 789.71814, 508.75427, 789.23663, 509.23547);
	    ((GeneralPath) shape).curveTo(787.3632, 509.85938, 786.0692, 510.5442, 784.5512, 511.34232);
	    ((GeneralPath) shape).curveTo(783.4645, 511.91418, 782.72, 511.76794, 781.74023, 512.747);
	    ((GeneralPath) shape).curveTo(779.668, 514.81775, 776.69336, 517.3084, 773.775, 517.42914);
	    ((GeneralPath) shape).curveTo(772.9462, 517.46313, 772.29, 517.6416, 772.3694, 518.5994);
	    ((GeneralPath) shape).curveTo(772.47253, 519.8356, 771.5186, 522.589, 769.7926, 521.4088);
	    ((GeneralPath) shape).curveTo(767.7282, 519.9971, 772.1125, 518.5994, 770.9637, 518.5994);
	    ((GeneralPath) shape).curveTo(770.1455, 518.5994, 768.71576, 518.92804, 768.62115, 518.83386);
	    ((GeneralPath) shape).curveTo(767.96954, 518.1827, 766.0901, 518.13135, 764.8729, 518.13135);
	    ((GeneralPath) shape).curveTo(762.69977, 518.13135, 758.9423, 518.1508, 757.845, 519.302);
	    ((GeneralPath) shape).curveTo(754.4217, 522.8932, 747.38983, 521.20807, 744.96014, 525.1544);
	    ((GeneralPath) shape).curveTo(744.8704, 525.2999, 742.8625, 525.77313, 742.61725, 525.85693);
	    ((GeneralPath) shape).curveTo(741.8954, 526.1037, 741.3174, 526.4351, 740.7986, 526.7889);
	    ((GeneralPath) shape).closePath();
	    g.setPaint(new Color(0x3c7a51));
	    //g.setPaint(Color.white);
	    g.fill(shape);
	    g.setPaint(Color.WHITE);
	    g.draw(shape);
	    if (this.drawSquares){ this.paintSquare(g, shape); }
	    this.detectMouse(g, shape, "Tabasco");
	    
	    /*
	     * 
	     * Oaxaca
	     * 
	     * 
	     * */
	    // _0_0_0_3
	    shape = new GeneralPath();
	    ((GeneralPath) shape).moveTo(598.99927, 592.6084);
	    ((GeneralPath) shape).curveTo(599.13885, 592.5599, 599.3275, 592.5141, 599.5957, 592.47375);
	    ((GeneralPath) shape).curveTo(600.29266, 592.3696, 599.6531, 592.0099, 600.8649, 591.9664);
	    ((GeneralPath) shape).curveTo(603.34106, 591.87744, 604.58795, 593.108, 606.9581, 592.2199);
	    ((GeneralPath) shape).curveTo(606.9581, 591.8641, 606.90326, 591.2334, 606.9581, 590.95154);
	    ((GeneralPath) shape).curveTo(607.09314, 590.25714, 607.8546, 590.60455, 607.9737, 590.44415);
	    ((GeneralPath) shape).curveTo(608.2182, 590.1159, 608.5385, 589.16656, 608.48145, 588.6684);
	    ((GeneralPath) shape).curveTo(608.3808, 587.7931, 607.4659, 586.9111, 607.4659, 586.13135);
	    ((GeneralPath) shape).curveTo(607.4659, 584.76245, 608.1253, 585.1165, 609.49695, 585.1165);
	    ((GeneralPath) shape).curveTo(610.0575, 585.1165, 610.11206, 585.062, 610.2584, 585.6239);
	    ((GeneralPath) shape).curveTo(610.3984, 586.1607, 611.73175, 585.87744, 612.2895, 585.87744);
	    ((GeneralPath) shape).curveTo(613.6746, 585.87744, 613.0372, 581.84045, 615.3361, 581.3111);
	    ((GeneralPath) shape).curveTo(617.85443, 580.7304, 616.85944, 574.71014, 616.85944, 572.4316);
	    ((GeneralPath) shape).curveTo(616.85944, 570.86896, 618.36646, 570.18274, 619.90607, 569.89453);
	    ((GeneralPath) shape).curveTo(619.74023, 569.3974, 619.0082, 569.7993, 618.6365, 569.3871);
	    ((GeneralPath) shape).curveTo(617.52423, 568.1513, 617.1961, 568.85486, 615.84393, 568.6258);
	    ((GeneralPath) shape).curveTo(614.32416, 568.3687, 614.82837, 568.50507, 614.82837, 567.1036);
	    ((GeneralPath) shape).curveTo(614.82837, 566.2074, 614.2781, 566.80756, 613.81287, 566.34265);
	    ((GeneralPath) shape).curveTo(612.9957, 565.52576, 612.5904, 566.4114, 611.274, 565.58136);
	    ((GeneralPath) shape).curveTo(610.51215, 565.1008, 610.44446, 564.1799, 610.2584, 563.29816);
	    ((GeneralPath) shape).lineTo(610.5125, 556.44824);
	    ((GeneralPath) shape).curveTo(611.0171, 556.2804, 611.2375, 555.3017, 611.02026, 554.6721);
	    ((GeneralPath) shape).curveTo(610.4126, 552.9109, 609.9976, 553.80286, 607.97363, 553.40375);
	    ((GeneralPath) shape).curveTo(606.0081, 553.016, 608.49023, 551.12054, 606.1963, 551.12054);
	    ((GeneralPath) shape).curveTo(605.5794, 551.12054, 604.67334, 550.14044, 604.67334, 549.8518);
	    ((GeneralPath) shape).curveTo(604.67334, 549.50336, 605.01776, 549.5151, 605.1811, 549.0909);
	    ((GeneralPath) shape).curveTo(605.72217, 547.68335, 603.1383, 547.0375, 604.67334, 545.79254);
	    ((GeneralPath) shape).curveTo(604.92883, 545.585, 605.64636, 545.6116, 605.68854, 545.28516);
	    ((GeneralPath) shape).curveTo(605.8388, 544.1294, 606.15094, 543.753, 606.1963, 543.00195);
	    ((GeneralPath) shape).curveTo(606.2023, 542.905, 606.20526, 542.8129, 606.2126, 542.72565);
	    ((GeneralPath) shape).curveTo(606.8453, 542.6423, 607.44293, 541.9592, 608.1352, 542.04913);
	    ((GeneralPath) shape).curveTo(608.5097, 542.0977, 613.9226, 544.00867, 613.0237, 542.21204);
	    ((GeneralPath) shape).curveTo(612.3788, 540.9228, 614.26776, 540.5301, 615.1423, 539.76953);
	    ((GeneralPath) shape).curveTo(615.5363, 539.42676, 617.19073, 539.4547, 618.23816, 539.93243);
	    ((GeneralPath) shape).curveTo(618.7633, 540.17145, 619.2753, 539.07446, 620.03076, 539.6067);
	    ((GeneralPath) shape).curveTo(625.10065, 543.17804, 623.6624, 538.7926, 626.22284, 538.7926);
	    ((GeneralPath) shape).curveTo(626.71185, 538.7926, 627.2079, 538.8747, 627.68945, 538.7926);
	    ((GeneralPath) shape).curveTo(627.79614, 538.77423, 627.7681, 538.697, 627.8525, 538.6297);
	    ((GeneralPath) shape).curveTo(627.9545, 538.5479, 627.98285, 538.43, 628.01544, 538.30396);
	    ((GeneralPath) shape).curveTo(628.1161, 537.91693, 628.12885, 538.35846, 628.17847, 537.9782);
	    ((GeneralPath) shape).curveTo(628.25037, 537.42334, 628.1805, 537.9106, 628.3415, 537.65247);
	    ((GeneralPath) shape).curveTo(628.5442, 537.3285, 628.16187, 536.8639, 627.8525, 536.83844);
	    ((GeneralPath) shape).curveTo(627.6661, 536.82324, 627.2345, 536.8026, 627.03784, 536.83844);
	    ((GeneralPath) shape).curveTo(626.6697, 536.90466, 626.642, 536.90576, 626.5488, 537.1642);
	    ((GeneralPath) shape).curveTo(626.4754, 537.3678, 626.5084, 537.47363, 626.38586, 537.65247);
	    ((GeneralPath) shape).curveTo(626.3246, 537.74207, 626.3171, 537.7622, 626.22284, 537.81537);
	    ((GeneralPath) shape).curveTo(625.9812, 537.9517, 626.05597, 538.02, 625.7342, 537.9783);
	    ((GeneralPath) shape).curveTo(625.45886, 537.9433, 625.5712, 537.7598, 625.5712, 537.49);
	    ((GeneralPath) shape).curveTo(625.5712, 536.66956, 625.94965, 536.4022, 625.4082, 535.8615);
	    ((GeneralPath) shape).curveTo(624.7229, 535.1767, 622.9721, 535.0202, 622.638, 534.39594);
	    ((GeneralPath) shape).curveTo(622.09796, 533.38574, 622.6511, 532.82025, 622.964, 532.11633);
	    ((GeneralPath) shape).curveTo(623.22833, 531.5214, 623.25635, 530.6235, 623.7786, 530.48785);
	    ((GeneralPath) shape).curveTo(624.7116, 530.24493, 624.94653, 529.7492, 625.0493, 528.95715);
	    ((GeneralPath) shape).curveTo(625.0929, 528.6183, 628.39075, 528.3708, 629.4821, 528.3708);
	    ((GeneralPath) shape).lineTo(629.4821, 530.1621);
	    ((GeneralPath) shape).curveTo(629.4821, 530.9273, 629.2851, 532.0827, 630.1341, 532.2789);
	    ((GeneralPath) shape).curveTo(631.4044, 532.5735, 632.59393, 533.55676, 633.06696, 534.72174);
	    ((GeneralPath) shape).curveTo(633.13007, 534.87683, 632.9946, 535.22845, 633.06696, 535.3729);
	    ((GeneralPath) shape).curveTo(633.1254, 535.48975, 634.0775, 537.19684, 634.0775, 537.19684);
	    ((GeneralPath) shape).curveTo(635.05725, 537.3243, 636.71735, 537.4599, 636.71735, 536.41534);
	    ((GeneralPath) shape).curveTo(636.71735, 535.51526, 637.15, 534.65656, 638.2155, 534.65656);
	    ((GeneralPath) shape).curveTo(640.2466, 533.8021, 639.98157, 532.6379, 642.1267, 532.6379);
	    ((GeneralPath) shape).curveTo(643.1589, 532.6379, 644.2294, 531.3706, 645.3849, 532.31213);
	    ((GeneralPath) shape).curveTo(646.849, 533.50543, 648.55695, 532.1631, 649.58984, 531.92084);
	    ((GeneralPath) shape).curveTo(651.37427, 531.5023, 650.55646, 529.9992, 652.5227, 529.9992);
	    ((GeneralPath) shape).curveTo(653.5067, 529.80304, 654.0694, 530.0849, 655.0651, 529.8367);
	    ((GeneralPath) shape).curveTo(656.6713, 529.4362, 655.6576, 527.2837, 656.59656, 527.00287);
	    ((GeneralPath) shape).curveTo(657.15674, 526.8354, 656.3287, 525.4597, 656.69543, 525.27704);
	    ((GeneralPath) shape).curveTo(657.45197, 524.89886, 658.48804, 524.93427, 658.48096, 523.96954);
	    ((GeneralPath) shape).curveTo(659.17, 523.6911, 659.99396, 523.0367, 660.0092, 522.65674);
	    ((GeneralPath) shape).curveTo(660.06824, 521.1904, 659.81573, 519.5772, 660.2041, 518.1608);
	    ((GeneralPath) shape).curveTo(660.58075, 516.7855, 660.2785, 516.1131, 659.2279, 515.48883);
	    ((GeneralPath) shape).curveTo(658.4813, 515.0462, 658.99725, 514.3079, 659.09753, 513.59906);
	    ((GeneralPath) shape).lineTo(661.506, 513.59906);
	    ((GeneralPath) shape).lineTo(668.9262, 520.37604);
	    ((GeneralPath) shape).curveTo(669.3861, 520.8374, 669.6671, 522.0551, 670.03284, 522.5916);
	    ((GeneralPath) shape).curveTo(670.24084, 522.89825, 670.71674, 522.74, 670.9442, 523.178);
	    ((GeneralPath) shape).curveTo(671.0781, 523.4372, 670.88544, 524.4389, 670.9442, 524.742);
	    ((GeneralPath) shape).curveTo(671.0541, 525.30536, 673.4172, 526.00574, 673.4172, 526.8924);
	    ((GeneralPath) shape).curveTo(673.4172, 528.1827, 674.0986, 528.53925, 674.26337, 529.564);
	    ((GeneralPath) shape).curveTo(674.4388, 530.6504, 675.511, 529.6561, 675.5652, 530.80225);
	    ((GeneralPath) shape).curveTo(675.623, 530.8168, 676.12537, 531.54584, 676.4113, 531.7144);
	    ((GeneralPath) shape).curveTo(677.08527, 532.111, 678.69714, 531.4995, 679.5359, 532.10535);
	    ((GeneralPath) shape).curveTo(680.2102, 532.59326, 681.5535, 532.47784, 682.2044, 531.9754);
	    ((GeneralPath) shape).curveTo(683.1374, 531.25555, 683.61005, 531.5466, 684.4825, 531.0629);
	    ((GeneralPath) shape).curveTo(685.0367, 530.7552, 685.98486, 530.26904, 686.5653, 531.0629);
	    ((GeneralPath) shape).curveTo(686.94196, 531.57776, 688.2576, 534.3489, 688.2576, 534.64703);
	    ((GeneralPath) shape).curveTo(688.2576, 536.3226, 688.90857, 535.9278, 688.90857, 537.38416);
	    ((GeneralPath) shape).curveTo(688.90857, 537.8204, 689.03894, 538.0743, 689.03894, 538.5565);
	    ((GeneralPath) shape).curveTo(687.8459, 539.15247, 689.3185, 540.2108, 687.0862, 540.57697);
	    ((GeneralPath) shape).curveTo(685.8304, 540.7834, 687.69775, 543.3789, 686.3049, 543.9653);
	    ((GeneralPath) shape).curveTo(683.0595, 545.33136, 689.6371, 547.59436, 690.1452, 548.7873);
	    ((GeneralPath) shape).curveTo(690.87054, 550.4887, 692.22656, 551.4812, 694.1156, 551.2638);
	    ((GeneralPath) shape).curveTo(696.1949, 551.0248, 695.1237, 551.73083, 696.7841, 551.98047);
	    ((GeneralPath) shape).curveTo(697.37445, 551.53784, 697.49744, 550.8371, 698.3464, 550.61224);
	    ((GeneralPath) shape).curveTo(699.2939, 550.3616, 698.71136, 549.2012, 699.3226, 548.59216);
	    ((GeneralPath) shape).curveTo(699.37256, 548.54254, 700.58295, 548.3687, 700.9501, 548.0709);
	    ((GeneralPath) shape).curveTo(701.3002, 547.7873, 702.203, 546.446, 702.5772, 546.31146);
	    ((GeneralPath) shape).curveTo(704.16327, 545.74, 702.9252, 543.8307, 704.59485, 543.5092);
	    ((GeneralPath) shape).curveTo(705.2642, 543.3803, 705.90735, 543.50885, 706.4828, 543.1835);
	    ((GeneralPath) shape).curveTo(708.662, 541.95197, 708.3215, 546.2871, 708.04474, 547.35394);
	    ((GeneralPath) shape).curveTo(707.73364, 548.5532, 706.80206, 547.8897, 705.8117, 548.23883);
	    ((GeneralPath) shape).curveTo(705.8117, 549.8287, 707.91614, 549.3811, 709.36536, 549.5302);
	    ((GeneralPath) shape).curveTo(710.0542, 549.601, 710.0099, 551.7298, 709.6882, 552.7585);
	    ((GeneralPath) shape).curveTo(709.2736, 554.08527, 710.7285, 555.86, 710.98047, 555.0183);
	    ((GeneralPath) shape).curveTo(711.0422, 554.81256, 711.0882, 554.6954, 711.30365, 554.6954);
	    ((GeneralPath) shape).curveTo(711.5191, 554.6954, 711.68915, 554.8129, 711.6268, 555.0183);
	    ((GeneralPath) shape).curveTo(711.5513, 555.26654, 711.0655, 555.5608, 711.30365, 555.6638);
	    ((GeneralPath) shape).curveTo(711.6987, 555.8345, 712.1679, 555.6149, 712.59595, 555.6638);
	    ((GeneralPath) shape).curveTo(713.1158, 555.7233, 712.60834, 555.5958, 712.9191, 556.3093);
	    ((GeneralPath) shape).curveTo(713.2685, 557.11383, 716.7198, 557.2041, 717.75836, 557.26575);
	    ((GeneralPath) shape).lineTo(718.13434, 562.54877);
	    ((GeneralPath) shape).lineTo(750.7166, 561.79736);
	    ((GeneralPath) shape).lineTo(743.60925, 583.74994);
	    ((GeneralPath) shape).curveTo(745.9376, 583.85547, 747.8089, 583.95355, 747.8089, 586.00977);
	    ((GeneralPath) shape).lineTo(747.8089, 589.23804);
	    ((GeneralPath) shape).curveTo(747.8089, 589.9154, 748.1296, 591.7762, 747.4858, 591.82043);
	    ((GeneralPath) shape).curveTo(745.76685, 591.93976, 746.19385, 591.69934, 746.19385, 593.43475);
	    ((GeneralPath) shape).curveTo(746.19385, 594.45557, 745.4816, 594.3419, 745.54755, 595.6946);
	    ((GeneralPath) shape).curveTo(745.58545, 596.46826, 745.6301, 597.2264, 745.6741, 597.9813);
	    ((GeneralPath) shape).curveTo(743.05835, 597.40204, 740.3416, 596.88434, 738.54083, 595.4641);
	    ((GeneralPath) shape).curveTo(735.22, 595.1883, 731.91327, 593.0099, 728.87054, 594.4574);
	    ((GeneralPath) shape).curveTo(728.1937, 594.7796, 723.4619, 594.7906, 722.8269, 594.2563);
	    ((GeneralPath) shape).curveTo(721.5091, 593.14655, 725.29596, 593.4677, 725.4458, 593.45074);
	    ((GeneralPath) shape).curveTo(725.77356, 593.4136, 727.8064, 591.2933, 728.06476, 591.03516);
	    ((GeneralPath) shape).curveTo(729.2635, 589.8369, 727.59454, 587.47864, 725.8487, 589.2229);
	    ((GeneralPath) shape).curveTo(725.05035, 590.021, 725.511, 589.5207, 724.2372, 589.62585);
	    ((GeneralPath) shape).curveTo(723.2383, 589.7084, 723.6518, 591.52875, 722.6253, 592.2429);
	    ((GeneralPath) shape).curveTo(721.726, 592.8679, 722.7103, 593.12317, 720.81213, 591.43774);
	    ((GeneralPath) shape).curveTo(721.8022, 591.10846, 721.215, 590.4275, 721.215, 589.4244);
	    ((GeneralPath) shape).curveTo(721.215, 589.2438, 721.23175, 588.43365, 721.215, 588.4177);
	    ((GeneralPath) shape).curveTo(720.6683, 587.89545, 719.8267, 588.64294, 719.40186, 588.01514);
	    ((GeneralPath) shape).curveTo(719.1077, 587.5796, 719.4866, 587.199, 718.1932, 587.814);
	    ((GeneralPath) shape).curveTo(718.0723, 587.8714, 718.094, 587.9291, 717.9916, 588.01514);
	    ((GeneralPath) shape).curveTo(717.02637, 588.82745, 717.42535, 588.5767, 717.7903, 589.6259);
	    ((GeneralPath) shape).curveTo(718.1429, 590.63965, 717.36896, 591.0168, 716.7829, 590.43115);
	    ((GeneralPath) shape).curveTo(716.4785, 590.12695, 715.3861, 590.2035, 714.7681, 590.2297);
	    ((GeneralPath) shape).curveTo(714.2862, 590.25055, 713.42944, 590.5611, 713.1566, 590.83374);
	    ((GeneralPath) shape).curveTo(712.29626, 591.6935, 713.7515, 591.35956, 714.7681, 591.4378);
	    ((GeneralPath) shape).curveTo(715.83575, 591.5192, 715.171, 591.2427, 715.171, 591.8404);
	    ((GeneralPath) shape).curveTo(715.171, 593.1785, 720.3458, 593.2284, 721.61786, 593.6523);
	    ((GeneralPath) shape).curveTo(721.61786, 594.3371, 719.0524, 594.45746, 718.3944, 594.45746);
	    ((GeneralPath) shape).curveTo(716.9668, 594.45746, 715.9718, 593.8831, 714.7681, 593.6523);
	    ((GeneralPath) shape).curveTo(713.0549, 593.323, 711.6202, 594.0669, 709.93317, 594.45746);
	    ((GeneralPath) shape).curveTo(708.5062, 594.7882, 708.9201, 595.5718, 708.7242, 597.276);
	    ((GeneralPath) shape).curveTo(708.68835, 597.5897, 707.64276, 598.0766, 707.3423, 598.35986);
	    ((GeneralPath) shape).curveTo(703.1547, 602.71875, 695.07043, 605.30396, 687.96204, 607.18524);
	    ((GeneralPath) shape).curveTo(686.2212, 607.64594, 685.22473, 609.99286, 681.9655, 610.86957);
	    ((GeneralPath) shape).curveTo(676.8804, 612.2381, 670.26416, 614.4172, 666.9869, 614.4172);
	    ((GeneralPath) shape).curveTo(658.1815, 614.4172, 652.3431, 609.5537, 644.172, 607.92065);
	    ((GeneralPath) shape).curveTo(638.0182, 607.5531, 632.14996, 607.51666, 631.7832, 608.166);
	    ((GeneralPath) shape).curveTo(630.07776, 611.18286, 625.92847, 603.84644, 622.33826, 602.7725);
	    ((GeneralPath) shape).curveTo(619.3919, 601.8912, 604.91675, 597.85425, 602.835, 596.031);
	    ((GeneralPath) shape).curveTo(601.9256, 595.2345, 600.5281, 593.93054, 598.9995, 592.6088);
	    ((GeneralPath) shape).closePath();
	
	    g.setPaint(new Color(0x3c7a51));
	    //g.setPaint(Color.cyan);
	    g.fill(shape);
	    g.setPaint(Color.WHITE);
	    g.draw(shape);
	    
	    if (this.drawSquares){ this.paintSquare(g, shape); }
	    this.detectMouse(g, shape, "Oaxaca");
	    /*
	     * 
	     * Guerrero
	     * 
	     * */
	    // _0_0_0_4
	    shape = new GeneralPath();
	    ((GeneralPath) shape).moveTo(488.692, 543.1279);
	    ((GeneralPath) shape).curveTo(488.6222, 543.0235, 488.54105, 542.9283, 488.43015, 542.84717);
	    ((GeneralPath) shape).curveTo(487.36252, 542.0692, 487.5999, 542.2314, 486.7672, 541.08453);
	    ((GeneralPath) shape).curveTo(485.96994, 539.9858, 486.42847, 537.7968, 486.86542, 536.48206);
	    ((GeneralPath) shape).curveTo(487.3753, 534.94885, 488.88162, 535.40454, 490.2887, 535.40454);
	    ((GeneralPath) shape).curveTo(490.9297, 535.40454, 492.54443, 533.2237, 493.6149, 532.956);
	    ((GeneralPath) shape).curveTo(494.17157, 532.8172, 497.9187, 533.33203, 497.9187, 532.075);
	    ((GeneralPath) shape).curveTo(497.9187, 531.5591, 497.08707, 530.87994, 496.74478, 530.6059);
	    ((GeneralPath) shape).curveTo(496.231, 530.1941, 496.2558, 529.0709, 496.2558, 528.3535);
	    ((GeneralPath) shape).curveTo(496.2558, 526.9711, 495.8646, 525.31934, 495.8646, 524.14233);
	    ((GeneralPath) shape).curveTo(495.8646, 523.55634, 496.30753, 523.37463, 496.4514, 522.8694);
	    ((GeneralPath) shape).curveTo(496.64664, 522.1842, 496.57327, 521.2519, 496.4514, 520.51855);
	    ((GeneralPath) shape).curveTo(496.32806, 520.51855, 497.98886, 520.8008, 498.5055, 520.8128);
	    ((GeneralPath) shape).curveTo(499.2177, 520.82874, 499.948, 520.8365, 500.65775, 520.8128);
	    ((GeneralPath) shape).curveTo(501.27713, 520.7916, 502.02832, 519.9442, 502.321, 520.12695);
	    ((GeneralPath) shape).curveTo(503.19803, 520.67615, 504.1278, 521.23987, 505.35312, 521.49835);
	    ((GeneralPath) shape).curveTo(505.35312, 522.45087, 506.73468, 524.0446, 507.79843, 524.0446);
	    ((GeneralPath) shape).curveTo(508.75018, 524.0446, 512.03033, 524.0177, 512.39636, 523.261);
	    ((GeneralPath) shape).curveTo(512.95374, 522.1066, 521.40936, 522.18524, 522.8632, 522.2819);
	    ((GeneralPath) shape).curveTo(523.0351, 522.71246, 524.3355, 525.1621, 524.428, 525.2198);
	    ((GeneralPath) shape).curveTo(525.1356, 525.6628, 526.72656, 524.9354, 527.5586, 524.8278);
	    ((GeneralPath) shape).curveTo(527.8793, 524.786, 528.2099, 524.1423, 528.9281, 524.1423);
	    ((GeneralPath) shape).curveTo(530.9358, 524.1423, 530.6899, 524.17944, 531.2756, 525.611);
	    ((GeneralPath) shape).curveTo(531.9811, 527.33545, 533.6301, 527.3457, 535.2863, 528.45154);
	    ((GeneralPath) shape).curveTo(536.0963, 528.45154, 535.96594, 524.6872, 535.7753, 524.5339);
	    ((GeneralPath) shape).curveTo(534.7736, 523.73047, 534.6414, 524.17126, 533.33, 523.359);
	    ((GeneralPath) shape).curveTo(531.5838, 522.27795, 531.4715, 522.32544, 531.4715, 520.42114);
	    ((GeneralPath) shape).curveTo(531.4715, 519.1075, 530.693, 519.34186, 530.3954, 518.2665);
	    ((GeneralPath) shape).curveTo(530.2965, 517.9089, 531.07574, 516.24286, 530.6647, 516.0031);
	    ((GeneralPath) shape).curveTo(529.0673, 515.54596, 528.36395, 512.41156, 530.7752, 512.5861);
	    ((GeneralPath) shape).curveTo(531.3549, 512.62823, 532.8732, 513.636, 533.33, 512.9781);
	    ((GeneralPath) shape).curveTo(533.9448, 512.09216, 532.9987, 511.90057, 534.5036, 511.90057);
	    ((GeneralPath) shape).curveTo(535.6671, 511.90057, 534.70953, 510.73932, 535.9854, 510.45538);
	    ((GeneralPath) shape).curveTo(535.8888, 510.87653, 535.8041, 511.2603, 535.8444, 511.9243);
	    ((GeneralPath) shape).curveTo(536.0166, 514.75806, 538.25854, 512.83606, 539.3432, 513.5138);
	    ((GeneralPath) shape).curveTo(539.8074, 513.80414, 538.57324, 513.7659, 538.5481, 514.1494);
	    ((GeneralPath) shape).curveTo(538.43225, 515.9057, 539.8134, 514.99536, 540.7744, 514.62604);
	    ((GeneralPath) shape).curveTo(541.2053, 514.4603, 542.2889, 514.8403, 541.88776, 515.4206);
	    ((GeneralPath) shape).curveTo(541.5568, 515.9004, 540.41583, 515.81573, 540.2975, 516.0565);
	    ((GeneralPath) shape).curveTo(539.9081, 516.8493, 540.13837, 518.8308, 540.13837, 519.7114);
	    ((GeneralPath) shape).curveTo(540.13837, 520.41925, 543.36957, 520.24396, 542.5238, 521.9365);
	    ((GeneralPath) shape).curveTo(542.3119, 522.36, 540.9286, 522.7088, 541.41046, 523.5257);
	    ((GeneralPath) shape).curveTo(542.3105, 525.0493, 542.57446, 524.52954, 543.63715, 525.59143);
	    ((GeneralPath) shape).curveTo(544.41846, 526.3722, 544.3501, 527.87213, 545.70435, 528.45215);
	    ((GeneralPath) shape).curveTo(547.61426, 529.33276, 546.2497, 527.68695, 546.9768, 527.1806);
	    ((GeneralPath) shape).curveTo(547.89136, 526.5443, 549.6255, 526.91895, 550.15735, 526.0684);
	    ((GeneralPath) shape).curveTo(550.86, 524.9456, 549.0674, 523.63226, 551.1116, 522.8898);
	    ((GeneralPath) shape).curveTo(553.01154, 522.19965, 552.0091, 522.3434, 552.86096, 520.983);
	    ((GeneralPath) shape).curveTo(553.457, 520.0301, 552.8323, 519.46533, 554.45123, 520.665);
	    ((GeneralPath) shape).curveTo(555.7807, 521.65076, 556.3767, 522.1624, 556.8367, 520.506);
	    ((GeneralPath) shape).curveTo(557.2041, 519.1849, 561.69434, 519.24365, 563.039, 519.0758);
	    ((GeneralPath) shape).lineTo(563.039, 516.5331);
	    ((GeneralPath) shape).curveTo(563.039, 515.1755, 565.9783, 517.10956, 565.42444, 514.7849);
	    ((GeneralPath) shape).curveTo(565.322, 514.354, 564.82916, 512.3505, 565.7426, 512.5602);
	    ((GeneralPath) shape).curveTo(567.69257, 513.0084, 566.48175, 512.8711, 567.65076, 513.51373);
	    ((GeneralPath) shape).curveTo(567.7319, 513.5576, 567.5668, 514.6603, 568.2868, 515.1029);
	    ((GeneralPath) shape).curveTo(569.18256, 515.6535, 570.5085, 516.6921, 571.6215, 516.6902);
	    ((GeneralPath) shape).curveTo(571.854, 517.3031, 571.8449, 517.866, 572.13104, 518.49335);
	    ((GeneralPath) shape).curveTo(572.6973, 519.7352, 573.9509, 519.0822, 574.4325, 520.2025);
	    ((GeneralPath) shape).curveTo(574.4878, 520.3314, 574.8322, 521.2917, 574.87823, 521.31757);
	    ((GeneralPath) shape).curveTo(575.30554, 521.5548, 574.3439, 522.229, 574.58093, 522.6557);
	    ((GeneralPath) shape).curveTo(575.3768, 524.0884, 574.91473, 523.5473, 577.6991, 523.5473);
	    ((GeneralPath) shape).curveTo(577.6991, 525.14954, 578.9453, 524.4393, 580.29785, 524.4393);
	    ((GeneralPath) shape).curveTo(580.8694, 524.4393, 580.6905, 524.7817, 581.11426, 524.8107);
	    ((GeneralPath) shape).curveTo(582.1046, 524.879, 582.4122, 524.97754, 583.1932, 525.40564);
	    ((GeneralPath) shape).curveTo(583.2641, 525.4445, 583.3519, 525.5721, 583.4157, 525.6287);
	    ((GeneralPath) shape).curveTo(583.6641, 525.84827, 583.6102, 525.861, 583.7867, 526.14886);
	    ((GeneralPath) shape).curveTo(583.95355, 526.42084, 584.664, 525.9679, 584.9004, 526.0002);
	    ((GeneralPath) shape).curveTo(584.9865, 526.0122, 585.0046, 527.26324, 585.0492, 527.487);
	    ((GeneralPath) shape).curveTo(585.17804, 527.4548, 585.30676, 527.4274, 585.45306, 527.4015);
	    ((GeneralPath) shape).curveTo(585.3954, 527.55786, 585.3412, 527.7154, 585.322, 527.88214);
	    ((GeneralPath) shape).curveTo(585.2647, 528.3807, 585.4875, 529.2415, 585.322, 529.67316);
	    ((GeneralPath) shape).curveTo(584.7643, 531.12244, 587.7167, 529.65436, 586.78827, 531.13873);
	    ((GeneralPath) shape).curveTo(585.97363, 532.4411, 588.18896, 531.6083, 588.2549, 532.116);
	    ((GeneralPath) shape).curveTo(588.28217, 532.3267, 590.3508, 532.962, 591.0251, 534.2328);
	    ((GeneralPath) shape).curveTo(591.25574, 534.66724, 590.77954, 536.619, 590.86206, 536.6753);
	    ((GeneralPath) shape).curveTo(591.6374, 537.20605, 593.54266, 536.25995, 594.2843, 537.00104);
	    ((GeneralPath) shape).curveTo(594.2843, 537.79736, 594.2361, 538.64825, 594.2843, 539.44354);
	    ((GeneralPath) shape).curveTo(594.3027, 539.7512, 594.96643, 539.60645, 595.2619, 539.60645);
	    ((GeneralPath) shape).curveTo(596.44507, 539.60645, 595.2236, 540.7463, 596.7285, 540.7463);
	    ((GeneralPath) shape).curveTo(597.47473, 540.7463, 598.50024, 541.15063, 599.33575, 540.7463);
	    ((GeneralPath) shape).curveTo(599.45905, 540.68646, 599.1632, 539.9315, 599.4987, 539.76935);
	    ((GeneralPath) shape).curveTo(600.18365, 539.43756, 600.02844, 539.2807, 600.80237, 539.2807);
	    ((GeneralPath) shape).curveTo(602.3381, 541.1227, 602.0656, 538.7924, 603.4096, 538.7924);
	    ((GeneralPath) shape).curveTo(605.238, 538.7924, 604.3294, 541.29236, 605.36523, 542.37476);
	    ((GeneralPath) shape).curveTo(605.6623, 542.68524, 605.94336, 542.7637, 606.2128, 542.7255);
	    ((GeneralPath) shape).curveTo(606.2058, 542.8128, 606.20233, 542.9049, 606.19653, 543.00183);
	    ((GeneralPath) shape).curveTo(606.1511, 543.75287, 605.839, 544.1293, 605.6888, 545.28503);
	    ((GeneralPath) shape).curveTo(605.6466, 545.6115, 604.9291, 545.58496, 604.6736, 545.7924);
	    ((GeneralPath) shape).curveTo(603.1386, 547.0374, 605.7224, 547.6833, 605.18134, 549.09076);
	    ((GeneralPath) shape).curveTo(605.018, 549.51495, 604.6736, 549.5033, 604.6736, 549.8517);
	    ((GeneralPath) shape).curveTo(604.6736, 550.14026, 605.57965, 551.1204, 606.19653, 551.1204);
	    ((GeneralPath) shape).curveTo(608.49054, 551.1204, 606.00836, 553.01587, 607.9739, 553.4036);
	    ((GeneralPath) shape).curveTo(609.99786, 553.8027, 610.4128, 552.9107, 611.0205, 554.672);
	    ((GeneralPath) shape).curveTo(611.23773, 555.3016, 611.0175, 556.2803, 610.51276, 556.4481);
	    ((GeneralPath) shape).lineTo(610.25867, 563.29803);
	    ((GeneralPath) shape).curveTo(610.4447, 564.17975, 610.5124, 565.1007, 611.27423, 565.58124);
	    ((GeneralPath) shape).curveTo(612.5906, 566.41125, 612.996, 565.52563, 613.8131, 566.3425);
	    ((GeneralPath) shape).curveTo(614.2783, 566.80743, 614.8286, 566.2073, 614.8286, 567.10345);
	    ((GeneralPath) shape).curveTo(614.8286, 568.50494, 614.3244, 568.36865, 615.8442, 568.6257);
	    ((GeneralPath) shape).curveTo(617.19635, 568.85474, 617.5245, 568.1512, 618.6367, 569.38696);
	    ((GeneralPath) shape).curveTo(619.0084, 569.79913, 619.7405, 569.3973, 619.9063, 569.8944);
	    ((GeneralPath) shape).curveTo(618.3667, 570.1826, 616.8597, 570.86884, 616.8597, 572.43146);
	    ((GeneralPath) shape).curveTo(616.8597, 574.71, 617.8547, 580.7303, 615.33636, 581.311);
	    ((GeneralPath) shape).curveTo(613.0374, 581.84033, 613.67487, 585.8773, 612.28973, 585.8773);
	    ((GeneralPath) shape).curveTo(611.732, 585.8773, 610.3986, 586.1606, 610.25867, 585.6238);
	    ((GeneralPath) shape).curveTo(610.1123, 585.0618, 610.05774, 585.1164, 609.4972, 585.1164);
	    ((GeneralPath) shape).curveTo(608.12555, 585.1164, 607.4661, 584.7623, 607.4661, 586.1312);
	    ((GeneralPath) shape).curveTo(607.4661, 586.91095, 608.38104, 587.79297, 608.4817, 588.6683);
	    ((GeneralPath) shape).curveTo(608.5388, 589.1665, 608.21844, 590.1158, 607.97394, 590.44403);
	    ((GeneralPath) shape).curveTo(607.85486, 590.60443, 607.0934, 590.2571, 606.9584, 590.9514);
	    ((GeneralPath) shape).curveTo(606.9035, 591.2333, 606.9584, 591.8639, 606.9584, 592.2198);
	    ((GeneralPath) shape).curveTo(604.5882, 593.10785, 603.34125, 591.8774, 600.8652, 591.96625);
	    ((GeneralPath) shape).curveTo(599.6533, 592.00977, 600.2929, 592.36957, 599.59595, 592.47363);
	    ((GeneralPath) shape).curveTo(599.3277, 592.51404, 599.1343, 592.55505, 598.9946, 592.6036);
	    ((GeneralPath) shape).curveTo(596.5511, 590.49176, 593.7631, 588.3262, 592.0421, 588.0638);
	    ((GeneralPath) shape).lineTo(584.80505, 586.96045);
	    ((GeneralPath) shape).curveTo(584.51733, 586.91724, 584.74194, 585.13904, 583.7013, 585.6124);
	    ((GeneralPath) shape).curveTo(582.7956, 586.02386, 573.2316, 584.0187, 568.1235, 584.0187);
	    ((GeneralPath) shape).curveTo(565.60516, 584.0187, 565.0599, 583.01025, 563.33954, 581.9352);
	    ((GeneralPath) shape).curveTo(559.6562, 579.6329, 557.83344, 578.2856, 553.8946, 577.0321);
	    ((GeneralPath) shape).curveTo(545.76495, 574.44403, 538.2193, 569.19073, 527.03174, 568.8197);
	    ((GeneralPath) shape).curveTo(524.23846, 568.7269, 515.15674, 559.0199, 509.61417, 557.17505);
	    ((GeneralPath) shape).curveTo(501.62204, 554.51514, 499.9375, 543.4753, 493.71954, 541.8358);
	    ((GeneralPath) shape).curveTo(491.6074, 541.8358, 489.9807, 542.45953, 488.69217, 543.12787);
	    ((GeneralPath) shape).closePath();
	
	    g.setPaint(new Color(0x3c7a51));
	    //g.setPaint(Color.red);
	    g.fill(shape);
	    g.setPaint(Color.WHITE);
	    g.draw(shape);
	    if (this.drawSquares){ this.paintSquare(g, shape); }
	    this.detectMouse(g, shape, "Guerrero");
	    /*
	     * 
	     * 
	     * 
	     * Veracruz
	     * 
	     * 
	     * */
	    // _0_0_0_5
	    shape = new GeneralPath();
	    ((GeneralPath) shape).moveTo(640.0231, 426.15857);
	    ((GeneralPath) shape).curveTo(639.9008, 426.15256, 639.9303, 425.95956, 639.87036, 425.85263);
	    ((GeneralPath) shape).curveTo(639.8204, 425.76443, 639.7853, 425.77512, 639.7173, 425.7);
	    ((GeneralPath) shape).curveTo(639.566, 425.5343, 639.6553, 425.29352, 639.5642, 425.0885);
	    ((GeneralPath) shape).curveTo(639.5142, 424.97626, 639.32855, 425.0364, 639.2584, 424.93555);
	    ((GeneralPath) shape).curveTo(639.18823, 424.83463, 639.13727, 424.74823, 639.10535, 424.62994);
	    ((GeneralPath) shape).curveTo(639.04974, 424.42102, 639.2368, 424.40192, 639.2584, 424.17105);
	    ((GeneralPath) shape).curveTo(639.29425, 423.7798, 639.2584, 423.34708, 639.2584, 422.9484);
	    ((GeneralPath) shape).curveTo(639.2584, 422.8464, 639.16205, 422.67468, 639.2584, 422.64246);
	    ((GeneralPath) shape).curveTo(639.49194, 422.56525, 640.18787, 422.60916, 640.48193, 422.64246);
	    ((GeneralPath) shape).curveTo(640.77783, 422.67606, 640.7236, 422.70016, 640.7881, 422.9484);
	    ((GeneralPath) shape).curveTo(640.8816, 423.30957, 640.9167, 422.8999, 640.94116, 423.25397);
	    ((GeneralPath) shape).curveTo(640.96454, 423.59354, 640.94116, 423.9795, 640.94116, 424.32404);
	    ((GeneralPath) shape).curveTo(640.94116, 424.7879, 640.977, 424.6792, 640.48193, 425.54706);
	    ((GeneralPath) shape).curveTo(640.49786, 425.86618, 640.1443, 425.99704, 640.0231, 426.15857);
	    ((GeneralPath) shape).closePath();
	    ((GeneralPath) shape).moveTo(628.7033, 421.57272);
	    ((GeneralPath) shape).lineTo(628.5506, 421.57272);
	    ((GeneralPath) shape).lineTo(628.5506, 421.41977);
	    ((GeneralPath) shape).lineTo(628.3975, 421.41977);
	    ((GeneralPath) shape).curveTo(628.27527, 421.41977, 628.2544, 421.23636, 628.24445, 421.11383);
	    ((GeneralPath) shape).curveTo(628.22314, 420.85004, 628.1481, 420.53455, 628.3975, 420.5027);
	    ((GeneralPath) shape).curveTo(628.84894, 420.44458, 628.56335, 420.56818, 628.7033, 420.6553);
	    ((GeneralPath) shape).curveTo(628.7894, 420.7091, 628.9074, 420.6553, 629.00946, 420.6553);
	    ((GeneralPath) shape).curveTo(629.56824, 420.6553, 629.08563, 420.7456, 629.4683, 420.96124);
	    ((GeneralPath) shape).curveTo(629.5565, 421.01114, 629.7022, 420.88904, 629.7741, 420.96124);
	    ((GeneralPath) shape).curveTo(629.93604, 421.12308, 629.69653, 421.24203, 629.7741, 421.72537);
	    ((GeneralPath) shape).curveTo(629.4342, 421.56323, 629.05725, 421.6232, 628.7033, 421.57275);
	    ((GeneralPath) shape).closePath();
	    ((GeneralPath) shape).moveTo(750.71423, 561.8008);
	    ((GeneralPath) shape).lineTo(718.13403, 562.54846);
	    ((GeneralPath) shape).lineTo(717.75806, 557.26544);
	    ((GeneralPath) shape).curveTo(716.7195, 557.20386, 713.2682, 557.1135, 712.9188, 556.309);
	    ((GeneralPath) shape).curveTo(712.6081, 555.5955, 713.1155, 555.723, 712.59564, 555.6635);
	    ((GeneralPath) shape).curveTo(712.1676, 555.6146, 711.6985, 555.83417, 711.30334, 555.6635);
	    ((GeneralPath) shape).curveTo(711.06525, 555.5605, 711.551, 555.26624, 711.62646, 555.018);
	    ((GeneralPath) shape).curveTo(711.68884, 554.8126, 711.51874, 554.69507, 711.30334, 554.69507);
	    ((GeneralPath) shape).curveTo(711.0879, 554.69507, 711.0418, 554.81226, 710.98016, 555.018);
	    ((GeneralPath) shape).curveTo(710.7282, 555.8597, 709.2733, 554.08496, 709.68787, 552.7582);
	    ((GeneralPath) shape).curveTo(710.0096, 551.72955, 710.0539, 549.60077, 709.36505, 549.5299);
	    ((GeneralPath) shape).curveTo(707.9158, 549.38086, 705.8114, 549.8284, 705.8114, 548.2385);
	    ((GeneralPath) shape).curveTo(706.80176, 547.8894, 707.73334, 548.553, 708.04443, 547.35364);
	    ((GeneralPath) shape).curveTo(708.32117, 546.28674, 708.6617, 541.9516, 706.4825, 543.18317);
	    ((GeneralPath) shape).curveTo(705.90704, 543.5086, 705.2639, 543.38007, 704.59454, 543.5089);
	    ((GeneralPath) shape).curveTo(702.92487, 543.83044, 704.16296, 545.7397, 702.5769, 546.31116);
	    ((GeneralPath) shape).curveTo(702.2027, 546.44574, 701.29987, 547.787, 700.94977, 548.0706);
	    ((GeneralPath) shape).curveTo(700.5827, 548.3684, 699.37225, 548.5423, 699.32227, 548.59186);
	    ((GeneralPath) shape).curveTo(698.711, 549.2009, 699.2936, 550.36127, 698.34607, 550.61194);
	    ((GeneralPath) shape).curveTo(697.4971, 550.8368, 697.37415, 551.53754, 696.7838, 551.98016);
	    ((GeneralPath) shape).curveTo(695.12335, 551.7305, 696.1945, 551.0245, 694.1153, 551.2635);
	    ((GeneralPath) shape).curveTo(692.2263, 551.4809, 690.87024, 550.4884, 690.1449, 548.787);
	    ((GeneralPath) shape).curveTo(689.6368, 547.59406, 683.05914, 545.33105, 686.30457, 543.96497);
	    ((GeneralPath) shape).curveTo(687.69745, 543.3786, 685.8301, 540.7831, 687.0859, 540.57666);
	    ((GeneralPath) shape).curveTo(689.31824, 540.2105, 687.8456, 539.15216, 689.03864, 538.5562);
	    ((GeneralPath) shape).curveTo(689.03864, 538.0739, 688.90826, 537.82007, 688.90826, 537.38385);
	    ((GeneralPath) shape).curveTo(688.90826, 535.9275, 688.2573, 536.32227, 688.2573, 534.6467);
	    ((GeneralPath) shape).curveTo(688.2573, 534.3486, 686.94165, 531.57745, 686.565, 531.0626);
	    ((GeneralPath) shape).curveTo(685.9846, 530.26874, 685.0364, 530.7549, 684.4822, 531.0626);
	    ((GeneralPath) shape).curveTo(683.6098, 531.5463, 683.1371, 531.25525, 682.2041, 531.9751);
	    ((GeneralPath) shape).curveTo(681.55316, 532.47754, 680.2099, 532.593, 679.5356, 532.10504);
	    ((GeneralPath) shape).curveTo(678.69684, 531.4992, 677.08496, 532.111, 676.411, 531.7141);
	    ((GeneralPath) shape).curveTo(676.12506, 531.5456, 675.6226, 530.81647, 675.5649, 530.80194);
	    ((GeneralPath) shape).curveTo(675.5107, 529.65576, 674.4384, 530.65, 674.26306, 529.5637);
	    ((GeneralPath) shape).curveTo(674.09827, 528.539, 673.4169, 528.18243, 673.4169, 526.8921);
	    ((GeneralPath) shape).curveTo(673.4169, 526.00543, 671.0538, 525.30505, 670.9439, 524.7417);
	    ((GeneralPath) shape).curveTo(670.88513, 524.4386, 671.0778, 523.4369, 670.9439, 523.1777);
	    ((GeneralPath) shape).curveTo(670.71643, 522.7397, 670.24054, 522.89795, 670.03253, 522.5913);
	    ((GeneralPath) shape).curveTo(669.6669, 522.0549, 669.38586, 520.83716, 668.9259, 520.37573);
	    ((GeneralPath) shape).lineTo(661.5057, 513.59875);
	    ((GeneralPath) shape).lineTo(659.0972, 513.59875);
	    ((GeneralPath) shape).curveTo(658.99695, 514.3076, 658.481, 515.0459, 659.2276, 515.4885);
	    ((GeneralPath) shape).curveTo(660.2782, 516.1128, 660.58044, 516.7852, 660.2038, 518.1605);
	    ((GeneralPath) shape).curveTo(659.8154, 519.5769, 660.0679, 521.1901, 660.0089, 522.65643);
	    ((GeneralPath) shape).curveTo(659.9936, 523.0364, 659.1697, 523.6908, 658.48065, 523.96924);
	    ((GeneralPath) shape).curveTo(657.7419, 523.72546, 657.474, 523.51227, 657.34674, 522.6713);
	    ((GeneralPath) shape).curveTo(657.30676, 522.40436, 657.38116, 522.1225, 657.34674, 521.85693);
	    ((GeneralPath) shape).curveTo(657.23975, 521.03296, 657.0335, 522.39905, 657.0211, 522.5085);
	    ((GeneralPath) shape).curveTo(656.99774, 522.71454, 656.3964, 522.89233, 656.36914, 522.8339);
	    ((GeneralPath) shape).curveTo(656.07324, 522.1962, 656.45386, 521.8729, 656.04315, 521.36835);
	    ((GeneralPath) shape).curveTo(655.65265, 520.8875, 655.9819, 520.3914, 655.06555, 520.3914);
	    ((GeneralPath) shape).curveTo(653.8077, 520.3914, 654.30444, 520.34644, 653.9249, 519.74023);
	    ((GeneralPath) shape).curveTo(653.47064, 519.0133, 652.48596, 518.99524, 651.4807, 519.0887);
	    ((GeneralPath) shape).curveTo(651.0229, 519.1315, 649.6183, 519.36664, 649.5251, 519.74023);
	    ((GeneralPath) shape).curveTo(648.4759, 521.255, 649.28876, 520.7179, 647.40686, 521.0429);
	    ((GeneralPath) shape).curveTo(646.9565, 521.1205, 647.6765, 522.762, 646.59186, 522.01984);
	    ((GeneralPath) shape).curveTo(645.5852, 521.3311, 645.94025, 519.8652, 645.94025, 518.7629);
	    ((GeneralPath) shape).curveTo(645.94025, 518.5575, 645.9661, 518.3128, 645.94025, 518.1117);
	    ((GeneralPath) shape).curveTo(645.8679, 517.55225, 645.50616, 518.58124, 644.96265, 518.2746);
	    ((GeneralPath) shape).curveTo(644.42194, 517.969, 645.2514, 516.1575, 643.9847, 516.1575);
	    ((GeneralPath) shape).curveTo(643.46454, 516.1575, 642.99927, 516.20636, 642.51807, 516.3204);
	    ((GeneralPath) shape).curveTo(641.6956, 516.5162, 642.0861, 516.809, 641.2144, 516.809);
	    ((GeneralPath) shape).curveTo(641.2144, 516.047, 641.34235, 516.1968, 641.05145, 515.9946);
	    ((GeneralPath) shape).curveTo(640.8317, 515.8424, 640.7832, 515.7269, 640.7258, 515.50635);
	    ((GeneralPath) shape).curveTo(640.63086, 515.1409, 639.98846, 514.6902, 639.5852, 514.5294);
	    ((GeneralPath) shape).curveTo(639.1111, 514.34033, 639.0962, 511.05896, 639.0962, 510.29556);
	    ((GeneralPath) shape).curveTo(640.23785, 510.29556, 640.5628, 510.54697, 640.5628, 509.31827);
	    ((GeneralPath) shape).curveTo(640.5628, 508.7273, 640.2156, 508.38205, 640.7258, 508.01556);
	    ((GeneralPath) shape).curveTo(640.9618, 507.84595, 641.3679, 507.71246, 641.54047, 507.69016);
	    ((GeneralPath) shape).curveTo(641.60065, 507.68216, 642.00323, 507.71594, 642.0295, 507.69016);
	    ((GeneralPath) shape).curveTo(642.0469, 507.67245, 642.2034, 507.12537, 642.1925, 507.03864);
	    ((GeneralPath) shape).curveTo(642.1606, 506.79147, 641.8545, 506.62823, 641.5405, 506.55);
	    ((GeneralPath) shape).curveTo(640.638, 505.5734, 640.40985, 504.35144, 640.8889, 502.96765);
	    ((GeneralPath) shape).curveTo(641.1614, 502.17874, 642.68115, 503.14398, 642.68115, 501.99072);
	    ((GeneralPath) shape).curveTo(642.68115, 501.53183, 642.3725, 501.42523, 642.3555, 501.1763);
	    ((GeneralPath) shape).curveTo(642.28, 500.09137, 642.7761, 500.4157, 643.6591, 500.36224);
	    ((GeneralPath) shape).curveTo(644.1594, 500.33185, 643.4795, 498.98907, 643.98474, 498.89667);
	    ((GeneralPath) shape).curveTo(646.93353, 498.35596, 646.0158, 500.36224, 648.54755, 500.36224);
	    ((GeneralPath) shape).curveTo(648.509, 499.6629, 648.48834, 499.22702, 648.22156, 498.5709);
	    ((GeneralPath) shape).curveTo(647.91504, 497.8156, 648.0061, 497.64636, 648.3846, 497.2682);
	    ((GeneralPath) shape).lineTo(648.54755, 497.10532);
	    ((GeneralPath) shape).curveTo(648.98975, 496.66376, 649.123, 496.9141, 649.3622, 496.29126);
	    ((GeneralPath) shape).curveTo(649.5131, 495.89893, 649.3622, 494.78354, 649.3622, 494.33704);
	    ((GeneralPath) shape).curveTo(649.3622, 493.7974, 648.9728, 494.069, 648.87354, 493.68585);
	    ((GeneralPath) shape).curveTo(648.7573, 493.24005, 648.7105, 492.91675, 648.7105, 492.38315);
	    ((GeneralPath) shape).curveTo(647.42145, 492.48193, 648.3884, 492.62463, 647.2439, 493.03433);
	    ((GeneralPath) shape).curveTo(646.6355, 493.25174, 645.98596, 493.1972, 645.28827, 493.1972);
	    ((GeneralPath) shape).lineTo(643.9846, 493.1972);
	    ((GeneralPath) shape).lineTo(642.1924, 493.1972);
	    ((GeneralPath) shape).lineTo(641.8664, 491.40622);
	    ((GeneralPath) shape).lineTo(637.6296, 490.7547);
	    ((GeneralPath) shape).curveTo(637.5063, 490.22037, 637.46655, 490.08652, 637.46655, 489.61487);
	    ((GeneralPath) shape).curveTo(637.46655, 489.3677, 637.39636, 489.02176, 637.46655, 488.8008);
	    ((GeneralPath) shape).curveTo(637.50586, 488.6758, 637.5187, 488.75803, 637.46655, 488.6379);
	    ((GeneralPath) shape).curveTo(637.4144, 488.51788, 637.4343, 488.31213, 637.3035, 488.31213);
	    ((GeneralPath) shape).lineTo(637.14056, 488.31213);
	    ((GeneralPath) shape).lineTo(637.14056, 488.14926);
	    ((GeneralPath) shape).curveTo(637.14056, 487.85394, 635.84686, 488.14926, 635.5113, 488.14926);
	    ((GeneralPath) shape).curveTo(635.5113, 486.1359, 635.2718, 485.5474, 635.8369, 484.07828);
	    ((GeneralPath) shape).curveTo(636.0428, 483.5443, 634.6148, 483.192, 635.99994, 482.93845);
	    ((GeneralPath) shape).curveTo(637.879, 482.5939, 638.93317, 483.9462, 638.93317, 481.47287);
	    ((GeneralPath) shape).curveTo(638.93317, 479.57602, 638.14655, 478.59305, 639.0962, 476.91324);
	    ((GeneralPath) shape).curveTo(639.74817, 475.7603, 639.2567, 475.90656, 639.4222, 474.47073);
	    ((GeneralPath) shape).curveTo(639.4764, 473.99838, 640.39734, 473.11954, 640.8888, 472.8423);
	    ((GeneralPath) shape).curveTo(641.32, 472.59866, 641.4618, 470.1767, 641.7034, 469.7486);
	    ((GeneralPath) shape).curveTo(641.8101, 469.55988, 642.8703, 469.50357, 643.33307, 468.93417);
	    ((GeneralPath) shape).curveTo(643.82776, 468.32584, 643.8217, 468.20828, 643.8217, 467.14282);
	    ((GeneralPath) shape).curveTo(641.7106, 466.23883, 642.6152, 466.8199, 641.3775, 465.35184);
	    ((GeneralPath) shape).curveTo(640.9948, 464.89752, 637.6587, 465.7063, 636.97766, 465.02606);
	    ((GeneralPath) shape).curveTo(636.4497, 464.49847, 636.66016, 463.87067, 635.674, 463.5605);
	    ((GeneralPath) shape).curveTo(634.57806, 463.2156, 633.3315, 465.06006, 633.2298, 465.84012);
	    ((GeneralPath) shape).curveTo(633.0544, 467.18958, 633.92004, 466.90488, 632.0892, 467.14282);
	    ((GeneralPath) shape).curveTo(631.5803, 467.2094, 631.7139, 468.43314, 631.27454, 468.77127);
	    ((GeneralPath) shape).curveTo(630.66614, 469.23868, 630.55914, 466.9803, 629.48193, 466.9803);
	    ((GeneralPath) shape).curveTo(629.1935, 466.9803, 627.5476, 467.11908, 627.5263, 466.8174);
	    ((GeneralPath) shape).curveTo(627.4168, 465.23816, 627.0515, 465.84012, 625.24506, 465.84012);
	    ((GeneralPath) shape).curveTo(624.2104, 464.1603, 626.46967, 464.99173, 626.06006, 464.04913);
	    ((GeneralPath) shape).curveTo(625.9268, 463.7432, 625.82587, 463.32394, 625.7341, 463.2347);
	    ((GeneralPath) shape).curveTo(624.9276, 462.45322, 624.7561, 463.1773, 624.7561, 461.76913);
	    ((GeneralPath) shape).curveTo(624.7561, 459.8666, 622.8136, 454.57965, 626.8747, 457.69815);
	    ((GeneralPath) shape).curveTo(627.5157, 458.19034, 628.67084, 459.50436, 629.6449, 458.83832);
	    ((GeneralPath) shape).curveTo(629.7172, 458.78912, 629.6566, 457.03528, 630.1339, 456.55832);
	    ((GeneralPath) shape).curveTo(630.4897, 456.20282, 631.60016, 455.59482, 631.60016, 455.09274);
	    ((GeneralPath) shape).lineTo(631.60016, 453.9529);
	    ((GeneralPath) shape).curveTo(631.60016, 453.47562, 630.6739, 453.49048, 630.2965, 453.46463);
	    ((GeneralPath) shape).curveTo(629.0425, 453.37753, 626.8906, 453.36407, 625.89703, 452.6502);
	    ((GeneralPath) shape).curveTo(624.9325, 451.95724, 624.5934, 452.0047, 624.5934, 450.85922);
	    ((GeneralPath) shape).curveTo(626.1454, 449.30795, 625.3297, 449.5629, 625.08203, 447.92804);
	    ((GeneralPath) shape).curveTo(624.95624, 447.097, 625.4325, 444.56384, 624.919, 444.01993);
	    ((GeneralPath) shape).curveTo(624.6437, 443.7271, 622.2062, 443.57483, 621.8231, 443.69415);
	    ((GeneralPath) shape).curveTo(620.8515, 443.99725, 620.618, 445.04004, 620.1935, 445.9738);
	    ((GeneralPath) shape).curveTo(619.96954, 446.4656, 619.05286, 447.69714, 619.05286, 448.25342);
	    ((GeneralPath) shape).curveTo(619.05286, 449.10324, 619.5415, 449.04163, 619.5415, 450.20764);
	    ((GeneralPath) shape).curveTo(619.5415, 451.163, 618.96466, 452.9012, 618.4009, 453.46457);
	    ((GeneralPath) shape).curveTo(618.1821, 453.6832, 617.4618, 453.75522, 616.7326, 453.80502);
	    ((GeneralPath) shape).curveTo(616.71063, 453.7524, 616.7073, 453.70554, 616.7018, 453.65753);
	    ((GeneralPath) shape).curveTo(616.6423, 453.13773, 616.48846, 453.40506, 616.2819, 453.23795);
	    ((GeneralPath) shape).curveTo(615.8914, 452.9207, 616.4017, 452.96744, 615.6519, 452.818);
	    ((GeneralPath) shape).curveTo(615.5573, 452.7992, 614.90497, 452.4402, 614.81177, 452.18842);
	    ((GeneralPath) shape).curveTo(613.7275, 449.25937, 610.7344, 454.10263, 609.56116, 455.54626);
	    ((GeneralPath) shape).curveTo(608.01373, 457.45093, 604.8722, 457.17792, 603.68054, 459.1141);
	    ((GeneralPath) shape).curveTo(603.24225, 459.82584, 602.862, 460.2217, 602.42053, 461.00317);
	    ((GeneralPath) shape).curveTo(602.17145, 461.44333, 600.18536, 460.83603, 599.4802, 460.79318);
	    ((GeneralPath) shape).curveTo(598.88354, 460.7574, 599.06, 458.5925, 599.06, 457.85495);
	    ((GeneralPath) shape).curveTo(599.06, 456.23215, 598.4736, 455.82425, 599.0104, 454.7963);
	    ((GeneralPath) shape).curveTo(599.7006, 453.47552, 599.8158, 453.87848, 600.53015, 453.44757);
	    ((GeneralPath) shape).curveTo(601.1311, 453.0857, 601.804, 451.5383, 602.21045, 450.92926);
	    ((GeneralPath) shape).curveTo(603.5438, 449.8022, 604.52075, 450.2048, 604.52075, 449.46014);
	    ((GeneralPath) shape).lineTo(604.52075, 448.6206);
	    ((GeneralPath) shape).lineTo(602.6304, 448.6206);
	    ((GeneralPath) shape).curveTo(601.567, 448.6206, 601.7406, 448.7463, 601.1602, 449.46014);
	    ((GeneralPath) shape).curveTo(600.6666, 450.0681, 599.76764, 449.87973, 598.8503, 449.87973);
	    ((GeneralPath) shape).curveTo(598.1324, 449.87973, 598.28265, 449.58087, 598.2203, 448.83057);
	    ((GeneralPath) shape).curveTo(598.8322, 448.62695, 598.6848, 447.60968, 599.4803, 447.36145);
	    ((GeneralPath) shape).curveTo(600.40936, 447.07144, 601.4589, 447.27295, 602.21045, 446.5219);
	    ((GeneralPath) shape).curveTo(602.6842, 446.04813, 602.40106, 445.3258, 602.84045, 444.8428);
	    ((GeneralPath) shape).curveTo(603.34467, 444.289, 604.053, 444.42322, 605.15076, 444.42322);
	    ((GeneralPath) shape).curveTo(606.5819, 444.42322, 605.3609, 446.45215, 605.3609, 446.5219);
	    ((GeneralPath) shape).curveTo(605.3609, 447.2386, 606.4108, 446.7871, 606.4108, 447.57108);
	    ((GeneralPath) shape).curveTo(606.4108, 447.91312, 606.27124, 447.95526, 606.621, 447.99103);
	    ((GeneralPath) shape).curveTo(606.83923, 448.01334, 607.6641, 448.00272, 607.6712, 447.99103);
	    ((GeneralPath) shape).curveTo(607.7516, 447.8501, 607.9628, 446.19153, 608.09106, 445.89233);
	    ((GeneralPath) shape).curveTo(607.8809, 445.89233, 609.14136, 446.11295, 609.14136, 444.42322);
	    ((GeneralPath) shape).curveTo(609.14136, 443.13257, 608.7445, 442.53732, 609.4025, 441.85925);
	    ((GeneralPath) shape).curveTo(610.34827, 440.88513, 610.9577, 439.25278, 611.4407, 438.40686);
	    ((GeneralPath) shape).curveTo(612.081, 437.28546, 609.9978, 430.49646, 607.251, 433.92938);
	    ((GeneralPath) shape).curveTo(606.78326, 434.51364, 605.23016, 433.92938, 604.9407, 433.92938);
	    ((GeneralPath) shape).curveTo(604.55444, 433.92938, 603.1594, 433.74313, 602.7381, 433.46802);
	    ((GeneralPath) shape).curveTo(602.15094, 433.08417, 602.90497, 432.12213, 600.6213, 430.56058);
	    ((GeneralPath) shape).lineTo(601.58044, 426.16418);
	    ((GeneralPath) shape).lineTo(599.94714, 426.07138);
	    ((GeneralPath) shape).lineTo(599.1288, 422.2901);
	    ((GeneralPath) shape).lineTo(597.9091, 422.2901);
	    ((GeneralPath) shape).curveTo(597.2993, 422.2901, 597.3918, 422.45474, 597.367, 421.88397);
	    ((GeneralPath) shape).curveTo(597.334, 421.10922, 597.2316, 420.8649, 597.2316, 420.12378);
	    ((GeneralPath) shape).curveTo(597.2316, 419.71942, 597.0183, 419.86423, 596.9606, 419.71765);
	    ((GeneralPath) shape).curveTo(596.7965, 419.30054, 596.81384, 418.8023, 596.6895, 418.36362);
	    ((GeneralPath) shape).curveTo(596.5974, 418.03574, 596.4188, 417.5421, 596.4188, 417.28046);
	    ((GeneralPath) shape).lineTo(601.0256, 414.97852);
	    ((GeneralPath) shape).lineTo(600.8902, 413.0827);
	    ((GeneralPath) shape).curveTo(600.5022, 411.33774, 599.807, 411.88907, 598.18024, 411.45813);
	    ((GeneralPath) shape).curveTo(597.95166, 411.39792, 599.1965, 411.43793, 599.39954, 410.7811);
	    ((GeneralPath) shape).curveTo(600.307, 407.85135, 599.22876, 406.36877, 601.7031, 404.55264);
	    ((GeneralPath) shape).curveTo(603.1056, 403.52258, 604.95667, 397.24066, 602.3806, 397.24066);
	    ((GeneralPath) shape).curveTo(600.9827, 397.24066, 598.1268, 396.86462, 597.77386, 395.61572);
	    ((GeneralPath) shape).curveTo(597.7013, 395.3586, 597.661, 395.05502, 597.6502, 394.7116);
	    ((GeneralPath) shape).curveTo(598.8726, 390.47714, 601.36084, 394.6997, 603.2838, 392.77448);
	    ((GeneralPath) shape).curveTo(603.63605, 392.42145, 604.44147, 392.74118, 604.51654, 392.0893);
	    ((GeneralPath) shape).curveTo(604.6781, 390.68143, 605.8347, 390.40063, 607.25525, 390.44385);
	    ((GeneralPath) shape).curveTo(611.6331, 390.577, 609.7186, 396.02823, 614.5132, 396.4765);
	    ((GeneralPath) shape).curveTo(614.99506, 396.5211, 616.9379, 397.23672, 618.9943, 397.77692);
	    ((GeneralPath) shape).curveTo(618.36414, 397.77673, 616.1162, 397.77673, 616.84155, 397.77673);
	    ((GeneralPath) shape).lineTo(616.9918, 397.77673);
	    ((GeneralPath) shape).lineTo(616.9918, 397.92688);
	    ((GeneralPath) shape).curveTo(616.9918, 398.39038, 617.8964, 398.11597, 618.3461, 398.22784);
	    ((GeneralPath) shape).curveTo(618.77167, 398.33408, 619.24896, 398.36313, 619.24896, 398.8291);
	    ((GeneralPath) shape).lineTo(619.24896, 398.97958);
	    ((GeneralPath) shape).curveTo(619.24896, 399.15237, 620.341, 399.2547, 620.45264, 399.2802);
	    ((GeneralPath) shape).curveTo(620.45264, 403.84515, 622.7055, 406.29086, 624.6661, 409.8059);
	    ((GeneralPath) shape).curveTo(625.5413, 411.37595, 627.43207, 414.5157, 628.87915, 415.36975);
	    ((GeneralPath) shape).curveTo(631.00696, 416.62463, 633.51, 417.2004, 633.84485, 419.88086);
	    ((GeneralPath) shape).curveTo(634.48584, 421.80356, 633.544, 424.92596, 633.544, 426.49704);
	    ((GeneralPath) shape).curveTo(633.544, 427.50937, 633.5025, 427.87976, 633.2428, 428.45163);
	    ((GeneralPath) shape).curveTo(633.0362, 428.90628, 634.58185, 430.85803, 633.9954, 431.0078);
	    ((GeneralPath) shape).curveTo(631.604, 431.62073, 631.43744, 428.3284, 631.43744, 426.79767);
	    ((GeneralPath) shape).curveTo(631.43744, 424.74997, 631.7383, 423.4423, 631.7383, 421.38434);
	    ((GeneralPath) shape).curveTo(631.7383, 420.1847, 629.93256, 421.11594, 629.93256, 419.73038);
	    ((GeneralPath) shape).curveTo(629.93256, 418.7931, 628.26965, 417.4217, 627.224, 417.0237);
	    ((GeneralPath) shape).curveTo(625.20215, 416.25427, 625.2071, 414.9675, 624.51544, 413.26468);
	    ((GeneralPath) shape).curveTo(623.7901, 411.47794, 625.8396, 411.38092, 622.7193, 410.85934);
	    ((GeneralPath) shape).curveTo(622.7193, 414.15875, 623.80145, 414.21826, 624.4864, 416.40936);
	    ((GeneralPath) shape).curveTo(625.11926, 418.43298, 625.69507, 422.8032, 628.02057, 422.96854);
	    ((GeneralPath) shape).curveTo(629.51764, 423.0751, 629.1165, 426.54416, 629.78766, 427.50977);
	    ((GeneralPath) shape).curveTo(631.1214, 429.42612, 632.1061, 431.69937, 633.0696, 433.81647);
	    ((GeneralPath) shape).curveTo(633.90796, 435.65952, 632.3662, 435.83478, 635.0893, 438.10522);
	    ((GeneralPath) shape).curveTo(636.05664, 441.9719, 643.26074, 453.72562, 645.69257, 455.76447);
	    ((GeneralPath) shape).curveTo(650.99915, 460.214, 661.7541, 471.30127, 664.95764, 479.32108);
	    ((GeneralPath) shape).curveTo(667.78455, 486.39758, 668.21826, 494.48077, 671.9477, 495.11957);
	    ((GeneralPath) shape).curveTo(673.9079, 495.45526, 677.5767, 499.88882, 679.2687, 501.42664);
	    ((GeneralPath) shape).curveTo(684.53345, 506.21075, 676.3713, 506.95718, 687.09357, 510.4071);
	    ((GeneralPath) shape).curveTo(688.90497, 512.669, 690.3159, 512.04584, 693.8873, 512.04584);
	    ((GeneralPath) shape).curveTo(699.20917, 512.04584, 703.2291, 511.57455, 708.6463, 512.2799);
	    ((GeneralPath) shape).curveTo(709.86664, 512.4389, 712.8371, 516.4936, 712.8633, 516.4936);
	    ((GeneralPath) shape).curveTo(718.24146, 516.4936, 717.0796, 515.8807, 719.65704, 520.23914);
	    ((GeneralPath) shape).curveTo(720.9635, 522.4483, 723.00946, 522.1144, 723.63947, 523.75104);
	    ((GeneralPath) shape).curveTo(724.8715, 526.9524, 725.9356, 530.87427, 730.4332, 529.8375);
	    ((GeneralPath) shape).curveTo(730.4332, 528.45123, 735.5828, 529.40485, 737.227, 528.9013);
	    ((GeneralPath) shape).curveTo(738.8279, 528.4105, 739.6971, 527.5423, 740.78986, 526.79376);
	    ((GeneralPath) shape).lineTo(742.0534, 529.1368);
	    ((GeneralPath) shape).curveTo(742.0534, 530.3393, 742.30853, 531.2797, 742.30853, 532.4486);
	    ((GeneralPath) shape).curveTo(742.30853, 534.0413, 742.8007, 533.04346, 743.3283, 533.97723);
	    ((GeneralPath) shape).curveTo(743.54767, 534.365, 741.8032, 536.1606, 742.8184, 537.5444);
	    ((GeneralPath) shape).curveTo(743.0502, 537.85986, 745.3991, 537.27423, 745.8778, 537.5444);
	    ((GeneralPath) shape).curveTo(747.41315, 538.41156, 744.9902, 538.95435, 747.91736, 540.09204);
	    ((GeneralPath) shape).curveTo(749.1572, 541.02045, 749.5314, 542.79694, 751.2319, 542.8943);
	    ((GeneralPath) shape).curveTo(752.8229, 542.98566, 755.2125, 543.9615, 754.80115, 545.44196);
	    ((GeneralPath) shape).curveTo(754.3235, 547.1611, 756.8078, 547.00385, 757.0955, 547.73505);
	    ((GeneralPath) shape).curveTo(757.1214, 547.79987, 757.6054, 552.1683, 756.84076, 552.5755);
	    ((GeneralPath) shape).curveTo(755.2338, 553.4317, 757.46405, 555.3891, 756.58563, 557.6709);
	    ((GeneralPath) shape).curveTo(756.16254, 558.7718, 753.85223, 557.85504, 753.01636, 558.68994);
	    ((GeneralPath) shape).curveTo(752.07556, 559.63043, 753.2174, 560.5095, 752.7616, 560.98303);
	    ((GeneralPath) shape).curveTo(752.28467, 561.4785, 751.5334, 561.52826, 750.7139, 561.8008);
	    ((GeneralPath) shape).closePath();
	
	    g.setPaint(new Color(0x3c7a51));
	    g.fill(shape);
	    g.setPaint(Color.WHITE);
	    g.draw(shape);
	    if (this.drawSquares){ this.paintSquare(g, shape); }
	    this.detectMouse(g, shape, "Veracruz");
	    /*
	     * 
	     * 
	     * 
	     * Puebla
	     * 
	     * */
	    // _0_0_0_6
	    shape = new GeneralPath();
	    ((GeneralPath) shape).moveTo(585.45294, 527.40155);
	    ((GeneralPath) shape).curveTo(585.7535, 527.3455, 586.0461, 527.30756, 586.38525, 527.264);
	    ((GeneralPath) shape).curveTo(586.79095, 527.2118, 586.77466, 526.65814, 586.9791, 526.372);
	    ((GeneralPath) shape).curveTo(587.028, 526.304, 587.3051, 525.79803, 587.3501, 525.70276);
	    ((GeneralPath) shape).curveTo(587.5524, 525.27783, 587.2172, 525.2754, 587.72144, 525.25696);
	    ((GeneralPath) shape).curveTo(587.94574, 525.24896, 588.1672, 525.21405, 588.3897, 525.18256);
	    ((GeneralPath) shape).curveTo(588.5654, 524.65564, 590.69116, 524.8876, 590.69116, 523.9935);
	    ((GeneralPath) shape).curveTo(590.69116, 522.6494, 590.61926, 522.48615, 591.9533, 522.284);
	    ((GeneralPath) shape).curveTo(592.4859, 522.2029, 593.3324, 521.90796, 593.1414, 522.4324);
	    ((GeneralPath) shape).curveTo(592.84625, 523.24146, 593.8207, 522.55774, 594.18036, 522.8042);
	    ((GeneralPath) shape).curveTo(594.5336, 523.0464, 593.8483, 523.32434, 594.7002, 523.32434);
	    ((GeneralPath) shape).curveTo(595.2324, 523.32434, 595.5074, 523.5984, 595.7398, 523.9192);
	    ((GeneralPath) shape).curveTo(596.3039, 524.69574, 595.7834, 524.25415, 596.77905, 524.06757);
	    ((GeneralPath) shape).curveTo(596.9647, 522.2054, 597.1876, 522.3148, 596.1108, 520.57446);
	    ((GeneralPath) shape).curveTo(595.1533, 519.02673, 597.0958, 517.1026, 594.70013, 517.00665);
	    ((GeneralPath) shape).curveTo(593.9422, 516.97656, 595.2072, 514.3184, 595.0715, 514.18243);
	    ((GeneralPath) shape).curveTo(594.86664, 513.97815, 594.41595, 514.273, 594.47723, 513.73627);
	    ((GeneralPath) shape).curveTo(594.6105, 512.57025, 595.913, 511.78452, 595.66534, 510.91205);
	    ((GeneralPath) shape).curveTo(595.4485, 510.14474, 596.77405, 510.22122, 597.52136, 509.72266);
	    ((GeneralPath) shape).lineTo(597.52136, 505.14288);
	    ((GeneralPath) shape).lineTo(597.7074, 504.93216);
	    ((GeneralPath) shape).lineTo(598.0256, 502.86603);
	    ((GeneralPath) shape).lineTo(597.3895, 502.3894);
	    ((GeneralPath) shape).curveTo(597.1868, 502.23715, 596.975, 502.65497, 596.91223, 502.23044);
	    ((GeneralPath) shape).curveTo(596.86615, 501.9192, 596.98804, 502.23343, 597.07135, 501.91245);
	    ((GeneralPath) shape).curveTo(597.1666, 501.5456, 597.23047, 501.38873, 597.23047, 500.95923);
	    ((GeneralPath) shape).curveTo(597.23047, 500.64407, 597.0689, 500.193, 597.3896, 500.1643);
	    ((GeneralPath) shape).curveTo(597.6954, 500.137, 597.8463, 500.30096, 597.8665, 500.00568);
	    ((GeneralPath) shape).curveTo(597.88074, 499.79428, 597.9739, 499.55246, 597.8665, 499.36975);
	    ((GeneralPath) shape).curveTo(597.8017, 499.25998, 597.62805, 499.31064, 597.5487, 499.21112);
	    ((GeneralPath) shape).curveTo(597.4321, 499.06558, 597.20215, 498.53162, 597.5487, 498.41653);
	    ((GeneralPath) shape).curveTo(597.80914, 497.85812, 598.15924, 497.3185, 598.02563, 496.6684);
	    ((GeneralPath) shape).curveTo(598.00824, 496.5838, 597.7457, 496.05618, 597.70746, 496.03247);
	    ((GeneralPath) shape).curveTo(597.6625, 496.00418, 597.30066, 496.03348, 597.2305, 496.03247);
	    ((GeneralPath) shape).curveTo(596.46655, 496.01688, 594.5581, 495.87384, 595.3221, 495.87384);
	    ((GeneralPath) shape).lineTo(595.4812, 495.87384);
	    ((GeneralPath) shape).curveTo(595.74304, 495.87384, 595.2689, 495.71487, 595.7994, 495.71487);
	    ((GeneralPath) shape).lineTo(596.4354, 495.71487);
	    ((GeneralPath) shape).lineTo(596.8899, 490.03442);
	    ((GeneralPath) shape).lineTo(599.08484, 490.1075);
	    ((GeneralPath) shape).lineTo(602.27496, 492.4569);
	    ((GeneralPath) shape).lineTo(603.6087, 496.2942);
	    ((GeneralPath) shape).lineTo(607.13153, 498.50052);
	    ((GeneralPath) shape).lineTo(608.59143, 500.4558);
	    ((GeneralPath) shape).curveTo(609.4865, 500.4558, 610.0247, 500.0872, 610.0247, 500.90906);
	    ((GeneralPath) shape).curveTo(610.0247, 501.2274, 610.0885, 501.33292, 610.1002, 501.5889);
	    ((GeneralPath) shape).curveTo(610.1342, 502.31796, 610.7441, 501.46036, 610.9301, 502.26877);
	    ((GeneralPath) shape).curveTo(611.07574, 502.89905, 610.7955, 502.9288, 611.5339, 502.9486);
	    ((GeneralPath) shape).curveTo(612.0491, 502.9624, 612.26843, 502.858, 612.66565, 502.79742);
	    ((GeneralPath) shape).curveTo(613.1628, 502.7213, 613.2691, 502.4614, 613.2691, 501.96637);
	    ((GeneralPath) shape).lineTo(613.3446, 501.5889);
	    ((GeneralPath) shape).curveTo(613.3708, 501.45648, 613.9966, 501.19656, 614.099, 501.05988);
	    ((GeneralPath) shape).lineTo(617.79584, 497.66095);
	    ((GeneralPath) shape).curveTo(618.25433, 497.69635, 618.62036, 498.3971, 618.5506, 498.71826);
	    ((GeneralPath) shape).curveTo(618.44714, 499.19485, 619.6062, 499.03305, 619.9839, 499.09607);
	    ((GeneralPath) shape).curveTo(620.4672, 499.17606, 620.6419, 499.21964, 620.66315, 498.71826);
	    ((GeneralPath) shape).curveTo(620.71484, 497.5041, 622.5493, 499.3273, 622.5493, 497.28314);
	    ((GeneralPath) shape).curveTo(622.5493, 494.2128, 623.02344, 495.01694, 625.6427, 495.01694);
	    ((GeneralPath) shape).curveTo(626.8744, 495.01694, 627.6057, 495.24356, 628.8116, 495.24356);
	    ((GeneralPath) shape).curveTo(630.10565, 495.24356, 629.7913, 494.61505, 630.3958, 494.41287);
	    ((GeneralPath) shape).curveTo(630.34973, 494.31268, 627.2014, 491.88077, 627.45337, 492.14706);
	    ((GeneralPath) shape).curveTo(628.032, 492.75894, 626.2819, 492.0373, 625.71783, 491.84467);
	    ((GeneralPath) shape).curveTo(624.35077, 491.37762, 625.44464, 490.10678, 624.8883, 489.65427);
	    ((GeneralPath) shape).curveTo(624.31354, 489.18686, 623.18854, 488.58066, 622.4738, 488.52118);
	    ((GeneralPath) shape).curveTo(620.89594, 488.38983, 621.6199, 486.2019, 620.21027, 485.80176);
	    ((GeneralPath) shape).curveTo(619.6812, 485.65198, 618.95483, 486.113, 618.777, 485.6509);
	    ((GeneralPath) shape).curveTo(618.5254, 484.99655, 619.0094, 483.92154, 618.4751, 483.38474);
	    ((GeneralPath) shape).lineTo(614.17444, 482.17624);
	    ((GeneralPath) shape).curveTo(614.12445, 483.08484, 613.9115, 483.0381, 613.1185, 483.15814);
	    ((GeneralPath) shape).curveTo(612.87933, 483.19424, 613.2482, 483.66946, 612.8163, 483.46017);
	    ((GeneralPath) shape).curveTo(612.0665, 483.0976, 611.70685, 482.68896, 610.85504, 482.47864);
	    ((GeneralPath) shape).lineTo(609.9674, 481.92276);
	    ((GeneralPath) shape).curveTo(610.7227, 480.49872, 609.03253, 479.4587, 608.30164, 478.63287);
	    ((GeneralPath) shape).curveTo(607.26074, 477.4568, 607.621, 475.7148, 608.7215, 475.06506);
	    ((GeneralPath) shape).curveTo(611.13135, 473.64267, 611.3064, 469.3716, 613.13196, 467.0895);
	    ((GeneralPath) shape).curveTo(613.9898, 466.01804, 613.33923, 466.24747, 612.2918, 465.20078);
	    ((GeneralPath) shape).curveTo(611.4322, 465.20078, 612.1788, 464.49258, 611.0318, 464.36124);
	    ((GeneralPath) shape).curveTo(610.56195, 464.30743, 611.13, 462.72568, 610.19165, 463.31204);
	    ((GeneralPath) shape).curveTo(609.2782, 463.8825, 610.32556, 465.1583, 608.30164, 464.99078);
	    ((GeneralPath) shape).curveTo(607.3226, 464.9101, 606.5391, 464.37787, 607.04126, 463.10205);
	    ((GeneralPath) shape).curveTo(607.5657, 461.77066, 609.94257, 462.49902, 611.03186, 462.2625);
	    ((GeneralPath) shape).curveTo(611.7111, 462.11557, 612.83936, 459.97827, 613.132, 459.32425);
	    ((GeneralPath) shape).curveTo(613.36554, 458.80338, 613.6486, 457.31125, 613.97217, 457.22556);
	    ((GeneralPath) shape).curveTo(615.6698, 456.7762, 615.2343, 457.43234, 616.2825, 455.75644);
	    ((GeneralPath) shape).curveTo(616.2825, 454.99677, 616.73193, 454.50558, 616.73315, 453.8052);
	    ((GeneralPath) shape).curveTo(617.46234, 453.7554, 618.1826, 453.68338, 618.4014, 453.46475);
	    ((GeneralPath) shape).curveTo(618.9652, 452.9014, 619.54205, 451.16315, 619.54205, 450.20782);
	    ((GeneralPath) shape).curveTo(619.54205, 449.0418, 619.0534, 449.10342, 619.0534, 448.2536);
	    ((GeneralPath) shape).curveTo(619.0534, 447.69733, 619.9701, 446.4658, 620.19403, 445.97397);
	    ((GeneralPath) shape).curveTo(620.6185, 445.04022, 620.85205, 443.99744, 621.82367, 443.69434);
	    ((GeneralPath) shape).curveTo(622.2067, 443.575, 624.6442, 443.72723, 624.91956, 444.0201);
	    ((GeneralPath) shape).curveTo(625.433, 444.564, 624.9567, 447.09717, 625.0826, 447.92822);
	    ((GeneralPath) shape).curveTo(625.33026, 449.56305, 626.14594, 449.30814, 624.59393, 450.8594);
	    ((GeneralPath) shape).curveTo(624.59393, 452.00488, 624.93304, 451.95746, 625.8976, 452.6504);
	    ((GeneralPath) shape).curveTo(626.8912, 453.36423, 629.0431, 453.3777, 630.29706, 453.4648);
	    ((GeneralPath) shape).curveTo(630.67444, 453.4906, 631.6007, 453.4758, 631.6007, 453.9531);
	    ((GeneralPath) shape).lineTo(631.6007, 455.09293);
	    ((GeneralPath) shape).curveTo(631.6007, 455.59503, 630.49023, 456.203, 630.13446, 456.5585);
	    ((GeneralPath) shape).curveTo(629.65717, 457.03546, 629.7178, 458.78928, 629.64545, 458.8385);
	    ((GeneralPath) shape).curveTo(628.6714, 459.50455, 627.51624, 458.19052, 626.87524, 457.69833);
	    ((GeneralPath) shape).curveTo(622.81415, 454.57986, 624.75665, 459.8668, 624.75665, 461.76932);
	    ((GeneralPath) shape).curveTo(624.75665, 463.17755, 624.92816, 462.45343, 625.7346, 463.2349);
	    ((GeneralPath) shape).curveTo(625.8264, 463.3241, 625.92737, 463.74338, 626.0606, 464.04932);
	    ((GeneralPath) shape).curveTo(626.4702, 464.9919, 624.21094, 464.1605, 625.2456, 465.8403);
	    ((GeneralPath) shape).curveTo(627.052, 465.8403, 627.41736, 465.23834, 627.52686, 466.8176);
	    ((GeneralPath) shape).curveTo(627.54816, 467.11926, 629.19403, 466.98047, 629.4825, 466.98047);
	    ((GeneralPath) shape).curveTo(630.5597, 466.98047, 630.6667, 469.23886, 631.2751, 468.77145);
	    ((GeneralPath) shape).curveTo(631.7145, 468.4333, 631.5809, 467.20956, 632.0897, 467.143);
	    ((GeneralPath) shape).curveTo(633.9206, 466.90506, 633.05493, 467.1897, 633.23035, 465.8403);
	    ((GeneralPath) shape).curveTo(633.33203, 465.06024, 634.5786, 463.2158, 635.67456, 463.56067);
	    ((GeneralPath) shape).curveTo(636.6607, 463.87085, 636.4502, 464.49866, 636.9782, 465.02625);
	    ((GeneralPath) shape).curveTo(637.65924, 465.70645, 640.99536, 464.8977, 641.37805, 465.35202);
	    ((GeneralPath) shape).curveTo(642.6158, 466.82007, 641.7111, 466.239, 643.82227, 467.143);
	    ((GeneralPath) shape).curveTo(643.82227, 468.20847, 643.82825, 468.32602, 643.3336, 468.93436);
	    ((GeneralPath) shape).curveTo(642.87085, 469.50372, 641.81067, 469.56003, 641.704, 469.74878);
	    ((GeneralPath) shape).curveTo(641.46234, 470.17688, 641.32056, 472.59885, 640.88934, 472.84247);
	    ((GeneralPath) shape).curveTo(640.3979, 473.11972, 639.4769, 473.99857, 639.4227, 474.47092);
	    ((GeneralPath) shape).curveTo(639.25726, 475.90677, 639.7487, 475.76053, 639.09674, 476.91342);
	    ((GeneralPath) shape).curveTo(638.1471, 478.59323, 638.9337, 479.5762, 638.9337, 481.47305);
	    ((GeneralPath) shape).curveTo(638.9337, 483.94638, 637.8796, 482.59412, 636.0005, 482.93863);
	    ((GeneralPath) shape).curveTo(634.61536, 483.19217, 636.0434, 483.54446, 635.83746, 484.07846);
	    ((GeneralPath) shape).curveTo(635.2723, 485.54758, 635.51184, 486.13608, 635.51184, 488.14944);
	    ((GeneralPath) shape).curveTo(635.8474, 488.14944, 637.1411, 487.85413, 637.1411, 488.14944);
	    ((GeneralPath) shape).lineTo(637.1411, 488.31232);
	    ((GeneralPath) shape).lineTo(637.3041, 488.31232);
	    ((GeneralPath) shape).curveTo(637.4348, 488.31232, 637.415, 488.51804, 637.4671, 488.6381);
	    ((GeneralPath) shape).curveTo(637.5192, 488.75812, 637.5064, 488.676, 637.4671, 488.801);
	    ((GeneralPath) shape).curveTo(637.3969, 489.02194, 637.4671, 489.3679, 637.4671, 489.61505);
	    ((GeneralPath) shape).curveTo(637.4671, 490.0867, 637.5068, 490.22055, 637.6301, 490.75488);
	    ((GeneralPath) shape).lineTo(641.86694, 491.4064);
	    ((GeneralPath) shape).lineTo(642.19293, 493.1974);
	    ((GeneralPath) shape).lineTo(643.98517, 493.1974);
	    ((GeneralPath) shape).lineTo(645.2888, 493.1974);
	    ((GeneralPath) shape).curveTo(645.9865, 493.1974, 646.63605, 493.2519, 647.24445, 493.03452);
	    ((GeneralPath) shape).curveTo(648.389, 492.62482, 647.42194, 492.48215, 648.71106, 492.38333);
	    ((GeneralPath) shape).curveTo(648.71106, 492.91696, 648.7579, 493.24023, 648.8741, 493.68604);
	    ((GeneralPath) shape).curveTo(648.97327, 494.06915, 649.36273, 493.79758, 649.36273, 494.33722);
	    ((GeneralPath) shape).curveTo(649.36273, 494.78372, 649.5137, 495.8991, 649.36273, 496.29144);
	    ((GeneralPath) shape).curveTo(649.12354, 496.91428, 648.9903, 496.66394, 648.5481, 497.1055);
	    ((GeneralPath) shape).lineTo(648.38513, 497.26837);
	    ((GeneralPath) shape).curveTo(648.0067, 497.64655, 647.91565, 497.8158, 648.2221, 498.57108);
	    ((GeneralPath) shape).curveTo(648.48895, 499.2272, 648.50946, 499.6631, 648.5481, 500.36243);
	    ((GeneralPath) shape).curveTo(646.01636, 500.36243, 646.9341, 498.35614, 643.9853, 498.89685);
	    ((GeneralPath) shape).curveTo(643.48, 498.98926, 644.16, 500.33197, 643.65967, 500.36243);
	    ((GeneralPath) shape).curveTo(642.7767, 500.41592, 642.2806, 500.09155, 642.3561, 501.17648);
	    ((GeneralPath) shape).curveTo(642.3731, 501.4254, 642.6817, 501.53198, 642.6817, 501.9909);
	    ((GeneralPath) shape).curveTo(642.6817, 503.14417, 641.1619, 502.17892, 640.88947, 502.96783);
	    ((GeneralPath) shape).curveTo(640.4104, 504.35162, 640.6386, 505.5736, 641.5411, 506.55017);
	    ((GeneralPath) shape).curveTo(641.85504, 506.62848, 642.1612, 506.79166, 642.19305, 507.03882);
	    ((GeneralPath) shape).curveTo(642.20404, 507.12552, 642.0474, 507.67264, 642.03, 507.69034);
	    ((GeneralPath) shape).curveTo(642.00385, 507.71613, 641.60126, 507.68234, 641.541, 507.69034);
	    ((GeneralPath) shape).curveTo(641.36847, 507.71265, 640.9624, 507.84613, 640.7264, 508.01575);
	    ((GeneralPath) shape).curveTo(640.2161, 508.38223, 640.56335, 508.72748, 640.56335, 509.31845);
	    ((GeneralPath) shape).curveTo(640.56335, 510.54715, 640.2384, 510.29575, 639.09674, 510.29575);
	    ((GeneralPath) shape).curveTo(639.09674, 511.05917, 639.11163, 514.3405, 639.58575, 514.5296);
	    ((GeneralPath) shape).curveTo(639.989, 514.69037, 640.6314, 515.1411, 640.7264, 515.50653);
	    ((GeneralPath) shape).curveTo(640.78375, 515.7271, 640.83234, 515.8426, 641.052, 515.9948);
	    ((GeneralPath) shape).curveTo(641.3429, 516.197, 641.21497, 516.04724, 641.21497, 516.8092);
	    ((GeneralPath) shape).curveTo(642.0867, 516.8092, 641.69617, 516.51636, 642.5186, 516.32056);
	    ((GeneralPath) shape).curveTo(642.9998, 516.20654, 643.465, 516.15765, 643.9852, 516.15765);
	    ((GeneralPath) shape).curveTo(645.252, 516.15765, 644.4225, 517.9692, 644.9632, 518.2748);
	    ((GeneralPath) shape).curveTo(645.5068, 518.5814, 645.8685, 517.5524, 645.9408, 518.1119);
	    ((GeneralPath) shape).curveTo(645.9667, 518.313, 645.9408, 518.5577, 645.9408, 518.76306);
	    ((GeneralPath) shape).curveTo(645.9408, 519.86536, 645.58575, 521.3313, 646.5924, 522.02);
	    ((GeneralPath) shape).curveTo(647.67706, 522.7622, 646.95703, 521.1206, 647.4074, 521.0431);
	    ((GeneralPath) shape).curveTo(649.2893, 520.718, 648.47644, 521.2552, 649.52563, 519.7404);
	    ((GeneralPath) shape).curveTo(649.61884, 519.3668, 651.02344, 519.1317, 651.48126, 519.08887);
	    ((GeneralPath) shape).curveTo(652.4865, 518.99536, 653.47125, 519.0135, 653.9255, 519.7404);
	    ((GeneralPath) shape).curveTo(654.305, 520.3466, 653.80817, 520.3916, 655.0661, 520.3916);
	    ((GeneralPath) shape).curveTo(655.9824, 520.3916, 655.65326, 520.8877, 656.0437, 521.3685);
	    ((GeneralPath) shape).curveTo(656.4544, 521.8731, 656.0738, 522.1964, 656.3697, 522.8341);
	    ((GeneralPath) shape).curveTo(656.397, 522.8925, 656.9983, 522.7148, 657.02167, 522.50867);
	    ((GeneralPath) shape).curveTo(657.03406, 522.39923, 657.2403, 521.0332, 657.3473, 521.8571);
	    ((GeneralPath) shape).curveTo(657.3817, 522.1227, 657.3073, 522.40454, 657.3473, 522.6715);
	    ((GeneralPath) shape).curveTo(657.4745, 523.51245, 657.7424, 523.72565, 658.4883, 523.9742);
	    ((GeneralPath) shape).curveTo(658.4883, 524.93414, 657.4522, 524.8987, 656.6957, 525.27686);
	    ((GeneralPath) shape).curveTo(656.3289, 525.4596, 657.15704, 526.8352, 656.5968, 527.0027);
	    ((GeneralPath) shape).curveTo(655.6578, 527.28345, 656.67163, 529.436, 655.06537, 529.8365);
	    ((GeneralPath) shape).curveTo(654.06964, 530.0847, 653.50696, 529.80286, 652.52295, 529.999);
	    ((GeneralPath) shape).curveTo(650.5567, 529.999, 651.3745, 531.50214, 649.5901, 531.92065);
	    ((GeneralPath) shape).curveTo(648.5572, 532.16284, 646.84924, 533.5052, 645.38513, 532.31195);
	    ((GeneralPath) shape).curveTo(644.2296, 531.3704, 643.1592, 532.6377, 642.12695, 532.6377);
	    ((GeneralPath) shape).curveTo(639.9818, 532.6377, 640.2468, 533.80194, 638.21576, 534.6564);
	    ((GeneralPath) shape).curveTo(637.15027, 534.6564, 636.7176, 535.515, 636.7176, 536.41516);
	    ((GeneralPath) shape).curveTo(636.7176, 537.4597, 635.0575, 537.3241, 634.07776, 537.19666);
	    ((GeneralPath) shape).curveTo(634.07776, 537.19666, 633.1257, 535.48956, 633.0672, 535.37274);
	    ((GeneralPath) shape).curveTo(632.9949, 535.2283, 633.1303, 534.87665, 633.0672, 534.72156);
	    ((GeneralPath) shape).curveTo(632.5942, 533.5566, 631.40466, 532.5733, 630.13434, 532.2787);
	    ((GeneralPath) shape).curveTo(629.28534, 532.0825, 629.48236, 530.9271, 629.48236, 530.1619);
	    ((GeneralPath) shape).lineTo(629.48236, 528.3706);
	    ((GeneralPath) shape).curveTo(628.391, 528.3706, 625.09314, 528.6181, 625.04956, 528.957);
	    ((GeneralPath) shape).curveTo(624.9468, 529.7491, 624.71185, 530.2448, 623.7789, 530.4877);
	    ((GeneralPath) shape).curveTo(623.2566, 530.6233, 623.2286, 531.52124, 622.96423, 532.11615);
	    ((GeneralPath) shape).curveTo(622.65137, 532.82007, 622.0982, 533.38556, 622.63824, 534.39575);
	    ((GeneralPath) shape).curveTo(622.9724, 535.02, 624.7232, 535.1765, 625.40845, 535.8613);
	    ((GeneralPath) shape).curveTo(625.9499, 536.40204, 625.5715, 536.6694, 625.5715, 537.4898);
	    ((GeneralPath) shape).curveTo(625.5715, 537.75964, 625.45917, 537.94305, 625.73444, 537.9781);
	    ((GeneralPath) shape).curveTo(626.0562, 538.0199, 625.98145, 537.9516, 626.2231, 537.8152);
	    ((GeneralPath) shape).curveTo(626.31726, 537.7621, 626.32477, 537.7419, 626.3861, 537.6523);
	    ((GeneralPath) shape).curveTo(626.5087, 537.47345, 626.4757, 537.3676, 626.5491, 537.164);
	    ((GeneralPath) shape).curveTo(626.6423, 536.9055, 626.6699, 536.9045, 627.0381, 536.83826);
	    ((GeneralPath) shape).curveTo(627.23474, 536.8024, 627.6663, 536.82306, 627.8527, 536.83826);
	    ((GeneralPath) shape).curveTo(628.16205, 536.8638, 628.5444, 537.3283, 628.34174, 537.6523);
	    ((GeneralPath) shape).curveTo(628.1805, 537.9104, 628.2506, 537.42316, 628.1787, 537.978);
	    ((GeneralPath) shape).curveTo(628.1291, 538.35834, 628.11633, 537.9168, 628.0157, 538.3038);
	    ((GeneralPath) shape).curveTo(627.9831, 538.4298, 627.9548, 538.5477, 627.8527, 538.6295);
	    ((GeneralPath) shape).curveTo(627.76843, 538.69684, 627.79645, 538.774, 627.6897, 538.7924);
	    ((GeneralPath) shape).curveTo(627.2081, 538.8745, 626.7121, 538.7924, 626.2231, 538.7924);
	    ((GeneralPath) shape).curveTo(623.6626, 538.7924, 625.1009, 543.17786, 620.031, 539.6065);
	    ((GeneralPath) shape).curveTo(619.2756, 539.0743, 618.76355, 540.17126, 618.2384, 539.93225);
	    ((GeneralPath) shape).curveTo(617.191, 539.4546, 615.53656, 539.42664, 615.1425, 539.76935);
	    ((GeneralPath) shape).curveTo(614.268, 540.52997, 612.379, 540.9226, 613.0239, 542.21185);
	    ((GeneralPath) shape).curveTo(613.9229, 544.0085, 608.51, 542.0975, 608.13544, 542.04895);
	    ((GeneralPath) shape).curveTo(607.13904, 541.9194, 606.33856, 543.39166, 605.36523, 542.3747);
	    ((GeneralPath) shape).curveTo(604.3295, 541.29224, 605.23804, 538.79236, 603.4096, 538.79236);
	    ((GeneralPath) shape).curveTo(602.0656, 538.79236, 602.3381, 541.1226, 600.80237, 539.28064);
	    ((GeneralPath) shape).curveTo(600.0285, 539.28064, 600.1837, 539.4375, 599.4987, 539.7693);
	    ((GeneralPath) shape).curveTo(599.16315, 539.93146, 599.45905, 540.6864, 599.33575, 540.7462);
	    ((GeneralPath) shape).curveTo(598.50024, 541.1506, 597.47473, 540.7462, 596.7285, 540.7462);
	    ((GeneralPath) shape).curveTo(595.22363, 540.7462, 596.44507, 539.6064, 595.2619, 539.6064);
	    ((GeneralPath) shape).curveTo(594.9664, 539.6064, 594.3027, 539.7512, 594.2843, 539.4435);
	    ((GeneralPath) shape).curveTo(594.2361, 538.6482, 594.2843, 537.7973, 594.2843, 537.001);
	    ((GeneralPath) shape).curveTo(593.54266, 536.2598, 591.6374, 537.206, 590.86206, 536.67523);
	    ((GeneralPath) shape).curveTo(590.7795, 536.61896, 591.25574, 534.6672, 591.0251, 534.2327);
	    ((GeneralPath) shape).curveTo(590.35077, 532.9619, 588.28217, 532.32666, 588.2549, 532.11597);
	    ((GeneralPath) shape).curveTo(588.18896, 531.6082, 585.97363, 532.44104, 586.78827, 531.1387);
	    ((GeneralPath) shape).curveTo(587.7166, 529.6543, 584.7643, 531.1224, 585.322, 529.6731);
	    ((GeneralPath) shape).curveTo(585.4875, 529.24146, 585.2647, 528.3807, 585.322, 527.8821);
	    ((GeneralPath) shape).curveTo(585.34125, 527.71533, 585.3792, 527.5594, 585.45306, 527.4014);
	    ((GeneralPath) shape).closePath();
	
	    g.setPaint(new Color(0x3c7a51));
	    g.fill(shape);
	    g.setPaint(Color.WHITE);
	    g.draw(shape);
	    if (this.drawSquares){ this.paintSquare(g, shape); }
	    this.detectMouse(g, shape, "Puebla");
	    /*
	     * 
	     * 
	     * Tlaxcala
	     * 
	     * 
	     * 
	     * */
	    // _0_0_0_7
	    shape = new GeneralPath();
	    ((GeneralPath) shape).moveTo(596.88983, 490.03436);
	    ((GeneralPath) shape).lineTo(599.0848, 490.10745);
	    ((GeneralPath) shape).lineTo(602.2749, 492.45685);
	    ((GeneralPath) shape).lineTo(603.60864, 496.29413);
	    ((GeneralPath) shape).lineTo(607.1315, 498.50046);
	    ((GeneralPath) shape).lineTo(608.5914, 500.45575);
	    ((GeneralPath) shape).curveTo(609.48645, 500.45575, 610.02466, 500.08713, 610.02466, 500.909);
	    ((GeneralPath) shape).curveTo(610.02466, 501.22733, 610.08844, 501.33286, 610.10016, 501.58884);
	    ((GeneralPath) shape).curveTo(610.13416, 502.3179, 610.744, 501.4603, 610.93005, 502.2687);
	    ((GeneralPath) shape).curveTo(611.0757, 502.899, 610.7954, 502.92874, 611.5338, 502.94855);
	    ((GeneralPath) shape).curveTo(612.049, 502.96234, 612.2684, 502.85794, 612.6656, 502.79736);
	    ((GeneralPath) shape).curveTo(613.1627, 502.72125, 613.26904, 502.46133, 613.26904, 501.9663);
	    ((GeneralPath) shape).lineTo(613.34454, 501.58884);
	    ((GeneralPath) shape).curveTo(613.3707, 501.45642, 613.9965, 501.1965, 614.09894, 501.0598);
	    ((GeneralPath) shape).lineTo(617.7958, 497.6609);
	    ((GeneralPath) shape).curveTo(618.2543, 497.6963, 618.6203, 498.39703, 618.55054, 498.7182);
	    ((GeneralPath) shape).curveTo(618.4471, 499.1948, 619.60614, 499.033, 619.9838, 499.096);
	    ((GeneralPath) shape).curveTo(620.46716, 499.176, 620.64185, 499.21957, 620.6631, 498.7182);
	    ((GeneralPath) shape).curveTo(620.7148, 497.50403, 622.54926, 499.32724, 622.54926, 497.28308);
	    ((GeneralPath) shape).curveTo(622.54926, 494.21274, 623.0234, 495.01688, 625.64264, 495.01688);
	    ((GeneralPath) shape).curveTo(626.8743, 495.01688, 627.60565, 495.2435, 628.8115, 495.2435);
	    ((GeneralPath) shape).curveTo(630.1056, 495.2435, 629.79126, 494.615, 630.39575, 494.4128);
	    ((GeneralPath) shape).curveTo(630.3497, 494.31262, 627.20135, 491.8807, 627.4533, 492.147);
	    ((GeneralPath) shape).curveTo(628.0319, 492.75888, 626.28186, 492.03723, 625.7178, 491.8446);
	    ((GeneralPath) shape).curveTo(624.3507, 491.37756, 625.4446, 490.10672, 624.88824, 489.6542);
	    ((GeneralPath) shape).curveTo(624.3135, 489.1868, 623.1885, 488.5806, 622.47375, 488.52112);
	    ((GeneralPath) shape).curveTo(620.8959, 488.38977, 621.6198, 486.20184, 620.2102, 485.8017);
	    ((GeneralPath) shape).curveTo(619.68115, 485.65192, 618.9548, 486.11295, 618.7769, 485.65085);
	    ((GeneralPath) shape).curveTo(618.5253, 484.9965, 619.00934, 483.92148, 618.47504, 483.38467);
	    ((GeneralPath) shape).lineTo(614.1744, 482.17618);
	    ((GeneralPath) shape).curveTo(614.1244, 483.08478, 613.91144, 483.03802, 613.11847, 483.15808);
	    ((GeneralPath) shape).curveTo(612.8793, 483.19418, 613.24817, 483.6694, 612.8162, 483.4601);
	    ((GeneralPath) shape).curveTo(612.06647, 483.09753, 611.7068, 482.6889, 610.855, 482.47858);
	    ((GeneralPath) shape).lineTo(609.96735, 481.9227);
	    ((GeneralPath) shape).curveTo(609.90356, 482.0114, 609.84326, 482.1052, 609.7717, 482.20062);
	    ((GeneralPath) shape).curveTo(608.50494, 481.77853, 606.7708, 481.38693, 606.6213, 483.04016);
	    ((GeneralPath) shape).curveTo(606.59076, 483.3769, 606.0196, 483.4764, 605.7811, 483.66974);
	    ((GeneralPath) shape).curveTo(605.75916, 483.68784, 604.67065, 485.74152, 604.5211, 484.08932);
	    ((GeneralPath) shape).curveTo(604.42334, 483.0097, 603.86096, 484.14914, 603.4709, 484.29932);
	    ((GeneralPath) shape).curveTo(603.11584, 484.43527, 602.8529, 484.2402, 602.63074, 484.50928);
	    ((GeneralPath) shape).curveTo(602.4787, 484.69305, 601.8973, 485.44904, 601.5808, 485.55844);
	    ((GeneralPath) shape).curveTo(600.8229, 485.82047, 599.09796, 485.55844, 598.1945, 485.53534);
	    ((GeneralPath) shape).curveTo(597.92773, 485.82507, 597.6211, 485.94833, 597.3897, 486.17953);
	    ((GeneralPath) shape).curveTo(597.24194, 486.3272, 597.2409, 486.63773, 596.9124, 486.6565);
	    ((GeneralPath) shape).curveTo(596.3231, 486.6894, 595.70764, 486.613, 595.6403, 487.13312);
	    ((GeneralPath) shape).curveTo(595.56305, 487.73257, 595.4015, 488.10013, 595.4812, 488.88126);
	    ((GeneralPath) shape).curveTo(595.5209, 489.26758, 596.664, 489.58414, 596.91235, 489.67584);
	    ((GeneralPath) shape).lineTo(596.88983, 490.03442);
	    ((GeneralPath) shape).closePath();
	
	    g.setPaint(new Color(0x3c7a51));
	    g.fill(shape);
	    g.setPaint(Color.WHITE);
	    g.draw(shape);
	    if (this.drawSquares){ this.paintSquare(g, shape); }
	    this.detectMouse(g, shape, "Tlaxcala");
	    /*
	     * 
	     * 
	     * Unknwon
	     * 
	     * */
	    // _0_0_0_8
	    shape = new GeneralPath();
	    ((GeneralPath) shape).moveTo(571.62415, 516.6903);
	    ((GeneralPath) shape).curveTo(571.8616, 517.3051, 571.8448, 517.86615, 572.13086, 518.49347);
	    ((GeneralPath) shape).curveTo(572.69714, 519.73535, 573.95074, 519.08234, 574.4323, 520.20264);
	    ((GeneralPath) shape).curveTo(574.4876, 520.33154, 574.83203, 521.2918, 574.87805, 521.3177);
	    ((GeneralPath) shape).curveTo(575.30536, 521.55493, 574.3437, 522.2291, 574.58075, 522.6558);
	    ((GeneralPath) shape).curveTo(575.3766, 524.0885, 574.91455, 523.5474, 577.6989, 523.5474);
	    ((GeneralPath) shape).curveTo(577.6989, 525.14966, 578.9451, 524.4394, 580.29767, 524.4394);
	    ((GeneralPath) shape).curveTo(580.8692, 524.4394, 580.6903, 524.7818, 581.1141, 524.81085);
	    ((GeneralPath) shape).curveTo(582.10443, 524.87915, 582.412, 524.97766, 583.193, 525.40576);
	    ((GeneralPath) shape).curveTo(583.2639, 525.44464, 583.35175, 525.5722, 583.4155, 525.62885);
	    ((GeneralPath) shape).curveTo(583.66394, 525.8484, 583.61005, 525.86115, 583.7865, 526.149);
	    ((GeneralPath) shape).curveTo(583.95337, 526.42096, 584.6638, 525.968, 584.9002, 526.0003);
	    ((GeneralPath) shape).curveTo(584.9863, 526.0123, 585.0044, 527.26337, 585.049, 527.4871);
	    ((GeneralPath) shape).curveTo(585.4753, 527.38055, 585.89905, 527.3267, 586.38525, 527.26404);
	    ((GeneralPath) shape).curveTo(586.79095, 527.2119, 586.77466, 526.6582, 586.9791, 526.3721);
	    ((GeneralPath) shape).curveTo(587.028, 526.3041, 587.3051, 525.7981, 587.3501, 525.7028);
	    ((GeneralPath) shape).curveTo(587.5524, 525.2779, 587.2172, 525.27545, 587.72144, 525.257);
	    ((GeneralPath) shape).curveTo(587.94574, 525.249, 588.1672, 525.2141, 588.3897, 525.1826);
	    ((GeneralPath) shape).curveTo(588.5654, 524.6557, 590.69116, 524.88763, 590.69116, 523.9936);
	    ((GeneralPath) shape).curveTo(590.69116, 522.6495, 590.61926, 522.4862, 591.9533, 522.28406);
	    ((GeneralPath) shape).curveTo(592.4859, 522.20294, 593.3324, 521.908, 593.1414, 522.43243);
	    ((GeneralPath) shape).curveTo(592.84625, 523.2415, 593.8207, 522.5578, 594.18036, 522.80426);
	    ((GeneralPath) shape).curveTo(594.5336, 523.04645, 593.8483, 523.3244, 594.7002, 523.3244);
	    ((GeneralPath) shape).curveTo(595.2324, 523.3244, 595.5074, 523.59845, 595.7398, 523.91925);
	    ((GeneralPath) shape).curveTo(596.3039, 524.6958, 595.7834, 524.2542, 596.77905, 524.0676);
	    ((GeneralPath) shape).curveTo(596.9647, 522.20544, 597.1876, 522.3149, 596.1108, 520.5745);
	    ((GeneralPath) shape).curveTo(595.1533, 519.0268, 597.0958, 517.10266, 594.70013, 517.0067);
	    ((GeneralPath) shape).curveTo(593.9422, 516.9766, 595.2072, 514.3185, 595.0715, 514.1825);
	    ((GeneralPath) shape).curveTo(594.86664, 513.9782, 594.41595, 514.2731, 594.47723, 513.7363);
	    ((GeneralPath) shape).curveTo(594.6105, 512.5703, 595.913, 511.78458, 595.66534, 510.9121);
	    ((GeneralPath) shape).curveTo(595.4485, 510.1448, 596.77405, 510.22128, 597.52136, 509.72272);
	    ((GeneralPath) shape).lineTo(597.6144, 505.03757);
	    ((GeneralPath) shape).lineTo(595.6402, 507.15698);
	    ((GeneralPath) shape).lineTo(592.77747, 507.31595);
	    ((GeneralPath) shape).lineTo(590.392, 505.0912);
	    ((GeneralPath) shape).lineTo(589.59686, 503.18405);
	    ((GeneralPath) shape).lineTo(588.37103, 503.16406);
	    ((GeneralPath) shape).lineTo(588.0342, 503.877);
	    ((GeneralPath) shape).lineTo(587.6338, 503.54416);
	    ((GeneralPath) shape).lineTo(586.0995, 503.6787);
	    ((GeneralPath) shape).lineTo(584.76715, 504.61);
	    ((GeneralPath) shape).lineTo(583.4348, 503.61145);
	    ((GeneralPath) shape).lineTo(579.03394, 503.3459);
	    ((GeneralPath) shape).lineTo(576.6747, 501.6143);
	    ((GeneralPath) shape).lineTo(576.5564, 506.83936);
	    ((GeneralPath) shape).curveTo(576.5564, 507.36694, 576.5164, 507.38818, 576.8742, 507.79257);
	    ((GeneralPath) shape).curveTo(576.97943, 507.91153, 577.3784, 508.56024, 577.1924, 508.74615);
	    ((GeneralPath) shape).curveTo(576.97943, 508.95895, 577.01807, 508.55743, 576.8742, 508.90512);
	    ((GeneralPath) shape).curveTo(576.7268, 509.26135, 576.23816, 509.47485, 576.23816, 509.8587);
	    ((GeneralPath) shape).lineTo(576.23816, 510.0177);
	    ((GeneralPath) shape).curveTo(576.23816, 510.14517, 576.04785, 509.8587, 575.92, 509.8587);
	    ((GeneralPath) shape).lineTo(575.44305, 509.8587);
	    ((GeneralPath) shape).lineTo(574.48883, 509.38174);
	    ((GeneralPath) shape).lineTo(571.6261, 511.76584);
	    ((GeneralPath) shape).lineTo(571.6241, 516.69037);
	    ((GeneralPath) shape).closePath();
	
	    g.setPaint(new Color(0x3c7a51));
	    g.fill(shape);
	    g.setPaint(Color.WHITE);
	    g.draw(shape);
	    if (this.drawSquares){ this.paintSquare(g, shape); }
	    this.detectMouse(g, shape, "Morelos");
	    /*
	     * 
	     * 
	     * Distrito Federal
	     * 
	     * 
	     * */
	    // _0_0_0_9
	    shape = new GeneralPath();
	    ((GeneralPath) shape).moveTo(576.67487, 501.6142);
	    ((GeneralPath) shape).lineTo(576.727, 499.92883);
	    ((GeneralPath) shape).curveTo(576.3578, 499.72168, 575.6452, 499.4455, 575.61365, 499.13425);
	    ((GeneralPath) shape).curveTo(575.57574, 498.76138, 575.8695, 498.27026, 575.77277, 498.02203);
	    ((GeneralPath) shape).curveTo(575.62286, 497.63892, 574.871, 498.15872, 574.5003, 497.86307);
	    ((GeneralPath) shape).curveTo(574.2175, 497.6375, 574.1825, 497.44525, 574.1825, 497.06848);
	    ((GeneralPath) shape).curveTo(574.1825, 496.719, 574.00995, 495.5126, 574.34125, 495.4793);
	    ((GeneralPath) shape).curveTo(574.4603, 495.46732, 575.23096, 495.5437, 575.2955, 495.4793);
	    ((GeneralPath) shape).curveTo(575.38367, 495.3911, 575.33405, 494.64612, 575.4546, 494.52573);
	    ((GeneralPath) shape).curveTo(575.4691, 494.51123, 575.89044, 494.52274, 575.9319, 494.52573);
	    ((GeneralPath) shape).curveTo(576.9269, 494.59372, 576.0102, 494.49884, 576.56793, 494.68472);
	    ((GeneralPath) shape).lineTo(579.69464, 491.41824);
	    ((GeneralPath) shape).lineTo(578.7177, 491.1771);
	    ((GeneralPath) shape).lineTo(579.0355, 489.29263);
	    ((GeneralPath) shape).lineTo(580.54926, 489.37512);
	    ((GeneralPath) shape).lineTo(580.41815, 487.8295);
	    ((GeneralPath) shape).lineTo(581.1683, 485.0669);
	    ((GeneralPath) shape).lineTo(582.5994, 486.33844);
	    ((GeneralPath) shape).lineTo(581.48645, 488.69952);
	    ((GeneralPath) shape).lineTo(584.19006, 489.51675);
	    ((GeneralPath) shape).lineTo(584.8261, 491.2649);
	    ((GeneralPath) shape).lineTo(584.667, 492.85406);
	    ((GeneralPath) shape).lineTo(588.3248, 494.9202);
	    ((GeneralPath) shape).lineTo(588.1657, 497.9395);
	    ((GeneralPath) shape).lineTo(589.2787, 498.92743);
	    ((GeneralPath) shape).lineTo(588.1657, 499.3697);
	    ((GeneralPath) shape).lineTo(588.3711, 503.16394);
	    ((GeneralPath) shape).lineTo(588.03424, 503.8769);
	    ((GeneralPath) shape).lineTo(587.63385, 503.54404);
	    ((GeneralPath) shape).lineTo(586.09955, 503.6786);
	    ((GeneralPath) shape).lineTo(584.7672, 504.60986);
	    ((GeneralPath) shape).lineTo(583.4349, 503.61133);
	    ((GeneralPath) shape).lineTo(579.034, 503.34576);
	    ((GeneralPath) shape).lineTo(576.67474, 501.61417);
	    ((GeneralPath) shape).closePath();
	
	    g.setPaint(new Color(0x3c7a51));
	    g.fill(shape);
	    g.setPaint(Color.WHITE);
	    g.draw(shape);
	    if (this.drawSquares){ this.paintSquare(g, shape); }
	    this.detectMouse(g, shape, "Distrito Federal");
	    /*
	     * 
	     * 
	     * Hidalgo
	     * 
	     * 
	     * */
	    // _0_0_0_10
	    shape = new GeneralPath();
	    ((GeneralPath) shape).moveTo(599.94745, 426.07138);
	    ((GeneralPath) shape).lineTo(601.58075, 426.16418);
	    ((GeneralPath) shape).lineTo(600.6216, 430.56058);
	    ((GeneralPath) shape).curveTo(602.9053, 432.12213, 602.15125, 433.08417, 602.7384, 433.46802);
	    ((GeneralPath) shape).curveTo(603.1597, 433.74313, 604.55475, 433.92938, 604.941, 433.92938);
	    ((GeneralPath) shape).curveTo(605.23047, 433.92938, 606.78357, 434.51364, 607.2513, 433.92938);
	    ((GeneralPath) shape).curveTo(609.9981, 430.49646, 612.0813, 437.28546, 611.441, 438.40686);
	    ((GeneralPath) shape).curveTo(610.958, 439.25278, 610.3486, 440.88513, 609.40283, 441.85925);
	    ((GeneralPath) shape).curveTo(608.7448, 442.53732, 609.14166, 443.13257, 609.14166, 444.42322);
	    ((GeneralPath) shape).curveTo(609.14166, 446.11295, 607.8813, 445.89233, 608.0914, 445.89233);
	    ((GeneralPath) shape).curveTo(607.9631, 446.19156, 607.7519, 447.8501, 607.6715, 447.99103);
	    ((GeneralPath) shape).curveTo(607.6645, 448.00272, 606.83954, 448.01334, 606.6213, 447.99103);
	    ((GeneralPath) shape).curveTo(606.27155, 447.95523, 606.41113, 447.91312, 606.41113, 447.57108);
	    ((GeneralPath) shape).curveTo(606.41113, 446.7871, 605.3612, 447.2386, 605.3612, 446.5219);
	    ((GeneralPath) shape).curveTo(605.3612, 446.45212, 606.5823, 444.42322, 605.15106, 444.42322);
	    ((GeneralPath) shape).curveTo(604.05334, 444.42322, 603.345, 444.28903, 602.84076, 444.8428);
	    ((GeneralPath) shape).curveTo(602.40137, 445.32578, 602.6845, 446.04813, 602.21075, 446.5219);
	    ((GeneralPath) shape).curveTo(601.45917, 447.27295, 600.40967, 447.07147, 599.4806, 447.36145);
	    ((GeneralPath) shape).curveTo(598.6851, 447.60968, 598.8325, 448.62698, 598.2206, 448.83057);
	    ((GeneralPath) shape).curveTo(598.28296, 449.58087, 598.1327, 449.87973, 598.8506, 449.87973);
	    ((GeneralPath) shape).curveTo(599.768, 449.87973, 600.66693, 450.0681, 601.1605, 449.46014);
	    ((GeneralPath) shape).curveTo(601.7409, 448.7463, 601.5673, 448.6206, 602.6307, 448.6206);
	    ((GeneralPath) shape).lineTo(604.52106, 448.6206);
	    ((GeneralPath) shape).lineTo(604.52106, 449.46014);
	    ((GeneralPath) shape).curveTo(604.52106, 450.2048, 603.5441, 449.8022, 602.21075, 450.92926);
	    ((GeneralPath) shape).curveTo(601.8043, 451.5383, 601.1314, 453.08566, 600.53046, 453.44757);
	    ((GeneralPath) shape).curveTo(599.8161, 453.87848, 599.7009, 453.4756, 599.0107, 454.7963);
	    ((GeneralPath) shape).curveTo(598.4739, 455.82422, 599.0603, 456.23215, 599.0603, 457.85495);
	    ((GeneralPath) shape).curveTo(599.0603, 458.59253, 598.88385, 460.75742, 599.4805, 460.79318);
	    ((GeneralPath) shape).curveTo(600.18567, 460.83597, 602.17175, 461.4433, 602.42084, 461.00317);
	    ((GeneralPath) shape).curveTo(602.86237, 460.22168, 603.24255, 459.82584, 603.68085, 459.1141);
	    ((GeneralPath) shape).curveTo(604.8725, 457.17795, 608.0141, 457.45093, 609.56146, 455.54626);
	    ((GeneralPath) shape).curveTo(610.7347, 454.10263, 613.7278, 449.2594, 614.8121, 452.18842);
	    ((GeneralPath) shape).curveTo(614.9053, 452.4402, 615.5576, 452.79922, 615.6522, 452.818);
	    ((GeneralPath) shape).curveTo(616.40204, 452.96744, 615.8918, 452.9207, 616.2822, 453.23795);
	    ((GeneralPath) shape).curveTo(616.48883, 453.4051, 616.6426, 453.13776, 616.7021, 453.65753);
	    ((GeneralPath) shape).curveTo(616.7921, 454.44257, 616.2822, 454.94714, 616.2822, 455.75623);
	    ((GeneralPath) shape).curveTo(615.2341, 457.43213, 615.66956, 456.776, 613.9719, 457.22534);
	    ((GeneralPath) shape).curveTo(613.6484, 457.31104, 613.3653, 458.80316, 613.1318, 459.32404);
	    ((GeneralPath) shape).curveTo(612.8391, 459.97806, 611.7109, 462.11533, 611.0316, 462.2623);
	    ((GeneralPath) shape).curveTo(609.9424, 462.49884, 607.5655, 461.77048, 607.041, 463.10184);
	    ((GeneralPath) shape).curveTo(606.53894, 464.37762, 607.3223, 464.90982, 608.3014, 464.99057);
	    ((GeneralPath) shape).curveTo(610.3254, 465.15805, 609.27795, 463.88226, 610.1914, 463.31183);
	    ((GeneralPath) shape).curveTo(611.1297, 462.72546, 610.5617, 464.3072, 611.03156, 464.36102);
	    ((GeneralPath) shape).curveTo(612.1785, 464.49237, 611.43195, 465.20056, 612.29156, 465.20056);
	    ((GeneralPath) shape).curveTo(613.339, 466.24725, 613.98956, 466.0178, 613.1317, 467.0893);
	    ((GeneralPath) shape).curveTo(611.30615, 469.3714, 611.1311, 473.64246, 608.72125, 475.06485);
	    ((GeneralPath) shape).curveTo(607.62067, 475.7146, 607.2603, 477.45673, 608.3014, 478.63266);
	    ((GeneralPath) shape).curveTo(609.0795, 479.5122, 610.9458, 480.63434, 609.77155, 482.20047);
	    ((GeneralPath) shape).curveTo(608.50476, 481.77838, 606.7706, 481.38678, 606.6211, 483.04);
	    ((GeneralPath) shape).curveTo(606.5906, 483.37674, 606.0194, 483.47626, 605.78094, 483.6696);
	    ((GeneralPath) shape).curveTo(605.759, 483.68768, 604.6705, 485.74136, 604.52094, 484.08917);
	    ((GeneralPath) shape).curveTo(604.42316, 483.00955, 603.8608, 484.149, 603.4707, 484.29916);
	    ((GeneralPath) shape).curveTo(603.11566, 484.43512, 602.8527, 484.24005, 602.63055, 484.50912);
	    ((GeneralPath) shape).curveTo(602.4785, 484.6929, 601.8971, 485.44888, 601.5806, 485.5583);
	    ((GeneralPath) shape).curveTo(600.8227, 485.8203, 599.0978, 485.5583, 598.2204, 485.5583);
	    ((GeneralPath) shape).curveTo(598.2204, 484.8193, 598.39294, 483.97726, 597.8002, 483.66956);
	    ((GeneralPath) shape).curveTo(597.0192, 483.26447, 595.7553, 483.78217, 594.85986, 483.4596);
	    ((GeneralPath) shape).curveTo(594.7015, 483.4026, 594.9435, 483.15152, 595.07, 483.04);
	    ((GeneralPath) shape).curveTo(595.4917, 482.6668, 595.7865, 483.038, 596.11993, 482.62006);
	    ((GeneralPath) shape).curveTo(596.52356, 482.11655, 597.26764, 482.14133, 597.5901, 481.57086);
	    ((GeneralPath) shape).curveTo(597.63116, 481.49756, 598.2024, 480.75824, 598.0103, 480.52133);
	    ((GeneralPath) shape).curveTo(597.8094, 480.27454, 597.4575, 480.2671, 597.3803, 479.89175);
	    ((GeneralPath) shape).curveTo(597.3123, 479.56174, 597.2673, 479.15668, 597.17017, 478.84222);
	    ((GeneralPath) shape).curveTo(596.98486, 478.24274, 596.8764, 477.0845, 596.54016, 476.9535);
	    ((GeneralPath) shape).curveTo(596.12665, 476.79166, 594.7554, 476.84656, 594.6498, 477.16345);
	    ((GeneralPath) shape).curveTo(592.21014, 477.00128, 593.7629, 477.16345, 589.8194, 477.16345);
	    ((GeneralPath) shape).curveTo(588.31415, 477.16345, 588.66, 477.67334, 588.1391, 477.79303);
	    ((GeneralPath) shape).curveTo(587.9056, 477.84653, 584.6949, 481.61014, 584.989, 479.0522);
	    ((GeneralPath) shape).curveTo(585.0489, 478.5313, 584.2729, 478.03702, 584.359, 477.37308);
	    ((GeneralPath) shape).curveTo(584.4051, 477.0151, 585.33984, 477.2325, 585.619, 476.9535);
	    ((GeneralPath) shape).curveTo(586.1548, 476.41776, 587.0892, 475.9454, 587.0892, 474.8548);
	    ((GeneralPath) shape).curveTo(587.0892, 473.0872, 583.26263, 474.13034, 583.72864, 473.38568);
	    ((GeneralPath) shape).curveTo(584.2052, 472.62366, 581.84393, 473.76242, 581.83856, 473.80527);
	    ((GeneralPath) shape).curveTo(581.71313, 474.77478, 582.5029, 473.78647, 581.6284, 475.0648);
	    ((GeneralPath) shape).curveTo(581.21277, 475.67276, 580.78406, 479.26218, 580.15826, 479.26218);
	    ((GeneralPath) shape).curveTo(579.1275, 479.26218, 578.2218, 479.3854, 577.21796, 479.4718);
	    ((GeneralPath) shape).curveTo(576.61206, 479.5242, 576.2857, 479.84573, 575.95795, 480.52133);
	    ((GeneralPath) shape).curveTo(575.70886, 481.03583, 574.8786, 480.50894, 574.69794, 480.7313);
	    ((GeneralPath) shape).curveTo(574.4255, 481.067, 574.06793, 483.11078, 574.06793, 481.36087);
	    ((GeneralPath) shape).curveTo(574.06793, 480.30496, 572.0266, 477.6022, 571.3374, 477.37308);
	    ((GeneralPath) shape).curveTo(569.45905, 476.2786, 571.2254, 476.1373, 571.3374, 475.27438);
	    ((GeneralPath) shape).curveTo(571.5833, 473.38248, 571.9391, 473.95258, 570.4976, 473.38565);
	    ((GeneralPath) shape).curveTo(570.0884, 473.22452, 569.45905, 469.61954, 569.02747, 469.18826);
	    ((GeneralPath) shape).curveTo(568.6983, 468.8593, 567.17145, 467.30804, 567.1371, 467.2992);
	    ((GeneralPath) shape).curveTo(565.97736, 466.99255, 563.245, 468.44717, 562.7266, 467.92877);
	    ((GeneralPath) shape).curveTo(562.4297, 467.63205, 562.6122, 466.71353, 561.8865, 466.66962);
	    ((GeneralPath) shape).curveTo(560.11334, 466.5616, 560.169, 465.29303, 558.7708, 464.26147);
	    ((GeneralPath) shape).lineTo(559.3392, 455.57666);
	    ((GeneralPath) shape).curveTo(560.0663, 455.912, 561.9581, 456.33548, 562.53534, 455.57666);
	    ((GeneralPath) shape).curveTo(563.3248, 454.53812, 561.9163, 455.0643, 563.2458, 454.6893);
	    ((GeneralPath) shape).curveTo(564.1451, 454.43576, 565.6156, 454.3405, 565.7318, 453.44714);
	    ((GeneralPath) shape).curveTo(565.7949, 452.95956, 567.31995, 453.68616, 567.68494, 452.73755);
	    ((GeneralPath) shape).curveTo(568.3231, 451.08075, 569.4609, 452.02264, 569.4609, 449.8981);
	    ((GeneralPath) shape).curveTo(569.4609, 449.01498, 567.91736, 442.857, 570.52637, 444.04248);
	    ((GeneralPath) shape).curveTo(571.39874, 444.43872, 572.83453, 443.71637, 572.83453, 442.62292);
	    ((GeneralPath) shape).curveTo(572.83453, 441.11133, 573.8168, 441.89172, 574.0776, 440.84824);
	    ((GeneralPath) shape).lineTo(574.2551, 439.96124);
	    ((GeneralPath) shape).curveTo(574.3093, 439.6907, 572.3477, 439.16205, 572.302, 438.7191);
	    ((GeneralPath) shape).curveTo(572.2279, 437.99673, 572.4795, 437.59238, 572.4795, 436.94437);
	    ((GeneralPath) shape).curveTo(572.4795, 435.19092, 572.3239, 435.61227, 574.0776, 435.7022);
	    ((GeneralPath) shape).curveTo(575.53784, 435.7773, 575.86383, 436.15015, 576.74115, 436.41217);
	    ((GeneralPath) shape).curveTo(577.4392, 436.62073, 577.9927, 436.95782, 578.3396, 436.05737);
	    ((GeneralPath) shape).curveTo(578.7244, 435.056, 580.6038, 435.31415, 581.71326, 435.17);
	    ((GeneralPath) shape).curveTo(582.3316, 435.09003, 582.85876, 433.4399, 583.2677, 433.4399);
	    ((GeneralPath) shape).lineTo(583.0107, 430.90845);
	    ((GeneralPath) shape).curveTo(583.27344, 430.4521, 584.3598, 429.07645, 585.03735, 429.4663);
	    ((GeneralPath) shape).curveTo(585.9533, 429.9939, 586.1167, 430.67908, 587.2052, 430.82037);
	    ((GeneralPath) shape).curveTo(587.40717, 430.847, 587.5177, 432.31995, 587.61163, 432.58057);
	    ((GeneralPath) shape).curveTo(587.764, 433.00262, 589.15265, 433.52847, 589.7795, 433.52847);
	    ((GeneralPath) shape).curveTo(590.9056, 433.52847, 593.08545, 434.38113, 593.98016, 433.9346);
	    ((GeneralPath) shape).curveTo(594.2966, 433.7763, 594.5985, 433.31638, 594.793, 433.1223);
	    ((GeneralPath) shape).curveTo(594.82385, 433.09113, 594.8961, 432.90527, 594.9284, 432.85144);
	    ((GeneralPath) shape).curveTo(595.0336, 432.67545, 595.31537, 432.63614, 595.4705, 432.44528);
	    ((GeneralPath) shape).curveTo(595.642, 432.23425, 595.89716, 431.843, 596.148, 431.76825);
	    ((GeneralPath) shape).curveTo(596.38293, 431.69775, 597.23193, 431.3405, 597.23193, 431.09122);
	    ((GeneralPath) shape).curveTo(597.1713, 430.3037, 597.01935, 430.1433, 596.2834, 430.1433);
	    ((GeneralPath) shape).curveTo(596.05304, 430.1433, 595.76886, 430.1393, 595.6059, 430.00803);
	    ((GeneralPath) shape).curveTo(595.3242, 429.7793, 595.2225, 429.87668, 594.793, 429.73715);
	    ((GeneralPath) shape).curveTo(594.5248, 429.64966, 594.2509, 429.1805, 594.2509, 428.92487);
	    ((GeneralPath) shape).curveTo(594.2509, 428.387, 594.11554, 427.9819, 594.11554, 427.4352);
	    ((GeneralPath) shape).lineTo(599.94745, 426.07117);
	    ((GeneralPath) shape).closePath();
	
	    g.setPaint(new Color(0x3c7a51));
	    g.fill(shape);
	    g.setPaint(Color.WHITE);
	    g.draw(shape);
	    if (this.drawSquares){ this.paintSquare(g, shape); }
	    this.detectMouse(g, shape, "Hidalgo");

	    /*
	     * 
	     * Estado de México
	     * 
	     * */
	    // _0_0_0_11
	    shape = new GeneralPath();
	    ((GeneralPath) shape).moveTo(598.19446, 485.53528);
	    ((GeneralPath) shape).curveTo(597.95374, 485.84808, 597.62103, 485.94827, 597.38965, 486.17947);
	    ((GeneralPath) shape).curveTo(597.2419, 486.32715, 597.24084, 486.63766, 596.91235, 486.65643);
	    ((GeneralPath) shape).curveTo(596.32306, 486.68933, 595.7076, 486.61295, 595.64026, 487.13306);
	    ((GeneralPath) shape).curveTo(595.563, 487.7325, 595.4014, 488.10007, 595.48114, 488.8812);
	    ((GeneralPath) shape).curveTo(595.5208, 489.26752, 596.66394, 489.58408, 596.9123, 489.67578);
	    ((GeneralPath) shape).lineTo(596.43536, 495.7148);
	    ((GeneralPath) shape).lineTo(595.7993, 495.7148);
	    ((GeneralPath) shape).curveTo(595.26886, 495.7148, 595.74304, 495.87378, 595.48114, 495.87378);
	    ((GeneralPath) shape).lineTo(595.322, 495.87378);
	    ((GeneralPath) shape).curveTo(594.55804, 495.87378, 596.46655, 496.01685, 597.23047, 496.0324);
	    ((GeneralPath) shape).curveTo(597.30066, 496.03342, 597.6624, 496.00412, 597.7074, 496.0324);
	    ((GeneralPath) shape).curveTo(597.7457, 496.05612, 598.00824, 496.58374, 598.0256, 496.66833);
	    ((GeneralPath) shape).curveTo(598.1592, 497.31845, 597.8091, 497.8581, 597.54865, 498.41647);
	    ((GeneralPath) shape).curveTo(597.2021, 498.53156, 597.43207, 499.06552, 597.54865, 499.21106);
	    ((GeneralPath) shape).curveTo(597.62805, 499.31055, 597.80164, 499.25995, 597.86646, 499.3697);
	    ((GeneralPath) shape).curveTo(597.9738, 499.5524, 597.8807, 499.79425, 597.86646, 500.0056);
	    ((GeneralPath) shape).curveTo(597.84625, 500.30093, 597.6953, 500.137, 597.3895, 500.16425);
	    ((GeneralPath) shape).curveTo(597.06885, 500.19293, 597.2304, 500.64404, 597.2304, 500.95917);
	    ((GeneralPath) shape).curveTo(597.2304, 501.38867, 597.1666, 501.54553, 597.0713, 501.91238);
	    ((GeneralPath) shape).curveTo(596.988, 502.2332, 596.86615, 501.91937, 596.9122, 502.23038);
	    ((GeneralPath) shape).curveTo(596.97485, 502.65494, 597.18677, 502.23737, 597.38947, 502.38934);
	    ((GeneralPath) shape).lineTo(598.0255, 502.86597);
	    ((GeneralPath) shape).lineTo(597.70734, 504.9321);
	    ((GeneralPath) shape).lineTo(595.64014, 507.15686);
	    ((GeneralPath) shape).lineTo(592.7774, 507.31583);
	    ((GeneralPath) shape).lineTo(590.39197, 505.09106);
	    ((GeneralPath) shape).lineTo(589.5968, 503.18393);
	    ((GeneralPath) shape).lineTo(588.3247, 503.18393);
	    ((GeneralPath) shape).lineTo(588.1656, 499.36966);
	    ((GeneralPath) shape).lineTo(589.27856, 498.9274);
	    ((GeneralPath) shape).lineTo(588.1656, 497.93948);
	    ((GeneralPath) shape).lineTo(588.3247, 494.92017);
	    ((GeneralPath) shape).lineTo(584.6669, 492.85403);
	    ((GeneralPath) shape).lineTo(584.826, 491.26486);
	    ((GeneralPath) shape).lineTo(584.18994, 489.51672);
	    ((GeneralPath) shape).lineTo(581.4863, 488.6995);
	    ((GeneralPath) shape).lineTo(582.5993, 486.3384);
	    ((GeneralPath) shape).lineTo(581.16815, 485.06686);
	    ((GeneralPath) shape).lineTo(580.418, 487.82947);
	    ((GeneralPath) shape).lineTo(580.54913, 489.3751);
	    ((GeneralPath) shape).lineTo(579.0354, 489.2926);
	    ((GeneralPath) shape).lineTo(578.7176, 491.17706);
	    ((GeneralPath) shape).lineTo(579.6945, 491.4182);
	    ((GeneralPath) shape).lineTo(576.5678, 494.6847);
	    ((GeneralPath) shape).curveTo(576.0101, 494.49878, 576.92676, 494.5937, 575.93176, 494.5257);
	    ((GeneralPath) shape).curveTo(575.89026, 494.5227, 575.469, 494.5112, 575.45447, 494.5257);
	    ((GeneralPath) shape).curveTo(575.334, 494.6461, 575.38354, 495.39108, 575.29535, 495.47928);
	    ((GeneralPath) shape).curveTo(575.23083, 495.54367, 574.46014, 495.4673, 574.3411, 495.47928);
	    ((GeneralPath) shape).curveTo(574.0098, 495.51257, 574.1824, 496.71896, 574.1824, 497.06845);
	    ((GeneralPath) shape).curveTo(574.1824, 497.4452, 574.21747, 497.63748, 574.5002, 497.86304);
	    ((GeneralPath) shape).curveTo(574.87085, 498.1587, 575.62274, 497.6389, 575.77264, 498.022);
	    ((GeneralPath) shape).curveTo(575.8693, 498.27023, 575.5756, 498.76135, 575.6135, 499.13422);
	    ((GeneralPath) shape).curveTo(575.645, 499.44547, 576.3576, 499.72165, 576.72687, 499.9288);
	    ((GeneralPath) shape).lineTo(576.55646, 506.83923);
	    ((GeneralPath) shape).curveTo(576.55646, 507.36682, 576.5165, 507.38806, 576.87427, 507.79245);
	    ((GeneralPath) shape).curveTo(576.9795, 507.9114, 577.3785, 508.56012, 577.19244, 508.74603);
	    ((GeneralPath) shape).curveTo(576.9795, 508.95883, 577.0181, 508.5573, 576.87427, 508.905);
	    ((GeneralPath) shape).curveTo(576.72687, 509.26123, 576.2382, 509.47473, 576.2382, 509.85858);
	    ((GeneralPath) shape).lineTo(576.2382, 510.01758);
	    ((GeneralPath) shape).curveTo(576.2382, 510.14505, 576.0479, 509.85858, 575.92004, 509.85858);
	    ((GeneralPath) shape).lineTo(575.4431, 509.85858);
	    ((GeneralPath) shape).lineTo(574.4889, 509.38162);
	    ((GeneralPath) shape).lineTo(571.62616, 511.76572);
	    ((GeneralPath) shape).lineTo(571.62616, 516.6922);
	    ((GeneralPath) shape).curveTo(570.50824, 516.6922, 569.18225, 515.6537, 568.2865, 515.103);
	    ((GeneralPath) shape).curveTo(567.56647, 514.6604, 567.7316, 513.5578, 567.65045, 513.51385);
	    ((GeneralPath) shape).curveTo(566.4815, 512.87115, 567.69226, 513.00854, 565.7423, 512.5603);
	    ((GeneralPath) shape).curveTo(564.8288, 512.35065, 565.3217, 514.3541, 565.42413, 514.78503);
	    ((GeneralPath) shape).curveTo(565.97797, 517.1096, 563.0387, 515.1756, 563.0387, 516.5332);
	    ((GeneralPath) shape).lineTo(563.0387, 519.0759);
	    ((GeneralPath) shape).curveTo(561.694, 519.2438, 557.2038, 519.185, 556.83636, 520.5061);
	    ((GeneralPath) shape).curveTo(556.3764, 522.16254, 555.7804, 521.6509, 554.4509, 520.6651);
	    ((GeneralPath) shape).curveTo(552.832, 519.46545, 553.45667, 520.0302, 552.86066, 520.9831);
	    ((GeneralPath) shape).curveTo(552.00885, 522.3435, 553.0112, 522.19977, 551.11127, 522.8899);
	    ((GeneralPath) shape).curveTo(549.0671, 523.63245, 550.8597, 524.94574, 550.15704, 526.06854);
	    ((GeneralPath) shape).curveTo(549.6252, 526.91907, 547.89105, 526.54443, 546.9765, 527.1807);
	    ((GeneralPath) shape).curveTo(546.2494, 527.6871, 547.61395, 529.3329, 545.70404, 528.4523);
	    ((GeneralPath) shape).curveTo(544.34973, 527.87225, 544.41815, 526.3723, 543.63684, 525.59155);
	    ((GeneralPath) shape).curveTo(542.57416, 524.52966, 542.3102, 525.04944, 541.41016, 523.5258);
	    ((GeneralPath) shape).curveTo(540.9283, 522.7089, 542.3116, 522.36017, 542.5235, 521.93665);
	    ((GeneralPath) shape).curveTo(543.3693, 520.2441, 540.13806, 520.4194, 540.13806, 519.71155);
	    ((GeneralPath) shape).curveTo(540.13806, 518.83093, 539.9077, 516.8494, 540.2972, 516.05664);
	    ((GeneralPath) shape).curveTo(540.4155, 515.81586, 541.5565, 515.9005, 541.88745, 515.4207);
	    ((GeneralPath) shape).curveTo(542.2886, 514.8404, 541.205, 514.46045, 540.7741, 514.62616);
	    ((GeneralPath) shape).curveTo(539.8131, 514.9955, 538.43195, 515.9058, 538.5478, 514.14954);
	    ((GeneralPath) shape).curveTo(538.573, 513.76605, 539.8071, 513.8043, 539.3429, 513.5139);
	    ((GeneralPath) shape).curveTo(538.25824, 512.8362, 536.01636, 514.7582, 535.8441, 511.9244);
	    ((GeneralPath) shape).curveTo(535.8037, 511.2604, 535.8885, 510.85452, 536.07355, 510.42914);
	    ((GeneralPath) shape).lineTo(542.7204, 502.5973);
	    ((GeneralPath) shape).curveTo(546.239, 501.42276, 544.6767, 498.92325, 544.6767, 496.1337);
	    ((GeneralPath) shape).curveTo(544.6767, 495.45987, 547.5185, 492.41788, 548.5893, 492.31445);
	    ((GeneralPath) shape).curveTo(550.6636, 492.11334, 549.6672, 488.5972, 549.27423, 488.69104);
	    ((GeneralPath) shape).curveTo(547.5093, 489.11133, 548.55457, 488.84647, 548.0025, 487.41772);
	    ((GeneralPath) shape).curveTo(547.5333, 486.20212, 545.46967, 486.89685, 546.53516, 484.87146);
	    ((GeneralPath) shape).curveTo(547.1542, 483.69516, 546.6238, 483.50076, 548.4918, 483.50076);
	    ((GeneralPath) shape).curveTo(550.3918, 483.50076, 550.4481, 482.58932, 550.4481, 480.8564);
	    ((GeneralPath) shape).curveTo(550.4481, 479.12137, 552.50256, 479.64542, 552.50256, 477.52655);
	    ((GeneralPath) shape).curveTo(552.2361, 476.46072, 550.4836, 476.30392, 550.35, 475.27417);
	    ((GeneralPath) shape).curveTo(550.33026, 475.12274, 550.1939, 474.2786, 550.1665, 473.6285);
	    ((GeneralPath) shape).curveTo(552.0242, 473.6694, 551.1753, 473.5809, 552.0582, 472.43436);
	    ((GeneralPath) shape).curveTo(552.3473, 472.059, 552.5075, 472.16278, 552.7687, 471.90216);
	    ((GeneralPath) shape).curveTo(553.4093, 471.2616, 553.0805, 472.44073, 554.0117, 471.7244);
	    ((GeneralPath) shape).curveTo(554.77747, 471.1359, 554.1623, 471.10263, 555.43225, 471.0148);
	    ((GeneralPath) shape).curveTo(555.91943, 470.9812, 555.7873, 469.86612, 555.7873, 469.41785);
	    ((GeneralPath) shape).curveTo(555.7873, 468.01105, 554.15027, 468.56946, 555.07684, 467.64316);
	    ((GeneralPath) shape).curveTo(555.19025, 467.52985, 555.48895, 466.14536, 555.6098, 465.8688);
	    ((GeneralPath) shape).curveTo(555.748, 465.55118, 555.00354, 464.7435, 555.6098, 464.98145);
	    ((GeneralPath) shape).curveTo(555.76184, 465.04126, 556.6753, 465.33307, 556.6753, 464.98145);
	    ((GeneralPath) shape).curveTo(556.6753, 464.78067, 555.71576, 464.09445, 556.85284, 464.09445);
	    ((GeneralPath) shape).curveTo(557.6239, 464.09445, 558.0838, 464.27185, 558.7705, 464.2616);
	    ((GeneralPath) shape).curveTo(560.16876, 465.29315, 560.1131, 466.56174, 561.88617, 466.66974);
	    ((GeneralPath) shape).curveTo(562.6119, 466.71365, 562.4294, 467.63217, 562.7263, 467.9289);
	    ((GeneralPath) shape).curveTo(563.2447, 468.4473, 565.97705, 466.99268, 567.1368, 467.29932);
	    ((GeneralPath) shape).curveTo(567.1712, 467.30832, 568.698, 468.85944, 569.02716, 469.1884);
	    ((GeneralPath) shape).curveTo(569.45874, 469.61966, 570.0881, 473.22467, 570.4973, 473.38577);
	    ((GeneralPath) shape).curveTo(571.9388, 473.95267, 571.583, 473.38278, 571.3371, 475.2745);
	    ((GeneralPath) shape).curveTo(571.2251, 476.13742, 569.45874, 476.27872, 571.3371, 477.3732);
	    ((GeneralPath) shape).curveTo(572.0263, 477.6023, 574.0676, 480.30508, 574.0676, 481.361);
	    ((GeneralPath) shape).curveTo(574.0676, 483.1109, 574.4252, 481.06708, 574.69763, 480.7314);
	    ((GeneralPath) shape).curveTo(574.87836, 480.50906, 575.70856, 481.03595, 575.95764, 480.52145);
	    ((GeneralPath) shape).curveTo(576.2854, 479.84586, 576.61176, 479.52432, 577.21765, 479.47192);
	    ((GeneralPath) shape).curveTo(578.2215, 479.38553, 579.1272, 479.2623, 580.15796, 479.2623);
	    ((GeneralPath) shape).curveTo(580.78375, 479.2623, 581.21246, 475.67288, 581.6281, 475.0649);
	    ((GeneralPath) shape).curveTo(582.5026, 473.78665, 581.7128, 474.7749, 581.83826, 473.8054);
	    ((GeneralPath) shape).curveTo(581.84326, 473.7626, 584.2049, 472.62378, 583.72833, 473.3858);
	    ((GeneralPath) shape).curveTo(583.2624, 474.13046, 587.08887, 473.0873, 587.08887, 474.85492);
	    ((GeneralPath) shape).curveTo(587.08887, 475.94553, 586.1545, 476.41788, 585.6187, 476.9536);
	    ((GeneralPath) shape).curveTo(585.3395, 477.23264, 584.4047, 477.01523, 584.3587, 477.3732);
	    ((GeneralPath) shape).curveTo(584.2726, 478.03714, 585.0486, 478.53143, 584.9887, 479.0523);
	    ((GeneralPath) shape).curveTo(584.6946, 481.61026, 587.9053, 477.84662, 588.1388, 477.79315);
	    ((GeneralPath) shape).curveTo(588.65967, 477.67346, 588.31384, 477.16357, 589.8191, 477.16357);
	    ((GeneralPath) shape).curveTo(593.7625, 477.16357, 592.20984, 477.0014, 594.6495, 477.16357);
	    ((GeneralPath) shape).curveTo(594.75507, 476.84665, 596.12634, 476.79178, 596.53986, 476.9536);
	    ((GeneralPath) shape).curveTo(596.8761, 477.08463, 596.98456, 478.24286, 597.16986, 478.84235);
	    ((GeneralPath) shape).curveTo(597.26697, 479.15677, 597.31195, 479.56186, 597.38, 479.89188);
	    ((GeneralPath) shape).curveTo(597.4573, 480.2672, 597.8091, 480.27466, 598.01, 480.52145);
	    ((GeneralPath) shape).curveTo(598.2021, 480.75833, 597.63086, 481.49768, 597.5898, 481.57098);
	    ((GeneralPath) shape).curveTo(597.26733, 482.14142, 596.5232, 482.11664, 596.1196, 482.62018);
	    ((GeneralPath) shape).curveTo(595.7862, 483.03766, 595.4914, 482.66687, 595.0697, 483.04013);
	    ((GeneralPath) shape).curveTo(594.9432, 483.15167, 594.7012, 483.4027, 594.85956, 483.45972);
	    ((GeneralPath) shape).curveTo(595.755, 483.7823, 597.0189, 483.26462, 597.79987, 483.66968);
	    ((GeneralPath) shape).curveTo(598.3927, 483.9774, 598.194, 484.7963, 598.194, 485.53528);
	    ((GeneralPath) shape).closePath();
	
	    g.setPaint(new Color(0x3c7a51));
	    g.fill(shape);
	    g.setPaint(Color.WHITE);
	    g.draw(shape);
	    if (this.drawSquares){ this.paintSquare(g, shape); }
	    this.detectMouse(g, shape, "Estado de México");

	    /*
	     * 
	     * Baja California Sur
	     * 
	     * */
	    // _0_0_0_12
	    shape = new GeneralPath();
	    ((GeneralPath) shape).moveTo(132.75485, 194.8029);
	    ((GeneralPath) shape).lineTo(132.7545, 194.8029);
	    ((GeneralPath) shape).curveTo(132.49016, 194.828, 132.22404, 194.86171, 131.95157, 194.90948);
	    ((GeneralPath) shape).curveTo(130.40063, 195.17682, 130.92044, 196.62683, 129.76389, 196.75961);
	    ((GeneralPath) shape).curveTo(129.08072, 196.83751, 127.00323, 195.4339, 126.061035, 195.24588);
	    ((GeneralPath) shape).curveTo(126.698135, 196.0564, 128.36354, 198.92453, 129.25894, 199.28217);
	    ((GeneralPath) shape).curveTo(129.40955, 199.01837, 129.53108, 198.86682, 129.59557, 198.60939);
	    ((GeneralPath) shape).curveTo(130.23053, 198.45111, 130.39105, 197.60059, 131.11, 197.60059);
	    ((GeneralPath) shape).curveTo(134.04358, 197.60059, 131.44662, 201.1631, 131.44662, 202.64603);
	    ((GeneralPath) shape).curveTo(132.32715, 202.64603, 132.20421, 202.56172, 132.96143, 202.30963);
	    ((GeneralPath) shape).curveTo(133.11166, 202.91054, 133.47061, 203.67148, 133.63467, 204.32796);
	    ((GeneralPath) shape).curveTo(133.91106, 204.25896, 133.92274, 204.20793, 134.1396, 203.99158);
	    ((GeneralPath) shape).curveTo(134.40358, 203.19983, 134.49962, 203.41653, 134.64453, 202.98242);
	    ((GeneralPath) shape).curveTo(135.64413, 202.98242, 135.68842, 203.51604, 135.99103, 204.32796);
	    ((GeneralPath) shape).curveTo(136.20009, 204.89061, 137.28117, 204.664, 137.8421, 204.664);
	    ((GeneralPath) shape).curveTo(137.8421, 205.46104, 138.02563, 206.17773, 137.00055, 206.17773);
	    ((GeneralPath) shape).lineTo(135.6544, 206.17773);
	    ((GeneralPath) shape).curveTo(134.99605, 206.17773, 134.8784, 206.43303, 134.3079, 206.51413);
	    ((GeneralPath) shape).lineTo(134.3079, 206.85052);
	    ((GeneralPath) shape).lineTo(132.45648, 206.85052);
	    ((GeneralPath) shape).curveTo(132.45648, 205.94405, 131.61493, 205.2603, 131.61493, 204.32797);
	    ((GeneralPath) shape).curveTo(131.08696, 204.1959, 130.58662, 203.3744, 130.10048, 203.31882);
	    ((GeneralPath) shape).curveTo(129.46196, 203.24591, 128.72919, 203.31882, 128.08073, 203.31882);
	    ((GeneralPath) shape).curveTo(128.00774, 202.65915, 127.575806, 202.33763, 127.575806, 201.80508);
	    ((GeneralPath) shape).lineTo(127.575806, 200.45955);
	    ((GeneralPath) shape).curveTo(126.795906, 199.92027, 127.1506, 199.95497, 126.56593, 199.95497);
	    ((GeneralPath) shape).curveTo(126.48483, 200.19965, 125.86611, 200.39828, 125.72437, 200.96413);
	    ((GeneralPath) shape).curveTo(124.41438, 201.2913, 125.02811, 203.15063, 123.200066, 203.15063);
	    ((GeneralPath) shape).curveTo(121.910614, 203.15063, 121.45989, 202.80469, 120.50707, 202.64606);
	    ((GeneralPath) shape).curveTo(120.36498, 202.07774, 119.24598, 201.97577, 118.99227, 201.4687);
	    ((GeneralPath) shape).curveTo(118.5334, 201.4687, 117.286835, 200.8749, 117.140854, 200.29135);
	    ((GeneralPath) shape).curveTo(115.948494, 200.09306, 115.589554, 198.94582, 113.438354, 198.94582);
	    ((GeneralPath) shape).curveTo(111.3729, 198.94582, 109.869446, 198.27304, 108.05274, 198.27304);
	    ((GeneralPath) shape).curveTo(107.84581, 197.65302, 105.880646, 197.48093, 105.69638, 196.92784);
	    ((GeneralPath) shape).curveTo(104.95262, 196.92784, 104.03063, 196.75964, 103.17206, 196.75964);
	    ((GeneralPath) shape).lineTo(103.17206, 197.26422);
	    ((GeneralPath) shape).curveTo(103.470055, 197.36302, 104.01327, 197.61017, 104.01327, 198.10483);
	    ((GeneralPath) shape).curveTo(104.237915, 198.17993, 104.279724, 198.32756, 104.349884, 198.6094);
	    ((GeneralPath) shape).lineTo(105.023125, 198.6094);
	    ((GeneralPath) shape).curveTo(107.77564, 199.81297, 109.23091, 200.82495, 109.23091, 203.9916);
	    ((GeneralPath) shape).curveTo(111.326485, 203.9916, 114.2799, 203.55287, 114.2799, 205.84137);
	    ((GeneralPath) shape).curveTo(114.2799, 212.99223, 122.19018, 209.78381, 122.19018, 217.78238);
	    ((GeneralPath) shape).curveTo(122.19018, 221.55804, 122.987434, 222.3236, 126.902534, 222.3236);
	    ((GeneralPath) shape).curveTo(129.75851, 222.3236, 128.01198, 224.45097, 129.76384, 224.67795);
	    ((GeneralPath) shape).curveTo(130.45834, 224.76825, 132.28815, 222.71346, 132.28815, 224.84613);
	    ((GeneralPath) shape).curveTo(132.28815, 227.46747, 134.81282, 226.06102, 134.81282, 228.71458);
	    ((GeneralPath) shape).curveTo(134.81282, 230.96094, 139.53935, 229.05096, 140.53505, 229.05096);
	    ((GeneralPath) shape).curveTo(142.33296, 229.84944, 139.89476, 233.42365, 142.21815, 233.42365);
	    ((GeneralPath) shape).curveTo(142.5608, 234.45085, 143.90128, 233.97708, 144.06923, 235.44196);
	    ((GeneralPath) shape).curveTo(144.11172, 235.81128, 145.83243, 237.87917, 146.08897, 237.96451);
	    ((GeneralPath) shape).curveTo(146.08897, 238.57921, 146.4256, 238.6125, 146.4256, 239.14186);
	    ((GeneralPath) shape).curveTo(147.1853, 239.14186, 147.51378, 239.5565, 148.27702, 239.47826);
	    ((GeneralPath) shape).curveTo(148.85991, 239.41846, 148.82695, 238.62207, 149.2869, 238.4691);
	    ((GeneralPath) shape).curveTo(149.2869, 237.90857, 149.79182, 237.2744, 149.79182, 236.61932);
	    ((GeneralPath) shape).curveTo(150.35806, 236.47768, 151.63652, 236.11475, 152.14783, 236.11475);
	    ((GeneralPath) shape).curveTo(152.23532, 235.76526, 152.48692, 235.69337, 152.82106, 235.61017);
	    ((GeneralPath) shape).curveTo(152.82106, 234.96713, 153.11375, 235.10559, 153.66261, 235.10559);
	    ((GeneralPath) shape).curveTo(153.87805, 235.96638, 153.99924, 237.5775, 153.99924, 238.4691);
	    ((GeneralPath) shape).curveTo(155.5034, 238.4691, 156.73367, 238.6373, 158.03836, 238.6373);
	    ((GeneralPath) shape).curveTo(158.03836, 237.97514, 158.20667, 237.36717, 158.20667, 236.61934);
	    ((GeneralPath) shape).lineTo(158.87991, 236.61934);
	    ((GeneralPath) shape).curveTo(158.99118, 236.95255, 159.89403, 237.45995, 160.39471, 237.45995);
	    ((GeneralPath) shape).curveTo(160.39471, 236.84596, 160.95139, 235.40303, 160.05809, 235.10559);
	    ((GeneralPath) shape).lineTo(160.05809, 232.4145);
	    ((GeneralPath) shape).curveTo(160.31783, 232.3284, 160.2264, 232.4205, 160.2264, 232.07811);
	    ((GeneralPath) shape).curveTo(160.43439, 232.009, 160.49393, 231.94957, 160.56302, 231.74171);
	    ((GeneralPath) shape).lineTo(161.23627, 231.74171);
	    ((GeneralPath) shape).curveTo(161.23627, 233.27246, 160.96165, 235.62857, 161.57289, 236.78752);
	    ((GeneralPath) shape).curveTo(162.01263, 237.6207, 162.43607, 238.21628, 161.7412, 238.97368);
	    ((GeneralPath) shape).curveTo(161.40173, 239.3444, 160.39647, 240.93533, 160.2264, 240.992);
	    ((GeneralPath) shape).curveTo(160.2264, 244.87143, 161.30466, 242.50574, 162.75107, 242.50574);
	    ((GeneralPath) shape).curveTo(165.32463, 242.50574, 163.45761, 244.95428, 164.77045, 246.03743);
	    ((GeneralPath) shape).curveTo(167.49284, 248.28448, 168.3468, 248.44737, 169.98775, 251.41927);
	    ((GeneralPath) shape).curveTo(170.2868, 251.96031, 171.59752, 252.80412, 172.1758, 253.2694);
	    ((GeneralPath) shape).curveTo(172.87915, 253.83487, 172.50427, 257.72952, 175.03708, 256.46506);
	    ((GeneralPath) shape).curveTo(181.62888, 253.17413, 181.92084, 261.08914, 183.87077, 263.81952);
	    ((GeneralPath) shape).lineTo(183.35805, 263.81952);
	    ((GeneralPath) shape).lineTo(183.35805, 263.6485);
	    ((GeneralPath) shape).lineTo(183.1869, 263.6485);
	    ((GeneralPath) shape).curveTo(182.82335, 263.6485, 183.1476, 263.30682, 182.84462, 263.13544);
	    ((GeneralPath) shape).curveTo(182.64017, 263.02036, 182.11823, 263.13644, 182.33118, 263.47748);
	    ((GeneralPath) shape).curveTo(182.41518, 263.61166, 182.58241, 263.85068, 182.84462, 263.99057);
	    ((GeneralPath) shape).curveTo(183.09444, 264.12335, 183.1869, 263.83902, 183.1869, 264.1616);
	    ((GeneralPath) shape).lineTo(183.1869, 264.50363);
	    ((GeneralPath) shape).curveTo(183.1869, 264.61694, 183.244, 264.67465, 183.35805, 264.67465);
	    ((GeneralPath) shape).lineTo(183.52919, 264.67465);
	    ((GeneralPath) shape).lineTo(183.52919, 264.84567);
	    ((GeneralPath) shape).curveTo(183.52919, 265.06805, 183.90974, 265.14346, 184.38492, 265.1877);
	    ((GeneralPath) shape).curveTo(184.29242, 264.91083, 184.1344, 264.78052, 184.04263, 264.5036);
	    ((GeneralPath) shape).lineTo(183.87149, 263.99054);
	    ((GeneralPath) shape).lineTo(183.87149, 263.82056);
	    ((GeneralPath) shape).curveTo(184.26128, 264.36584, 184.71767, 264.70578, 185.30338, 264.70578);
	    ((GeneralPath) shape).curveTo(185.30338, 268.7881, 187.67532, 270.4392, 189.17453, 273.2833);
	    ((GeneralPath) shape).curveTo(190.17023, 275.17203, 189.5108, 278.13043, 189.5108, 280.34705);
	    ((GeneralPath) shape).curveTo(189.5108, 282.6745, 190.11, 285.9888, 188.5013, 287.41083);
	    ((GeneralPath) shape).curveTo(187.78233, 288.04572, 187.14558, 291.04486, 186.81818, 291.9517);
	    ((GeneralPath) shape).curveTo(186.00781, 294.19803, 187.49142, 295.01175, 187.49142, 296.82895);
	    ((GeneralPath) shape).curveTo(187.49142, 299.36035, 185.69528, 299.4365, 186.81818, 302.54752);
	    ((GeneralPath) shape).curveTo(187.62927, 304.79388, 186.23387, 305.83173, 188.16467, 307.76117);
	    ((GeneralPath) shape).curveTo(191.65387, 303.11124, 188.02081, 308.60214, 192.2038, 308.60214);
	    ((GeneralPath) shape).curveTo(192.2038, 307.00412, 193.04535, 309.21542, 193.04535, 309.94736);
	    ((GeneralPath) shape).lineTo(192.70872, 309.94736);
	    ((GeneralPath) shape).lineTo(192.54042, 310.11554);
	    ((GeneralPath) shape).curveTo(192.54042, 312.60904, 195.0651, 311.09637, 195.0651, 314.32037);
	    ((GeneralPath) shape).curveTo(196.12456, 314.32037, 195.32837, 313.11505, 195.2334, 312.63846);
	    ((GeneralPath) shape).lineTo(195.9063, 312.63846);
	    ((GeneralPath) shape).curveTo(195.9063, 313.2985, 196.24292, 313.66037, 196.24292, 314.32037);
	    ((GeneralPath) shape).curveTo(197.04373, 314.58664, 197.32224, 316.33835, 198.93591, 316.33835);
	    ((GeneralPath) shape).curveTo(199.06064, 315.83942, 199.32993, 315.82986, 199.44084, 315.49774);
	    ((GeneralPath) shape).curveTo(200.02089, 315.49774, 200.46169, 315.66595, 200.95564, 315.66595);
	    ((GeneralPath) shape).curveTo(200.95564, 317.0639, 201.8004, 320.03864, 203.31165, 320.03864);
	    ((GeneralPath) shape).curveTo(204.16348, 323.44394, 213.07335, 327.1024, 213.07335, 327.43878);
	    ((GeneralPath) shape).curveTo(215.98674, 328.409, 222.39603, 336.8569, 225.02277, 336.8569);
	    ((GeneralPath) shape).curveTo(225.14005, 337.4447, 225.83562, 338.7421, 226.36926, 338.8752);
	    ((GeneralPath) shape).curveTo(226.36926, 343.3148, 234.11124, 346.23218, 234.11124, 346.77994);
	    ((GeneralPath) shape).curveTo(235.4758, 346.77994, 238.99191, 347.2895, 238.99191, 348.79825);
	    ((GeneralPath) shape).curveTo(240.16727, 349.18845, 241.85286, 355.28625, 241.85286, 356.19803);
	    ((GeneralPath) shape).curveTo(243.092, 356.6109, 243.53598, 357.85446, 243.53598, 359.3937);
	    ((GeneralPath) shape).curveTo(242.93927, 359.59235, 244.95299, 365.15656, 244.20921, 365.9529);
	    ((GeneralPath) shape).curveTo(243.27588, 366.9525, 243.60896, 369.41876, 244.54584, 369.6528);
	    ((GeneralPath) shape).curveTo(244.66064, 370.11172, 244.95404, 370.51538, 245.05078, 370.99835);
	    ((GeneralPath) shape).lineTo(245.3874, 370.99835);
	    ((GeneralPath) shape).curveTo(245.3874, 379.88144, 255.55519, 369.55084, 257.1685, 369.14822);
	    ((GeneralPath) shape).lineTo(257.1685, 368.81183);
	    ((GeneralPath) shape).curveTo(258.05008, 368.81183, 258.28998, 367.97122, 259.18823, 367.97122);
	    ((GeneralPath) shape).curveTo(259.3225, 367.43372, 260.10986, 367.30624, 260.36642, 366.79385);
	    ((GeneralPath) shape).curveTo(265.29492, 358.58673, 267.82846, 362.05896, 263.12744, 350.60977);
	    ((GeneralPath) shape).curveTo(262.54456, 349.1888, 259.22403, 348.9891, 258.515, 345.4344);
	    ((GeneralPath) shape).curveTo(258.06714, 343.1884, 258.09796, 342.58005, 256.15866, 341.22992);
	    ((GeneralPath) shape).curveTo(254.71365, 340.2236, 253.58475, 338.73712, 253.46603, 337.69785);
	    ((GeneralPath) shape).curveTo(253.15492, 334.98303, 250.2901, 336.08356, 248.585, 330.97046);
	    ((GeneralPath) shape).curveTo(246.14964, 328.94223, 244.24931, 329.4946, 243.70433, 325.25223);
	    ((GeneralPath) shape).curveTo(243.61504, 324.5554, 242.54457, 324.84998, 241.8529, 324.74765);
	    ((GeneralPath) shape).curveTo(238.61282, 324.26715, 239.21556, 325.15875, 239.83353, 325.58862);
	    ((GeneralPath) shape).curveTo(241.1414, 326.49792, 241.72145, 328.88486, 239.66522, 329.1207);
	    ((GeneralPath) shape).curveTo(238.99304, 329.1975, 239.16028, 329.84692, 239.16028, 330.46588);
	    ((GeneralPath) shape).curveTo(239.16028, 332.76498, 240.53973, 330.735, 241.34833, 331.13864);
	    ((GeneralPath) shape).curveTo(242.02972, 331.47858, 239.66309, 334.471, 238.99197, 334.1661);
	    ((GeneralPath) shape).curveTo(236.61507, 333.0865, 237.59447, 331.15387, 236.97224, 329.2885);
	    ((GeneralPath) shape).curveTo(230.79503, 325.686, 228.81108, 316.40207, 227.82283, 316.40207);
	    ((GeneralPath) shape).curveTo(224.66495, 316.40207, 231.53455, 309.69028, 229.47015, 305.97586);
	    ((GeneralPath) shape).curveTo(227.68465, 302.76462, 226.35233, 300.5533, 223.97896, 297.47058);
	    ((GeneralPath) shape).curveTo(219.97633, 292.2704, 223.96156, 285.11493, 217.93852, 282.10587);
	    ((GeneralPath) shape).curveTo(215.49464, 280.8846, 214.34268, 272.73483, 212.99654, 270.58234);
	    ((GeneralPath) shape).curveTo(210.5261, 266.63174, 217.55795, 262.62518, 214.09464, 263.44882);
	    ((GeneralPath) shape).curveTo(211.87895, 263.97534, 211.14122, 250.6941, 208.60344, 248.63293);
	    ((GeneralPath) shape).curveTo(207.69527, 247.89572, 206.10889, 243.60165, 205.30879, 242.32233);
	    ((GeneralPath) shape).curveTo(204.38927, 240.85179, 200.1783, 237.36824, 200.09184, 237.10939);
	    ((GeneralPath) shape).curveTo(199.03415, 236.62181, 197.89565, 235.55386, 197.89565, 237.10939);
	    ((GeneralPath) shape).curveTo(197.89565, 239.5158, 198.09691, 238.84833, 199.54297, 239.85324);
	    ((GeneralPath) shape).curveTo(201.83698, 241.44807, 196.83759, 245.10866, 201.73952, 245.615);
	    ((GeneralPath) shape).curveTo(204.95941, 245.94786, 205.07208, 249.45866, 201.73952, 249.18176);
	    ((GeneralPath) shape).curveTo(200.05109, 249.0412, 199.18544, 246.62842, 198.16989, 245.34058);
	    ((GeneralPath) shape).curveTo(197.18378, 244.08957, 195.42447, 244.53644, 195.42447, 242.32231);
	    ((GeneralPath) shape).curveTo(195.42447, 241.55215, 195.19875, 240.14359, 195.69908, 239.57881);
	    ((GeneralPath) shape).curveTo(196.59627, 238.56505, 196.322, 236.90685, 195.69908, 236.01205);
	    ((GeneralPath) shape).curveTo(194.44543, 234.21045, 194.05176, 234.91934, 194.05176, 232.17087);
	    ((GeneralPath) shape).curveTo(193.5578, 230.03145, 190.61891, 228.30348, 189.10942, 226.13467);
	    ((GeneralPath) shape).curveTo(188.08858, 224.66838, 186.74243, 214.76375, 185.26555, 214.61113);
	    ((GeneralPath) shape).curveTo(175.81671, 213.6349, 176.63666, 204.35275, 175.0471, 197.94513);
	    ((GeneralPath) shape).lineTo(132.75488, 194.80292);
	    ((GeneralPath) shape).lineTo(132.75488, 194.80292);
	    ((GeneralPath) shape).closePath();
	    ((GeneralPath) shape).moveTo(255.86879, 333.9136);
	    ((GeneralPath) shape).curveTo(255.46378, 333.9136, 251.86404, 333.4168, 252.29704, 332.55106);
	    ((GeneralPath) shape).curveTo(253.35545, 330.4336, 251.2482, 329.9205, 250.08597, 328.97543);
	    ((GeneralPath) shape).curveTo(249.59627, 328.5771, 250.08597, 324.96323, 250.08597, 324.2076);
	    ((GeneralPath) shape).curveTo(250.08597, 323.8305, 249.94281, 323.401, 250.42613, 323.35602);
	    ((GeneralPath) shape).curveTo(252.3743, 323.17365, 252.37749, 324.91116, 252.97739, 326.25107);
	    ((GeneralPath) shape).curveTo(253.23499, 326.82574, 253.78883, 326.8962, 254.16797, 328.12384);
	    ((GeneralPath) shape).curveTo(254.60168, 329.5271, 254.43655, 330.6602, 255.69872, 330.84857);
	    ((GeneralPath) shape).curveTo(256.13702, 330.91406, 256.03888, 331.3698, 256.03888, 331.87012);
	    ((GeneralPath) shape).curveTo(256.03888, 333.0085, 255.92159, 332.63354, 255.86879, 333.91357);
	    ((GeneralPath) shape).lineTo(255.86879, 333.91357);
	    ((GeneralPath) shape).closePath();
	    ((GeneralPath) shape).moveTo(239.88063, 323.52634);
	    ((GeneralPath) shape).curveTo(240.00996, 322.96582, 240.05106, 322.94458, 240.05106, 322.5048);
	    ((GeneralPath) shape).curveTo(240.05106, 322.09015, 240.51382, 322.042, 240.90147, 321.82318);
	    ((GeneralPath) shape).curveTo(241.24306, 321.6302, 241.07155, 320.9429, 241.07155, 320.461);
	    ((GeneralPath) shape).curveTo(241.07155, 319.87213, 241.28308, 319.86295, 241.41171, 319.26913);
	    ((GeneralPath) shape).curveTo(241.46451, 319.02518, 241.14313, 318.79782, 241.24164, 318.4179);
	    ((GeneralPath) shape).curveTo(241.31213, 318.14597, 242.51335, 318.0408, 241.92197, 318.2476);
	    ((GeneralPath) shape).curveTo(240.85541, 318.62045, 240.92485, 317.69733, 240.5613, 317.5663);
	    ((GeneralPath) shape).curveTo(239.91959, 317.33438, 239.97592, 317.79153, 239.88062, 317.05573);
	    ((GeneralPath) shape).curveTo(239.82181, 316.6046, 238.6468, 315.8635, 238.00969, 315.8635);
	    ((GeneralPath) shape).curveTo(236.9364, 315.8635, 237.32936, 316.60992, 237.32936, 317.5663);
	    ((GeneralPath) shape).curveTo(237.32936, 317.88287, 237.36836, 317.88608, 237.49944, 318.07727);
	    ((GeneralPath) shape).curveTo(237.71382, 318.39206, 237.70601, 319.2118, 237.66953, 319.7801);
	    ((GeneralPath) shape).curveTo(237.62413, 320.4812, 237.38074, 320.34134, 237.32936, 321.14227);
	    ((GeneralPath) shape).curveTo(237.31696, 321.3335, 237.43318, 321.61676, 237.49944, 321.65323);
	    ((GeneralPath) shape).curveTo(237.9243, 321.8894, 238.13017, 321.66022, 238.17978, 321.9935);
	    ((GeneralPath) shape).curveTo(238.33002, 323.00055, 239.15067, 323.18607, 239.88062, 323.52637);
	    ((GeneralPath) shape).lineTo(239.88062, 323.52637);
	    ((GeneralPath) shape).closePath();
	    ((GeneralPath) shape).moveTo(228.70192, 301.36804);
	    ((GeneralPath) shape).curveTo(229.1381, 302.03302, 229.5424, 302.0826, 230.12282, 302.40234);
	    ((GeneralPath) shape).curveTo(230.14232, 302.41266, 230.73936, 304.2539, 230.76878, 304.34207);
	    ((GeneralPath) shape).curveTo(231.05048, 305.19153, 232.74777, 305.71347, 231.28542, 306.54062);
	    ((GeneralPath) shape).curveTo(230.90804, 306.75378, 230.51012, 307.81888, 230.51012, 308.35107);
	    ((GeneralPath) shape).curveTo(230.51012, 308.68216, 230.62245, 310.43808, 230.76878, 310.42038);
	    ((GeneralPath) shape).curveTo(231.7985, 310.29504, 231.95334, 309.05038, 232.06, 308.22183);
	    ((GeneralPath) shape).curveTo(232.1075, 307.85535, 233.23677, 307.32562, 233.61024, 307.1872);
	    ((GeneralPath) shape).curveTo(234.89862, 306.7074, 234.51453, 305.3484, 234.51453, 303.95398);
	    ((GeneralPath) shape).curveTo(234.51453, 303.3237, 233.93341, 303.1863, 233.86856, 302.2731);
	    ((GeneralPath) shape).curveTo(233.79066, 301.1641, 234.28207, 300.64996, 232.83531, 300.46265);
	    ((GeneralPath) shape).curveTo(231.25354, 300.258, 230.98105, 299.76935, 229.86452, 298.52258);
	    ((GeneralPath) shape).curveTo(228.37912, 296.86545, 227.1152, 298.94608, 228.70193, 301.36804);
	    ((GeneralPath) shape).lineTo(228.70193, 301.36804);
	    ((GeneralPath) shape).closePath();
	    ((GeneralPath) shape).moveTo(230.12282, 295.16046);
	    ((GeneralPath) shape).curveTo(230.00766, 295.20367, 229.23236, 295.5627, 228.96024, 295.41895);
	    ((GeneralPath) shape).curveTo(228.93654, 295.40656, 228.06375, 294.54434, 227.92662, 294.38464);
	    ((GeneralPath) shape).curveTo(227.5613, 293.9576, 228.17323, 293.23138, 228.0563, 292.96225);
	    ((GeneralPath) shape).curveTo(227.91385, 292.634, 227.4146, 293.01996, 227.15202, 292.57416);
	    ((GeneralPath) shape).curveTo(227.11203, 292.50687, 226.94084, 292.3486, 227.02234, 292.05682);
	    ((GeneralPath) shape).curveTo(227.11945, 291.71088, 229.17035, 291.15176, 229.60619, 291.15176);
	    ((GeneralPath) shape).curveTo(230.02998, 291.15176, 229.70859, 292.46014, 229.8645, 292.57416);
	    ((GeneralPath) shape).curveTo(230.22026, 292.83548, 230.65894, 292.48285, 230.89777, 293.09113);
	    ((GeneralPath) shape).curveTo(231.02107, 293.40518, 230.6678, 293.9321, 230.51012, 294.12613);
	    ((GeneralPath) shape).curveTo(230.45622, 294.19272, 230.34074, 294.17993, 230.38113, 294.25537);
	    ((GeneralPath) shape).curveTo(230.55228, 294.5737, 230.23799, 294.69797, 230.12282, 295.16043);
	    ((GeneralPath) shape).lineTo(230.12282, 295.16043);
	    ((GeneralPath) shape).closePath();
	    ((GeneralPath) shape).moveTo(227.15202, 278.47852);
	    ((GeneralPath) shape).curveTo(226.97557, 279.00858, 226.67615, 279.63885, 226.24776, 279.77167);
	    ((GeneralPath) shape).curveTo(225.99228, 279.85068, 225.36049, 280.24826, 225.34348, 280.41824);
	    ((GeneralPath) shape).curveTo(225.31198, 280.7256, 225.32538, 280.82968, 225.47246, 281.06482);
	    ((GeneralPath) shape).curveTo(225.70314, 281.43448, 225.09828, 281.28543, 225.60179, 281.45255);
	    ((GeneralPath) shape).curveTo(226.17299, 281.64304, 226.76437, 281.04037, 226.76437, 281.84064);
	    ((GeneralPath) shape).curveTo(226.76437, 282.4447, 226.68677, 282.4819, 227.15201, 282.87527);
	    ((GeneralPath) shape).curveTo(227.3352, 283.03036, 227.28595, 283.3147, 227.40997, 283.3926);
	    ((GeneralPath) shape).curveTo(227.79834, 283.63516, 228.44359, 283.1543, 228.44359, 282.87527);
	    ((GeneralPath) shape).curveTo(228.44359, 282.43655, 228.0439, 281.75598, 228.31425, 281.3233);
	    ((GeneralPath) shape).curveTo(228.37805, 281.2206, 228.57327, 280.44376, 228.44359, 280.15976);
	    ((GeneralPath) shape).curveTo(228.27847, 279.79718, 227.96806, 279.56134, 227.79762, 279.25436);
	    ((GeneralPath) shape).curveTo(227.51698, 278.74802, 227.42699, 279.0125, 227.15201, 278.47855);
	    ((GeneralPath) shape).lineTo(227.15201, 278.47855);
	    ((GeneralPath) shape).closePath();
	    ((GeneralPath) shape).moveTo(221.2101, 278.09042);
	    ((GeneralPath) shape).curveTo(220.66371, 277.79617, 220.59106, 277.44385, 220.04752, 277.44385);
	    ((GeneralPath) shape).curveTo(219.49156, 277.44385, 219.19745, 277.35284, 218.88492, 277.70233);
	    ((GeneralPath) shape).curveTo(218.66026, 277.95303, 218.51428, 278.56384, 218.49763, 278.86658);
	    ((GeneralPath) shape).curveTo(218.48094, 279.15692, 218.42433, 280.13812, 218.7556, 280.15973);
	    ((GeneralPath) shape).curveTo(219.28073, 280.19302, 219.34875, 280.19724, 219.78922, 280.28897);
	    ((GeneralPath) shape).curveTo(220.41356, 280.41928, 219.64713, 281.16498, 220.69348, 281.32327);
	    ((GeneralPath) shape).curveTo(221.30507, 281.41608, 221.55807, 281.4196, 221.59776, 280.8063);
	    ((GeneralPath) shape).curveTo(221.62967, 280.3049, 221.92339, 279.85626, 221.85573, 279.12473);
	    ((GeneralPath) shape).curveTo(221.81323, 278.66653, 221.51556, 279.03232, 221.3391, 278.737);
	    ((GeneralPath) shape).curveTo(221.15874, 278.43497, 221.13712, 278.6003, 221.21011, 278.09042);
	    ((GeneralPath) shape).lineTo(221.21011, 278.09042);
	    ((GeneralPath) shape).closePath();
	    ((GeneralPath) shape).moveTo(216.55974, 275.50415);
	    ((GeneralPath) shape).curveTo(216.17989, 273.8534, 217.23334, 274.51553, 218.6266, 274.21066);
	    ((GeneralPath) shape).curveTo(219.40756, 274.03964, 218.80554, 272.1718, 219.14322, 271.49515);
	    ((GeneralPath) shape).curveTo(219.33209, 271.1159, 219.59961, 271.2558, 219.78918, 270.9778);
	    ((GeneralPath) shape).curveTo(220.42415, 270.04764, 220.787, 268.67975, 220.0475, 267.61572);
	    ((GeneralPath) shape).curveTo(219.72292, 267.14832, 220.20766, 267.01483, 219.40154, 266.9688);
	    ((GeneralPath) shape).curveTo(217.54904, 266.86295, 217.75067, 266.49078, 217.59334, 268.3919);
	    ((GeneralPath) shape).curveTo(217.51573, 269.3306, 216.49985, 269.88226, 216.43076, 270.71936);
	    ((GeneralPath) shape).curveTo(216.36055, 271.57306, 216.26352, 272.1283, 216.17244, 272.7883);
	    ((GeneralPath) shape).curveTo(216.15334, 272.9257, 215.84042, 273.3297, 215.78479, 273.43524);
	    ((GeneralPath) shape).curveTo(215.49316, 273.98904, 215.27914, 277.1755, 216.55972, 275.50418);
	    ((GeneralPath) shape).lineTo(216.55972, 275.50418);
	    ((GeneralPath) shape).closePath();
	    ((GeneralPath) shape).moveTo(202.80463, 322.28912);
	    ((GeneralPath) shape).curveTo(202.77133, 321.8851, 202.72772, 321.40353, 202.2554, 321.25766);
	    ((GeneralPath) shape).curveTo(201.85854, 321.1355, 201.62361, 321.05157, 201.22498, 321.05157);
	    ((GeneralPath) shape).lineTo(199.64569, 321.05157);
	    ((GeneralPath) shape).curveTo(198.9331, 321.05157, 199.26195, 321.41806, 199.43947, 321.73886);
	    ((GeneralPath) shape).curveTo(199.68503, 322.1815, 199.32855, 321.89963, 199.78282, 322.0827);
	    ((GeneralPath) shape).curveTo(199.89232, 322.12662, 200.67505, 322.48636, 200.67575, 322.4952);
	    ((GeneralPath) shape).curveTo(200.71796, 322.96933, 201.692, 322.9601, 202.18666, 322.97678);
	    ((GeneralPath) shape).curveTo(203.09872, 323.00726, 202.94211, 323.0908, 202.80463, 322.28912);
	    ((GeneralPath) shape).closePath();
	    ((GeneralPath) shape).moveTo(196.41765, 316.51355);
	    ((GeneralPath) shape).curveTo(196.41765, 316.01675, 196.57533, 315.32132, 196.14304, 315.00052);
	    ((GeneralPath) shape).curveTo(196.06973, 314.946, 196.01973, 314.96902, 195.93681, 314.93182);
	    ((GeneralPath) shape).curveTo(195.5304, 314.74664, 195.61296, 315.70056, 195.59346, 315.8946);
	    ((GeneralPath) shape).curveTo(195.58946, 315.93988, 195.56017, 315.935, 195.52477, 315.9633);
	    ((GeneralPath) shape).curveTo(195.39755, 316.0649, 195.52676, 316.0883, 195.38727, 316.10068);
	    ((GeneralPath) shape).curveTo(195.09601, 316.12646, 195.48618, 316.30713, 195.1814, 316.30713);
	    ((GeneralPath) shape).lineTo(195.1127, 316.30713);
	    ((GeneralPath) shape).curveTo(194.8062, 316.30713, 195.1588, 317.26956, 195.5248, 317.26956);
	    ((GeneralPath) shape).curveTo(195.82315, 317.26956, 195.90642, 317.4342, 196.07402, 317.20087);
	    ((GeneralPath) shape).curveTo(196.2473, 316.959, 196.21152, 316.80038, 196.41772, 316.51358);
	    ((GeneralPath) shape).lineTo(196.41772, 316.51358);
	    ((GeneralPath) shape).closePath();
	    ((GeneralPath) shape).moveTo(186.0068, 295.69653);
	    ((GeneralPath) shape).curveTo(186.0068, 298.86282, 182.21394, 310.07547, 187.18391, 310.53967);
	    ((GeneralPath) shape).curveTo(187.97162, 310.61298, 187.00284, 310.6916, 187.00284, 311.8066);
	    ((GeneralPath) shape).curveTo(187.00284, 315.78305, 191.53024, 313.7442, 192.07486, 315.69843);
	    ((GeneralPath) shape).curveTo(192.6854, 317.89133, 198.324, 318.13104, 198.324, 323.1198);
	    ((GeneralPath) shape).curveTo(197.77089, 323.1198, 195.83902, 322.60672, 196.05977, 322.0338);
	    ((GeneralPath) shape).curveTo(196.38506, 321.18823, 195.88083, 321.08875, 195.15408, 320.85718);
	    ((GeneralPath) shape).curveTo(194.12827, 320.53, 194.16582, 319.08884, 193.43341, 318.50424);
	    ((GeneralPath) shape).curveTo(192.98198, 318.14343, 191.45761, 317.4664, 190.80669, 317.23694);
	    ((GeneralPath) shape).curveTo(189.7132, 316.85098, 189.00346, 316.87222, 187.99925, 316.06064);
	    ((GeneralPath) shape).curveTo(187.59424, 315.7331, 185.39485, 314.04514, 185.19147, 313.43576);
	    ((GeneralPath) shape).curveTo(184.9778, 313.36496, 184.3538, 313.2325, 184.19542, 313.07388);
	    ((GeneralPath) shape).curveTo(183.93214, 312.8108, 184.88461, 312.53354, 184.82933, 312.0782);
	    ((GeneralPath) shape).curveTo(184.79073, 311.76303, 184.458, 311.70746, 184.3765, 311.35406);
	    ((GeneralPath) shape).curveTo(184.2369, 310.75034, 184.09976, 310.27762, 183.92365, 309.63458);
	    ((GeneralPath) shape).curveTo(183.716, 308.87543, 183.15367, 308.6162, 183.10832, 307.91476);
	    ((GeneralPath) shape).curveTo(183.06902, 307.30362, 183.33864, 307.0667, 182.56511, 307.28128);
	    ((GeneralPath) shape).curveTo(182.3263, 307.34747, 182.1881, 307.42044, 181.93083, 307.3719);
	    ((GeneralPath) shape).curveTo(181.56764, 307.3032, 181.55417, 307.061, 180.84407, 306.91934);
	    ((GeneralPath) shape).curveTo(179.72542, 306.31705, 180.74628, 305.69315, 181.29692, 305.10922);
	    ((GeneralPath) shape).curveTo(182.54172, 303.78918, 182.50629, 301.0634, 183.28973, 299.31665);
	    ((GeneralPath) shape).curveTo(183.7454, 298.30112, 184.61177, 295.95456, 186.00682, 295.69644);
	    ((GeneralPath) shape).lineTo(186.00682, 295.69644);
	    ((GeneralPath) shape).closePath();
	
	    g.setPaint(new Color(0x3c7a51));
	    g.fill(shape);
	    g.setPaint(Color.WHITE);
	    g.draw(shape);
	    if (this.drawSquares){ this.paintSquare(g, shape); }
	    this.detectMouse(g, shape, "Baja California Sur");
	    /*
	     * 
	     * 
	     * Baja California
	     * 
	     * */
	    // _0_0_0_13
	    shape = new GeneralPath();
	    ((GeneralPath) shape).moveTo(171.10043, 171.47646);
	    ((GeneralPath) shape).curveTo(170.7755, 171.55116, 170.4442, 171.76114, 170.12352, 171.67155);
	    ((GeneralPath) shape).curveTo(169.99844, 171.63686, 169.99667, 171.58626, 169.92793, 171.47646);
	    ((GeneralPath) shape).curveTo(169.85953, 171.36633, 170.02003, 171.1776, 169.92793, 171.08589);
	    ((GeneralPath) shape).curveTo(169.83614, 170.99379, 169.6473, 171.15419, 169.5371, 171.08589);
	    ((GeneralPath) shape).curveTo(169.42726, 171.0172, 169.34186, 171.02039, 169.34186, 170.89044);
	    ((GeneralPath) shape).lineTo(169.34186, 170.69533);
	    ((GeneralPath) shape).lineTo(169.14662, 170.49986);
	    ((GeneralPath) shape).lineTo(168.95102, 170.49986);
	    ((GeneralPath) shape).lineTo(168.95102, 170.30476);
	    ((GeneralPath) shape).curveTo(168.95102, 170.0569, 168.61546, 170.39786, 168.5602, 169.9142);
	    ((GeneralPath) shape).curveTo(168.5223, 169.58171, 168.48509, 169.15361, 168.75578, 168.93797);
	    ((GeneralPath) shape).curveTo(168.97441, 168.76305, 169.1941, 168.58281, 169.53711, 168.93797);
	    ((GeneralPath) shape).curveTo(169.66219, 169.0665, 169.91342, 169.4082, 169.92795, 169.52364);
	    ((GeneralPath) shape).curveTo(169.94244, 169.63411, 169.90524, 170.49986, 169.92795, 170.49986);
	    ((GeneralPath) shape).lineTo(170.51437, 170.49986);
	    ((GeneralPath) shape).curveTo(170.64441, 170.49986, 170.8315, 170.39293, 170.90521, 170.49986);
	    ((GeneralPath) shape).curveTo(170.9768, 170.60503, 170.90521, 171.70023, 171.10045, 171.47646);
	    ((GeneralPath) shape).lineTo(171.10045, 171.47646);
	    ((GeneralPath) shape).closePath();
	    ((GeneralPath) shape).moveTo(183.4109, 177.52963);
	    ((GeneralPath) shape).lineTo(183.21532, 178.50586);
	    ((GeneralPath) shape).lineTo(180.87065, 178.50586);
	    ((GeneralPath) shape).curveTo(180.31859, 178.50586, 180.19386, 178.35042, 180.08897, 178.70097);
	    ((GeneralPath) shape).curveTo(180.02237, 178.92511, 179.90967, 179.07559, 179.69814, 178.70097);
	    ((GeneralPath) shape).curveTo(179.54187, 178.42479, 179.69113, 178.54128, 179.5029, 178.31041);
	    ((GeneralPath) shape).curveTo(179.4668, 178.26611, 179.3073, 177.82707, 179.3073, 177.72475);
	    ((GeneralPath) shape).curveTo(179.3073, 177.09163, 179.99861, 177.51442, 180.28421, 176.94362);
	    ((GeneralPath) shape).curveTo(180.52977, 176.45285, 180.19241, 175.64622, 180.4798, 175.18626);
	    ((GeneralPath) shape).curveTo(180.505, 175.14586, 181.38585, 174.6098, 181.45671, 174.6006);
	    ((GeneralPath) shape).curveTo(181.68419, 174.5712, 182.01869, 174.6006, 182.23839, 174.6006);
	    ((GeneralPath) shape).curveTo(182.36807, 174.6006, 182.51938, 174.5319, 182.62923, 174.6006);
	    ((GeneralPath) shape).curveTo(182.71742, 174.6555, 182.98888, 174.86298, 183.2153, 174.99117);
	    ((GeneralPath) shape).curveTo(183.74751, 175.29109, 183.0927, 174.74898, 183.99698, 175.18628);
	    ((GeneralPath) shape).curveTo(184.12135, 175.24648, 184.19221, 176.09982, 184.19221, 176.1625);
	    ((GeneralPath) shape).curveTo(184.19221, 176.63345, 183.8595, 176.19931, 183.60614, 176.35797);
	    ((GeneralPath) shape).curveTo(183.35846, 176.5127, 183.4109, 177.1051, 183.4109, 177.52965);
	    ((GeneralPath) shape).lineTo(183.4109, 177.52965);
	    ((GeneralPath) shape).closePath();
	    ((GeneralPath) shape).moveTo(176.96263, 180.26323);
	    ((GeneralPath) shape).lineTo(176.37619, 181.63002);
	    ((GeneralPath) shape).curveTo(174.41351, 181.63002, 174.46524, 181.62402, 173.44545, 179.87267);
	    ((GeneralPath) shape).curveTo(173.06702, 179.22327, 173.10316, 179.02107, 173.05461, 178.31041);
	    ((GeneralPath) shape).curveTo(173.0496, 178.24352, 172.14183, 177.54877, 172.07735, 177.52963);
	    ((GeneralPath) shape).curveTo(171.56569, 177.37703, 170.99272, 176.9291, 170.9052, 176.16249);
	    ((GeneralPath) shape).curveTo(170.8662, 175.82397, 170.27623, 174.64345, 170.51436, 174.40514);
	    ((GeneralPath) shape).curveTo(170.90732, 174.01245, 172.48839, 174.94832, 173.24986, 174.99115);
	    ((GeneralPath) shape).curveTo(174.53188, 175.06305, 173.38593, 176.0297, 174.22678, 176.35796);
	    ((GeneralPath) shape).curveTo(174.56943, 176.49179, 174.93687, 176.36795, 175.20404, 176.55305);
	    ((GeneralPath) shape).curveTo(175.38617, 176.68018, 175.24234, 176.98221, 175.39928, 177.13907);
	    ((GeneralPath) shape).curveTo(175.89713, 177.63622, 176.27484, 177.13007, 176.37619, 178.1153);
	    ((GeneralPath) shape).curveTo(176.4527, 178.85782, 176.70078, 178.70166, 177.35345, 178.89641);
	    ((GeneralPath) shape).curveTo(177.47748, 178.93321, 177.17416, 178.9626, 177.15787, 179.09152);
	    ((GeneralPath) shape).curveTo(177.09227, 179.59645, 177.28224, 179.83688, 176.96263, 180.26321);
	    ((GeneralPath) shape).lineTo(176.96263, 180.26321);
	    ((GeneralPath) shape).closePath();
	    ((GeneralPath) shape).moveTo(166.41074, 163.66556);
	    ((GeneralPath) shape).lineTo(166.60634, 165.03271);
	    ((GeneralPath) shape).curveTo(165.67159, 164.97041, 164.58731, 164.83583, 163.67523, 164.64215);
	    ((GeneralPath) shape).curveTo(162.73906, 164.4428, 163.09447, 163.15886, 162.89355, 162.49423);
	    ((GeneralPath) shape).curveTo(162.80005, 162.18546, 162.40916, 161.48578, 162.30748, 161.32254);
	    ((GeneralPath) shape).curveTo(162.16113, 161.0892, 162.01302, 160.23866, 161.91664, 159.95575);
	    ((GeneralPath) shape).curveTo(161.48647, 158.69766, 161.07579, 159.2936, 160.15805, 158.1984);
	    ((GeneralPath) shape).curveTo(159.81505, 157.78836, 159.5943, 156.79619, 159.18079, 156.24557);
	    ((GeneralPath) shape).curveTo(158.57274, 155.6376, 158.08871, 155.1086, 157.6178, 154.48822);
	    ((GeneralPath) shape).curveTo(156.62776, 153.1834, 156.18379, 151.7734, 154.88194, 150.38785);
	    ((GeneralPath) shape).curveTo(154.31854, 149.78731, 154.79474, 147.34973, 154.88194, 146.67767);
	    ((GeneralPath) shape).curveTo(155.06302, 145.2868, 155.34967, 145.34807, 156.83614, 145.70145);
	    ((GeneralPath) shape).curveTo(156.91234, 145.71954, 158.1851, 145.64485, 158.20389, 145.70145);
	    ((GeneralPath) shape).lineTo(158.39948, 146.28711);
	    ((GeneralPath) shape).curveTo(158.84595, 147.62556, 159.88736, 148.73457, 160.15807, 149.6067);
	    ((GeneralPath) shape).curveTo(160.40149, 150.39244, 161.2147, 150.32373, 161.33023, 151.55916);
	    ((GeneralPath) shape).curveTo(161.40674, 152.37852, 161.33023, 153.26836, 161.33023, 154.09764);
	    ((GeneralPath) shape).curveTo(162.04175, 154.15674, 163.18768, 154.77997, 163.67525, 154.2931);
	    ((GeneralPath) shape).curveTo(163.78368, 154.18475, 164.2461, 153.51198, 164.45692, 153.51198);
	    ((GeneralPath) shape).curveTo(164.78575, 153.51198, 164.53522, 153.06335, 164.84776, 153.70708);
	    ((GeneralPath) shape).curveTo(165.36794, 154.78069, 164.96434, 155.94705, 165.043, 157.61235);
	    ((GeneralPath) shape).curveTo(165.0993, 158.80351, 165.53021, 158.25006, 165.043, 159.3697);
	    ((GeneralPath) shape).curveTo(164.48314, 160.65576, 165.29424, 163.66553, 166.41075, 163.66553);
	    ((GeneralPath) shape).lineTo(166.41075, 163.66553);
	    ((GeneralPath) shape).closePath();
	    ((GeneralPath) shape).moveTo(17.164604, 156.48494);
	    ((GeneralPath) shape).curveTo(17.3889, 155.64433, 17.845646, 155.18047, 18.142937, 154.40749);
	    ((GeneralPath) shape).curveTo(18.289633, 154.02577, 18.217707, 153.77225, 18.387432, 153.30733);
	    ((GeneralPath) shape).curveTo(18.65921, 152.56195, 19.270092, 153.0485, 19.366117, 152.20752);
	    ((GeneralPath) shape).curveTo(19.485884, 151.15906, 19.488365, 150.10245, 19.488365, 149.0299);
	    ((GeneralPath) shape).curveTo(19.488365, 147.94745, 17.380398, 147.75447, 17.653595, 147.31857);
	    ((GeneralPath) shape).curveTo(18.206366, 146.43584, 17.179487, 143.70224, 15.69693, 144.62996);
	    ((GeneralPath) shape).curveTo(15.189516, 144.94687, 15.284833, 145.68657, 14.963093, 146.21877);
	    ((GeneralPath) shape).curveTo(14.443985, 147.07744, 13.70625, 147.33946, 13.37317, 148.41873);
	    ((GeneralPath) shape).curveTo(13.110959, 149.26678, 13.576561, 150.29259, 14.47375, 150.00754);
	    ((GeneralPath) shape).curveTo(15.363142, 149.72462, 15.114042, 153.825, 15.329834, 154.04063);
	    ((GeneralPath) shape).curveTo(15.981111, 154.69145, 15.559092, 154.38374, 15.941425, 155.26295);
	    ((GeneralPath) shape).curveTo(16.05694, 155.52782, 16.633097, 156.5529, 17.164606, 156.48492);
	    ((GeneralPath) shape).lineTo(17.164606, 156.48492);
	    ((GeneralPath) shape).closePath();
	    ((GeneralPath) shape).moveTo(105.131584, 192.68826);
	    ((GeneralPath) shape).curveTo(104.133415, 192.68826, 103.0587, 193.13867, 103.0587, 192.3225);
	    ((GeneralPath) shape).lineTo(103.0587, 192.20068);
	    ((GeneralPath) shape).curveTo(103.0587, 192.06578, 102.60762, 191.95883, 102.57077, 191.83527);
	    ((GeneralPath) shape).curveTo(102.54137, 191.73787, 102.153, 190.91037, 101.96095, 190.73828);
	    ((GeneralPath) shape).curveTo(101.64169, 190.45253, 101.457436, 190.53964, 101.10735, 190.49467);
	    ((GeneralPath) shape).curveTo(100.69312, 190.44118, 101.36389, 190.27939, 100.86356, 190.00708);
	    ((GeneralPath) shape).curveTo(100.52872, 189.82544, 99.80196, 189.88528, 99.40014, 189.88528);
	    ((GeneralPath) shape).curveTo(98.89343, 189.88528, 97.368355, 189.52127, 98.30275, 189.15408);
	    ((GeneralPath) shape).curveTo(98.99938, 188.88002, 100.98793, 188.55142, 101.47338, 187.69168);
	    ((GeneralPath) shape).curveTo(102.03855, 186.69208, 102.32698, 184.64792, 102.32698, 183.42667);
	    ((GeneralPath) shape).curveTo(102.32698, 183.04388, 102.15973, 181.1272, 102.44888, 180.86765);
	    ((GeneralPath) shape).curveTo(103.29575, 180.10565, 103.91407, 178.60678, 105.131584, 180.86765);
	    ((GeneralPath) shape).curveTo(105.687195, 181.8984, 105.11138, 182.45361, 106.35123, 183.30486);
	    ((GeneralPath) shape).curveTo(107.169395, 183.86716, 106.73144, 187.27422, 106.35123, 188.05746);
	    ((GeneralPath) shape).curveTo(105.69286, 189.41504, 105.49763, 190.41855, 105.131584, 192.68826);
	    ((GeneralPath) shape).lineTo(105.131584, 192.68826);
	    ((GeneralPath) shape).closePath();
	    ((GeneralPath) shape).moveTo(93.91248, 183.30486);
	    ((GeneralPath) shape).lineTo(94.5223, 183.06088);
	    ((GeneralPath) shape).curveTo(94.46879, 183.14589, 94.07229, 184.16635, 93.66869, 183.9139);
	    ((GeneralPath) shape).curveTo(93.59995, 183.8718, 93.559555, 183.69258, 93.54645, 183.54846);
	    ((GeneralPath) shape).curveTo(93.50109, 183.0368, 93.13754, 183.39374, 92.69284, 183.30486);
	    ((GeneralPath) shape).lineTo(92.083374, 183.18304);
	    ((GeneralPath) shape).lineTo(91.35166, 182.69547);
	    ((GeneralPath) shape).curveTo(90.956924, 182.43202, 90.86374, 182.80063, 90.86374, 182.20787);
	    ((GeneralPath) shape).curveTo(90.86374, 181.48589, 91.43281, 181.3963, 92.083374, 181.47668);
	    ((GeneralPath) shape).curveTo(92.33141, 181.50749, 92.34913, 181.72774, 92.570946, 181.84245);
	    ((GeneralPath) shape).curveTo(93.031235, 182.08005, 93.34624, 181.48022, 93.66869, 181.96426);
	    ((GeneralPath) shape).curveTo(93.835236, 182.21355, 93.81362, 182.97554, 93.912476, 183.30486);
	    ((GeneralPath) shape).lineTo(93.912476, 183.30486);
	    ((GeneralPath) shape).closePath();
	    ((GeneralPath) shape).moveTo(64.25206, 36.91697);
	    ((GeneralPath) shape).lineTo(131.21063, 36.93176);
	    ((GeneralPath) shape).lineTo(131.20963, 40.04705);
	    ((GeneralPath) shape).curveTo(131.20963, 40.640152, 131.80315, 41.82742, 131.20963, 41.82742);
	    ((GeneralPath) shape).lineTo(130.76422, 41.82742);
	    ((GeneralPath) shape).curveTo(129.93224, 41.82742, 129.93365, 42.05333, 129.87341, 42.71725);
	    ((GeneralPath) shape).curveTo(129.8238, 43.27034, 129.87341, 43.92895, 129.8704, 44.451954);
	    ((GeneralPath) shape).curveTo(129.24625, 44.510155, 128.5205, 44.444553, 127.64706, 44.444553);
	    ((GeneralPath) shape).curveTo(127.46351, 44.444553, 123.26919, 47.642, 122.495316, 48.121788);
	    ((GeneralPath) shape).curveTo(121.894356, 48.494644, 121.70973, 49.058357, 121.268585, 49.83771);
	    ((GeneralPath) shape).curveTo(120.88271, 50.521107, 120.66196, 51.200962, 120.287415, 51.799023);
	    ((GeneralPath) shape).curveTo(118.96751, 53.908695, 122.69728, 54.213924, 122.495316, 55.966675);
	    ((GeneralPath) shape).curveTo(122.34118, 57.306557, 121.487564, 57.197144, 122.00455, 58.908463);
	    ((GeneralPath) shape).curveTo(122.27385, 59.79794, 122.097046, 62.670326, 122.2859, 64.691475);
	    ((GeneralPath) shape).curveTo(121.59919, 64.10758, 120.83665, 63.52333, 119.92033, 62.885612);
	    ((GeneralPath) shape).curveTo(118.903015, 62.17814, 119.92033, 62.135647, 119.92033, 64.25736);
	    ((GeneralPath) shape).curveTo(119.92033, 65.24634, 121.16016, 65.67691, 121.56765, 66.17795);
	    ((GeneralPath) shape).curveTo(122.07294, 66.79973, 121.12827, 69.114075, 122.11653, 69.744705);
	    ((GeneralPath) shape).curveTo(123.32624, 70.516975, 125.68579, 68.514595, 125.68579, 70.842384);
	    ((GeneralPath) shape).curveTo(125.68579, 71.78993, 125.136925, 75.46292, 125.136925, 73.03739);
	    ((GeneralPath) shape).curveTo(125.136925, 71.70743, 127.40009, 73.291626, 128.1474, 73.581985);
	    ((GeneralPath) shape).lineTo(128.04607, 73.40105);
	    ((GeneralPath) shape).curveTo(127.11664, 73.82879, 126.55607, 73.731415, 127.33349, 72.488556);
	    ((GeneralPath) shape).curveTo(127.53228, 72.170586, 127.61271, 71.86536, 127.60704, 71.583496);
	    ((GeneralPath) shape).curveTo(127.47416, 71.21135, 127.29912, 70.845924, 127.089714, 70.49042);
	    ((GeneralPath) shape).curveTo(126.024216, 69.474174, 123.814545, 69.596695, 125.41155, 72.488556);
	    ((GeneralPath) shape).curveTo(125.82826, 73.243835, 126.99262, 73.546936, 128.1793, 73.63864);
	    ((GeneralPath) shape).lineTo(128.1541, 73.594025);
	    ((GeneralPath) shape).curveTo(126.84482, 77.50319, 122.940346, 77.72308, 122.940346, 84.835);
	    ((GeneralPath) shape).curveTo(122.940346, 87.954185, 121.59173, 94.73645, 124.038445, 97.1818);
	    ((GeneralPath) shape).curveTo(124.69432, 97.83687, 126.23499, 94.0265, 126.23499, 96.63296);
	    ((GeneralPath) shape).curveTo(126.23499, 108.66284, 126.78421, 111.243454, 126.78421, 122.14911);
	    ((GeneralPath) shape).curveTo(126.78421, 123.94861, 129.96902, 123.63099, 129.25539, 124.06971);
	    ((GeneralPath) shape).curveTo(123.963326, 127.32416, 129.80426, 127.80467, 129.80426, 130.38031);
	    ((GeneralPath) shape).curveTo(129.80426, 134.8015, 132.43417, 128.55463, 132.55003, 129.83147);
	    ((GeneralPath) shape).curveTo(132.74634, 131.99673, 131.74922, 132.8639, 132.00081, 135.0444);
	    ((GeneralPath) shape).curveTo(132.24178, 137.13567, 135.47795, 135.22641, 136.9428, 136.69057);
	    ((GeneralPath) shape).curveTo(138.31729, 138.06409, 139.83173, 139.43832, 141.61052, 140.53175);
	    ((GeneralPath) shape).curveTo(144.132, 142.08267, 149.91731, 151.64136, 153.14215, 154.52473);
	    ((GeneralPath) shape).curveTo(153.14215, 161.63063, 156.98604, 158.74585, 156.98604, 160.2865);
	    ((GeneralPath) shape).curveTo(156.98604, 163.21413, 152.59471, 163.03177, 155.0641, 165.49944);
	    ((GeneralPath) shape).curveTo(158.93208, 169.3647, 153.8994, 163.17659, 158.08414, 165.49944);
	    ((GeneralPath) shape).curveTo(160.27856, 166.7175, 161.10417, 172.93393, 161.10417, 170.98679);
	    ((GeneralPath) shape).curveTo(161.10417, 168.57295, 164.39917, 170.80089, 164.39917, 176.19972);
	    ((GeneralPath) shape).curveTo(164.39917, 183.1431, 171.81232, 183.1608, 171.81232, 185.80267);
	    ((GeneralPath) shape).curveTo(171.81232, 188.64142, 172.35551, 192.37848, 173.73425, 194.58235);
	    ((GeneralPath) shape).curveTo(174.3299, 195.53522, 174.73419, 196.68459, 175.04709, 197.94516);
	    ((GeneralPath) shape).lineTo(132.7545, 194.8029);
	    ((GeneralPath) shape).curveTo(133.31541, 194.7505, 133.87173, 194.7413, 134.47623, 194.7413);
	    ((GeneralPath) shape).lineTo(134.47623, 192.05022);
	    ((GeneralPath) shape).lineTo(134.64453, 191.88202);
	    ((GeneralPath) shape).lineTo(134.98116, 191.88202);
	    ((GeneralPath) shape).curveTo(135.07256, 191.51588, 135.6062, 191.37744, 135.99103, 191.37744);
	    ((GeneralPath) shape).curveTo(136.2777, 190.23055, 136.49596, 189.65195, 136.49596, 188.35031);
	    ((GeneralPath) shape).curveTo(135.6349, 188.35031, 135.33194, 188.5139, 134.81285, 188.6867);
	    ((GeneralPath) shape).curveTo(134.81285, 189.02026, 134.84476, 188.92395, 134.64453, 189.19128);
	    ((GeneralPath) shape).curveTo(134.26717, 188.9087, 134.09885, 188.28056, 133.80298, 188.18213);
	    ((GeneralPath) shape).lineTo(133.80298, 186.6684);
	    ((GeneralPath) shape).lineTo(134.1396, 186.6684);
	    ((GeneralPath) shape).curveTo(134.26645, 186.28775, 134.84296, 186.07388, 134.98116, 185.65924);
	    ((GeneralPath) shape).curveTo(135.59062, 185.65924, 135.63385, 185.11783, 136.15933, 184.98647);
	    ((GeneralPath) shape).curveTo(136.15933, 184.24428, 135.97649, 182.96849, 137.00053, 182.96849);
	    ((GeneralPath) shape).curveTo(137.2755, 182.14417, 137.80807, 183.04709, 138.17871, 181.28656);
	    ((GeneralPath) shape).curveTo(138.17871, 179.23991, 136.32764, 178.04486, 136.32764, 176.24112);
	    ((GeneralPath) shape).curveTo(136.32764, 172.80112, 134.53362, 174.19553, 132.96141, 173.21364);
	    ((GeneralPath) shape).curveTo(131.70174, 172.42648, 132.62054, 171.02322, 131.78323, 170.18651);
	    ((GeneralPath) shape).curveTo(130.53418, 168.93834, 128.58568, 170.21481, 128.58568, 166.48625);
	    ((GeneralPath) shape).curveTo(128.58568, 163.57953, 123.70465, 165.25826, 123.70465, 161.94539);
	    ((GeneralPath) shape).curveTo(123.70465, 157.06529, 116.80459, 155.36247, 116.80459, 150.17256);
	    ((GeneralPath) shape).curveTo(115.81208, 150.17256, 115.61011, 148.49063, 114.279915, 148.49063);
	    ((GeneralPath) shape).curveTo(112.95326, 148.49063, 112.21092, 148.2148, 110.91368, 147.98605);
	    ((GeneralPath) shape).curveTo(109.10619, 147.98605, 108.97686, 146.55588, 108.221054, 146.30411);
	    ((GeneralPath) shape).curveTo(108.221054, 145.97198, 108.33409, 145.72517, 108.05274, 145.63133);
	    ((GeneralPath) shape).curveTo(108.05274, 144.86826, 105.579094, 143.52414, 105.02313, 143.44518);
	    ((GeneralPath) shape).curveTo(104.92179, 143.13995, 102.785126, 141.74661, 102.33051, 141.59506);
	    ((GeneralPath) shape).curveTo(102.33051, 140.93503, 102.470474, 141.24911, 101.99388, 141.09048);
	    ((GeneralPath) shape).lineTo(101.99388, 140.41771);
	    ((GeneralPath) shape).curveTo(101.78589, 140.34871, 101.726364, 140.28918, 101.657265, 140.08133);
	    ((GeneralPath) shape).curveTo(99.7782, 140.08133, 100.59779, 136.88602, 98.96429, 136.88602);
	    ((GeneralPath) shape).curveTo(98.53731, 135.60492, 97.065025, 135.55818, 96.27166, 136.54962);
	    ((GeneralPath) shape).curveTo(92.73783, 135.84322, 95.935036, 132.30196, 95.935036, 131.336);
	    ((GeneralPath) shape).curveTo(94.11337, 130.97198, 95.9152, 128.48663, 94.75686, 127.97213);
	    ((GeneralPath) shape).curveTo(93.680725, 127.49482, 92.412544, 127.63574, 91.22232, 127.63574);
	    ((GeneralPath) shape).curveTo(91.15216, 127.35389, 91.11035, 127.20623, 90.8857, 127.131165);
	    ((GeneralPath) shape).lineTo(90.8857, 125.113205);
	    ((GeneralPath) shape).lineTo(91.558945, 125.113205);
	    ((GeneralPath) shape).curveTo(91.983795, 123.83954, 93.035126, 121.86761, 93.24206, 120.067406);
	    ((GeneralPath) shape).curveTo(93.50675, 117.761215, 91.82895, 117.74174, 92.06388, 115.69473);
	    ((GeneralPath) shape).curveTo(92.30483, 113.59957, 92.332825, 114.137085, 90.885704, 112.83545);
	    ((GeneralPath) shape).curveTo(89.933945, 112.83545, 90.38113, 112.71116, 90.38113, 111.82664);
	    ((GeneralPath) shape).curveTo(90.38113, 110.686104, 89.76138, 111.252655, 89.539566, 110.14471);
	    ((GeneralPath) shape).curveTo(89.539566, 110.975044, 90.14974, 112.667244, 88.86632, 112.667244);
	    ((GeneralPath) shape).curveTo(87.818184, 112.667244, 89.11542, 110.77959, 87.85645, 109.9765);
	    ((GeneralPath) shape).curveTo(87.06096, 109.46874, 86.84659, 108.94504, 86.84659, 108.12638);
	    ((GeneralPath) shape).curveTo(86.84659, 106.77623, 87.18463, 107.00426, 88.19308, 106.27625);
	    ((GeneralPath) shape).curveTo(90.55475, 104.57237, 87.45074, 105.021, 87.35152, 103.921906);
	    ((GeneralPath) shape).curveTo(87.22962, 102.574234, 87.22466, 102.49917, 88.19308, 101.90359);
	    ((GeneralPath) shape).curveTo(89.294014, 101.22692, 88.47336, 99.156555, 87.85645, 98.54008);
	    ((GeneralPath) shape).curveTo(86.93623, 97.62015, 85.864, 97.45373, 84.995155, 96.18537);
	    ((GeneralPath) shape).curveTo(84.45443, 95.394684, 84.7255, 94.297356, 83.81733, 93.49428);
	    ((GeneralPath) shape).curveTo(83.11574, 92.87462, 80.619415, 93.42771, 80.619415, 92.48547);
	    ((GeneralPath) shape).curveTo(80.619415, 91.86546, 80.89368, 92.3796, 81.12435, 92.149086);
	    ((GeneralPath) shape).curveTo(81.34298, 91.93061, 81.41881, 89.96541, 81.460976, 89.2898);
	    ((GeneralPath) shape).curveTo(81.465576, 89.203766, 81.62929, 89.02388, 81.62929, 88.785225);
	    ((GeneralPath) shape).curveTo(81.62929, 88.355, 81.67287, 87.863174, 81.62929, 87.43968);
	    ((GeneralPath) shape).curveTo(81.54354, 86.60403, 81.12435, 86.12672, 81.12435, 85.08533);
	    ((GeneralPath) shape).curveTo(81.12435, 83.0061, 78.59968, 82.70229, 78.59968, 80.88049);
	    ((GeneralPath) shape).curveTo(78.59968, 79.74847, 78.53519, 78.57784, 77.42185, 78.02156);
	    ((GeneralPath) shape).curveTo(77.42185, 76.94866, 74.80895, 75.90799, 74.560555, 75.16228);
	    ((GeneralPath) shape).curveTo(73.66727, 75.16228, 73.03477, 74.03733, 72.372505, 73.816734);
	    ((GeneralPath) shape).curveTo(72.372505, 71.11927, 74.39224, 71.26161, 74.39224, 70.453224);
	    ((GeneralPath) shape).curveTo(73.80262, 70.30592, 73.58435, 70.11684, 72.87744, 70.11684);
	    ((GeneralPath) shape).curveTo(72.87744, 69.532234, 73.35226, 68.467125, 72.87744, 67.93033);
	    ((GeneralPath) shape).curveTo(72.06388, 67.01111, 70.81377, 67.03696, 70.52144, 65.57597);
	    ((GeneralPath) shape).curveTo(69.720985, 65.37591, 69.00416, 64.5098, 68.67001, 64.39862);
	    ((GeneralPath) shape).lineTo(68.67001, 63.38946);
	    ((GeneralPath) shape).curveTo(69.300735, 62.91675, 70.50514, 63.50348, 71.02602, 63.894043);
	    ((GeneralPath) shape).lineTo(71.02602, 64.23043);
	    ((GeneralPath) shape).curveTo(71.35449, 64.33984, 71.034515, 64.28921, 71.36264, 64.39862);
	    ((GeneralPath) shape).lineTo(71.36264, 64.73501);
	    ((GeneralPath) shape).lineTo(72.87744, 64.73501);
	    ((GeneralPath) shape).lineTo(73.04575, 64.903206);
	    ((GeneralPath) shape).curveTo(73.123, 65.211975, 73.073395, 65.1624, 73.38238, 65.23959);
	    ((GeneralPath) shape).curveTo(73.43624, 65.45524, 73.496826, 65.528534, 73.55069, 65.74417);
	    ((GeneralPath) shape).lineTo(74.560555, 65.74417);
	    ((GeneralPath) shape).curveTo(74.774574, 65.10185, 75.2338, 65.03812, 75.2338, 64.06224);
	    ((GeneralPath) shape).curveTo(75.2338, 63.572178, 75.34861, 62.925964, 75.06549, 62.5485);
	    ((GeneralPath) shape).curveTo(73.88306, 62.5485, 72.862915, 61.76879, 71.86758, 61.371147);
	    ((GeneralPath) shape).lineTo(71.86758, 58.17583);
	    ((GeneralPath) shape).lineTo(71.36264, 58.17583);
	    ((GeneralPath) shape).curveTo(71.16244, 58.44317, 71.19433, 58.346855, 71.19433, 58.68041);
	    ((GeneralPath) shape).lineTo(71.02602, 58.848602);
	    ((GeneralPath) shape).lineTo(69.343254, 58.848602);
	    ((GeneralPath) shape).curveTo(69.343254, 57.642212, 69.511566, 56.66492, 69.511566, 55.484737);
	    ((GeneralPath) shape).curveTo(69.07573, 55.26697, 68.83832, 54.833916, 68.83832, 54.307384);
	    ((GeneralPath) shape).curveTo(67.00461, 53.941254, 67.155205, 52.2572, 67.155205, 50.77568);
	    ((GeneralPath) shape).curveTo(67.155205, 49.667374, 66.81858, 48.494625, 66.81858, 47.58001);
	    ((GeneralPath) shape).lineTo(66.48197, 47.411793);
	    ((GeneralPath) shape).curveTo(65.941605, 47.411793, 65.67656, 47.405792, 65.13548, 47.2436);
	    ((GeneralPath) shape).curveTo(64.86831, 47.444016, 64.96434, 47.411793, 64.63055, 47.411793);
	    ((GeneralPath) shape).curveTo(64.33432, 47.708168, 64.214905, 47.831745, 63.789345, 47.916374);
	    ((GeneralPath) shape).curveTo(63.411972, 47.288216, 63.60934, 46.65687, 63.957657, 46.0666);
	    ((GeneralPath) shape).curveTo(64.32581, 45.44269, 64.462234, 44.806747, 64.462234, 44.048283);
	    ((GeneralPath) shape).lineTo(64.79886, 43.88009);
	    ((GeneralPath) shape).lineTo(64.79886, 43.375507);
	    ((GeneralPath) shape).curveTo(64.36266, 43.02673, 63.677372, 42.81569, 63.45272, 42.36635);
	    ((GeneralPath) shape).lineTo(63.28441, 42.198154);
	    ((GeneralPath) shape).curveTo(62.95062, 42.198154, 63.046646, 42.230373, 62.779476, 42.02996);
	    ((GeneralPath) shape).lineTo(62.779476, 38.330063);
	    ((GeneralPath) shape).lineTo(63.1161, 37.993675);
	    ((GeneralPath) shape).lineTo(63.621033, 37.993675);
	    ((GeneralPath) shape).lineTo(63.789345, 37.657288);
	    ((GeneralPath) shape).curveTo(64.11746, 37.547874, 63.797546, 37.598507, 64.12597, 37.489094);
	    ((GeneralPath) shape).curveTo(64.17618, 37.28815, 64.21553, 37.108303, 64.25207, 36.916965);
	    ((GeneralPath) shape).closePath();
	
	    g.setPaint(new Color(0x3c7a51));
	    g.fill(shape);
	    g.setPaint(Color.WHITE);
	    g.draw(shape);
	    if (this.drawSquares){ this.paintSquare(g, shape); }
	    this.detectMouse(g, shape, "Baja California");
	    /*
	     * 
	     * Sonora
	     * 
	     * */
	    // _0_0_0_14
	    shape = new GeneralPath();
	    ((GeneralPath) shape).moveTo(191.03134, 176.7485);
	    ((GeneralPath) shape).curveTo(190.98775, 177.58734, 191.30489, 178.34085, 190.25002, 178.1153);
	    ((GeneralPath) shape).curveTo(189.27345, 177.90639, 189.35744, 177.09552, 189.27275, 176.35794);
	    ((GeneralPath) shape).curveTo(189.24615, 176.12459, 188.3883, 175.24998, 188.10059, 174.99113);
	    ((GeneralPath) shape).curveTo(187.16087, 174.14664, 187.91669, 173.68703, 185.95116, 173.42888);
	    ((GeneralPath) shape).curveTo(185.69319, 173.39488, 185.42958, 173.42888, 185.16948, 173.42888);
	    ((GeneralPath) shape).curveTo(184.18195, 173.42888, 184.97247, 171.9679, 184.19221, 171.86662);
	    ((GeneralPath) shape).curveTo(183.36766, 171.76004, 183.35916, 172.24303, 183.2153, 171.28096);
	    ((GeneralPath) shape).curveTo(183.0562, 170.21799, 182.50307, 170.80151, 183.80173, 169.91417);
	    ((GeneralPath) shape).curveTo(184.55222, 169.4011, 185.95114, 169.82597, 185.95114, 168.54738);
	    ((GeneralPath) shape).curveTo(185.21732, 167.28964, 185.54047, 167.73615, 185.16946, 166.39946);
	    ((GeneralPath) shape).curveTo(184.84029, 165.21538, 185.34026, 165.50148, 185.75554, 164.8372);
	    ((GeneralPath) shape).curveTo(186.067, 164.3397, 185.0511, 162.1362, 185.5603, 161.3225);
	    ((GeneralPath) shape).curveTo(186.17189, 160.34555, 191.2269, 159.43024, 191.2269, 161.90816);
	    ((GeneralPath) shape).curveTo(191.2269, 163.0122, 191.2081, 164.03305, 191.42213, 165.03265);
	    ((GeneralPath) shape).curveTo(191.50293, 165.40906, 192.21303, 166.2132, 192.39905, 166.39944);
	    ((GeneralPath) shape).curveTo(192.80476, 166.80452, 192.30624, 167.93088, 192.39905, 168.74246);
	    ((GeneralPath) shape).curveTo(192.48125, 169.45631, 192.59642, 170.10748, 192.00858, 170.69527);
	    ((GeneralPath) shape).curveTo(190.87114, 171.83154, 192.34131, 172.36835, 192.00858, 173.23375);
	    ((GeneralPath) shape).curveTo(191.70172, 174.03152, 191.2269, 173.15015, 191.2269, 174.20998);
	    ((GeneralPath) shape).curveTo(191.2269, 174.80803, 191.0313, 175.45178, 191.0313, 176.74846);
	    ((GeneralPath) shape).lineTo(191.0313, 176.74846);
	    ((GeneralPath) shape).closePath();
	    ((GeneralPath) shape).moveTo(129.8717, 44.47479);
	    ((GeneralPath) shape).lineTo(232.30591, 92.56265);
	    ((GeneralPath) shape).lineTo(294.9469, 96.036095);
	    ((GeneralPath) shape).lineTo(295.64697, 118.61101);
	    ((GeneralPath) shape).curveTo(297.5232, 118.61101, 299.52097, 117.95629, 300.10846, 119.65982);
	    ((GeneralPath) shape).curveTo(300.38412, 120.4583, 299.99435, 121.92494, 300.10846, 122.806984);
	    ((GeneralPath) shape).curveTo(300.19025, 123.43868, 300.8958, 123.24677, 300.8958, 124.11819);
	    ((GeneralPath) shape).curveTo(300.8958, 126.76715, 301.4206, 129.47559, 301.4206, 132.24812);
	    ((GeneralPath) shape).curveTo(301.4206, 133.20169, 298.84064, 146.93405, 300.8958, 146.93405);
	    ((GeneralPath) shape).curveTo(301.20053, 147.89966, 299.99826, 155.32034, 299.05856, 155.85077);
	    ((GeneralPath) shape).curveTo(298.22195, 156.32314, 298.6252, 157.76534, 298.27158, 158.47353);
	    ((GeneralPath) shape).curveTo(297.97855, 159.05885, 296.48288, 159.46321, 296.43433, 160.30914);
	    ((GeneralPath) shape).curveTo(296.36063, 161.60123, 297.9658, 163.71834, 295.64697, 163.71834);
	    ((GeneralPath) shape).curveTo(293.84232, 163.71834, 295.64697, 172.66905, 295.64697, 173.68423);
	    ((GeneralPath) shape).curveTo(295.64697, 179.58339, 299.32114, 175.07228, 299.32114, 180.50261);
	    ((GeneralPath) shape).curveTo(301.75403, 183.70146, 301.94537, 184.44966, 301.94537, 188.10812);
	    ((GeneralPath) shape).curveTo(301.94537, 190.15654, 302.20795, 191.33177, 302.20795, 193.35292);
	    ((GeneralPath) shape).curveTo(302.20795, 195.43852, 301.63498, 195.68674, 299.5837, 195.45126);
	    ((GeneralPath) shape).curveTo(298.1125, 195.28273, 295.18033, 194.71547, 294.59744, 196.50008);
	    ((GeneralPath) shape).curveTo(293.60742, 199.53215, 286.22476, 194.0101, 284.09976, 197.54924);
	    ((GeneralPath) shape).curveTo(286.07132, 201.05191, 286.25558, 207.71803, 289.61118, 209.61276);
	    ((GeneralPath) shape).curveTo(291.00302, 210.3985, 289.83795, 212.55739, 290.66074, 213.02196);
	    ((GeneralPath) shape).curveTo(293.41147, 214.57465, 294.3349, 213.33107, 294.3349, 217.74269);
	    ((GeneralPath) shape).curveTo(294.3349, 219.87575, 298.0406, 225.40842, 296.17178, 227.70824);
	    ((GeneralPath) shape).curveTo(295.79477, 228.1721, 294.5716, 232.92754, 295.3848, 233.74017);
	    ((GeneralPath) shape).curveTo(297.4566, 235.81055, 295.7951, 233.58154, 296.95914, 237.14937);
	    ((GeneralPath) shape).lineTo(299.11636, 238.55016);
	    ((GeneralPath) shape).lineTo(294.10068, 250.24577);
	    ((GeneralPath) shape).lineTo(286.8555, 254.14432);
	    ((GeneralPath) shape).lineTo(286.8555, 256.3719);
	    ((GeneralPath) shape).lineTo(279.61032, 259.15646);
	    ((GeneralPath) shape).lineTo(276.12823, 258.2075);
	    ((GeneralPath) shape).curveTo(275.7909, 256.80884, 273.0058, 251.23969, 271.7525, 250.27904);
	    ((GeneralPath) shape).curveTo(271.25677, 249.89874, 270.26852, 247.92079, 269.83057, 248.35844);
	    ((GeneralPath) shape).curveTo(267.29135, 250.89586, 272.59476, 249.76666, 267.90863, 246.9867);
	    ((GeneralPath) shape).curveTo(266.07562, 245.89893, 266.13373, 249.34424, 265.16284, 249.45613);
	    ((GeneralPath) shape).curveTo(264.35, 249.54922, 262.36392, 248.56488, 261.6687, 248.1375);
	    ((GeneralPath) shape).curveTo(256.72034, 245.09479, 263.45987, 243.43977, 259.12277, 241.22493);
	    ((GeneralPath) shape).curveTo(256.0354, 239.64816, 256.0609, 233.22636, 253.63158, 233.54257);
	    ((GeneralPath) shape).curveTo(251.62956, 233.80318, 251.03178, 234.25713, 248.14038, 232.17082);
	    ((GeneralPath) shape).curveTo(246.9126, 231.28453, 243.53113, 228.64868, 242.32814, 227.61333);
	    ((GeneralPath) shape).curveTo(239.89206, 225.51817, 241.32076, 221.81401, 239.62878, 218.45227);
	    ((GeneralPath) shape).curveTo(236.24626, 211.73091, 242.76505, 215.67761, 237.98146, 212.6905);
	    ((GeneralPath) shape).curveTo(236.43442, 211.7242, 238.67242, 208.90457, 239.62878, 208.57527);
	    ((GeneralPath) shape).curveTo(241.82321, 207.81927, 238.68907, 208.47827, 235.5103, 205.8314);
	    ((GeneralPath) shape).curveTo(235.05, 206.29138, 225.3521, 196.96071, 231.39217, 205.55699);
	    ((GeneralPath) shape).curveTo(237.12892, 204.0985, 223.24838, 206.47763, 217.38937, 194.85672);
	    ((GeneralPath) shape).curveTo(216.81429, 193.71619, 214.88313, 192.43085, 214.36934, 191.28996);
	    ((GeneralPath) shape).curveTo(212.25005, 186.58339, 205.85774, 189.30598, 205.85774, 182.7847);
	    ((GeneralPath) shape).curveTo(205.85774, 179.12976, 200.59969, 179.66763, 201.73961, 177.84584);
	    ((GeneralPath) shape).curveTo(204.48964, 173.44768, 201.76051, 174.82793, 200.36655, 174.82793);
	    ((GeneralPath) shape).curveTo(198.75854, 174.82793, 194.92671, 167.29712, 194.32646, 165.77382);
	    ((GeneralPath) shape).curveTo(193.02817, 162.479, 196.62045, 156.71971, 192.12991, 156.71971);
	    ((GeneralPath) shape).curveTo(190.94322, 156.71971, 188.01143, 157.33264, 188.01143, 156.4453);
	    ((GeneralPath) shape).curveTo(188.01143, 150.27774, 188.96353, 154.16495, 189.10951, 154.25029);
	    ((GeneralPath) shape).curveTo(189.10951, 147.41103, 186.4137, 145.57047, 183.3437, 139.43442);
	    ((GeneralPath) shape).curveTo(180.70848, 134.16731, 177.31425, 124.27755, 177.57823, 120.228516);
	    ((GeneralPath) shape).curveTo(177.83832, 116.239685, 172.3613, 112.268555, 172.3613, 109.25382);
	    ((GeneralPath) shape).curveTo(172.3613, 102.75235, 175.10707, 98.816986, 175.10707, 93.340614);
	    ((GeneralPath) shape).curveTo(175.10707, 87.1805, 158.35884, 92.22488, 158.35884, 85.10941);
	    ((GeneralPath) shape).curveTo(158.35884, 78.85722, 155.44617, 80.45701, 152.04381, 76.87856);
	    ((GeneralPath) shape).curveTo(147.10112, 71.67909, 151.28127, 87.61567, 143.25797, 80.1709);
	    ((GeneralPath) shape).curveTo(143.25797, 77.05312, 140.6812, 79.32214, 139.13947, 78.250305);
	    ((GeneralPath) shape).curveTo(137.76216, 77.2932, 134.63582, 74.575905, 133.37366, 72.762955);
	    ((GeneralPath) shape).curveTo(132.08917, 70.917786, 131.25931, 73.51327, 130.62823, 73.58586);
	    ((GeneralPath) shape).curveTo(130.03409, 73.65421, 129.13785, 73.707726, 128.24648, 73.644554);
	    ((GeneralPath) shape).lineTo(128.21167, 73.32355);
	    ((GeneralPath) shape).curveTo(130.13135, 72.36011, 133.27504, 69.47061, 130.07904, 69.47061);
	    ((GeneralPath) shape).curveTo(129.16447, 69.47061, 129.86465, 70.507744, 129.52982, 70.84236);
	    ((GeneralPath) shape).curveTo(127.808784, 72.56218, 125.83046, 68.29724, 125.411674, 67.82409);
	    ((GeneralPath) shape).curveTo(124.36106, 66.637085, 123.44496, 65.68223, 122.30801, 64.71026);
	    ((GeneralPath) shape).curveTo(122.09718, 62.670288, 122.27401, 59.797905, 122.0047, 58.908424);
	    ((GeneralPath) shape).curveTo(121.48772, 57.1971, 122.34133, 57.306515, 122.49547, 55.966637);
	    ((GeneralPath) shape).curveTo(122.69744, 54.213886, 118.96766, 53.90866, 120.28757, 51.798985);
	    ((GeneralPath) shape).curveTo(120.66211, 51.200924, 120.882866, 50.52107, 121.26874, 49.837673);
	    ((GeneralPath) shape).curveTo(121.709885, 49.05832, 121.89451, 48.494606, 122.49547, 48.12175);
	    ((GeneralPath) shape).curveTo(123.26934, 47.641956, 127.46366, 44.444515, 127.64721, 44.444515);
	    ((GeneralPath) shape).curveTo(128.52065, 44.444515, 129.24771, 44.532997, 129.87187, 44.474796);
	    ((GeneralPath) shape).closePath();
	
	    g.setPaint(new Color(0x3c7a51));
	    g.fill(shape);
	    g.setPaint(Color.WHITE);
	    g.draw(shape);
	    if (this.drawSquares){ this.paintSquare(g, shape); }
	    this.detectMouse(g, shape, "Sonora");

	    /*
	     * 
	     * Chihuahua
	     * */
	    // _0_0_0_15
	    shape = new GeneralPath();
	    ((GeneralPath) shape).moveTo(294.9469, 96.036095);
	    ((GeneralPath) shape).lineTo(295.64697, 118.61101);
	    ((GeneralPath) shape).curveTo(297.5232, 118.61101, 299.52097, 117.95629, 300.10846, 119.65982);
	    ((GeneralPath) shape).curveTo(300.38412, 120.4583, 299.99435, 121.92494, 300.10846, 122.806984);
	    ((GeneralPath) shape).curveTo(300.19025, 123.43868, 300.8958, 123.24677, 300.8958, 124.11819);
	    ((GeneralPath) shape).curveTo(300.8958, 126.76715, 301.4206, 129.47559, 301.4206, 132.24812);
	    ((GeneralPath) shape).curveTo(301.4206, 133.20169, 298.84064, 146.93405, 300.8958, 146.93405);
	    ((GeneralPath) shape).curveTo(301.20053, 147.89966, 299.99826, 155.32034, 299.05856, 155.85077);
	    ((GeneralPath) shape).curveTo(298.22195, 156.32314, 298.6252, 157.76534, 298.27158, 158.47353);
	    ((GeneralPath) shape).curveTo(297.97855, 159.05885, 296.48288, 159.46321, 296.43433, 160.30914);
	    ((GeneralPath) shape).curveTo(296.36063, 161.60123, 297.9658, 163.71834, 295.64697, 163.71834);
	    ((GeneralPath) shape).curveTo(293.84232, 163.71834, 295.64697, 172.66905, 295.64697, 173.68423);
	    ((GeneralPath) shape).curveTo(295.64697, 179.58339, 299.32114, 175.07228, 299.32114, 180.50261);
	    ((GeneralPath) shape).curveTo(301.75403, 183.70146, 301.94537, 184.44966, 301.94537, 188.10812);
	    ((GeneralPath) shape).curveTo(301.94537, 190.15654, 302.20795, 191.33177, 302.20795, 193.35292);
	    ((GeneralPath) shape).curveTo(302.20795, 195.43852, 301.63498, 195.68674, 299.5837, 195.45126);
	    ((GeneralPath) shape).curveTo(298.1125, 195.28273, 295.18033, 194.71547, 294.59744, 196.50008);
	    ((GeneralPath) shape).curveTo(293.60742, 199.53215, 286.22476, 194.0101, 284.09976, 197.54924);
	    ((GeneralPath) shape).curveTo(286.07132, 201.05191, 286.25558, 207.71803, 289.61118, 209.61276);
	    ((GeneralPath) shape).curveTo(291.00302, 210.3985, 289.83795, 212.55739, 290.66074, 213.02196);
	    ((GeneralPath) shape).curveTo(293.41147, 214.57465, 294.3349, 213.33107, 294.3349, 217.74269);
	    ((GeneralPath) shape).curveTo(294.3349, 219.87575, 298.0406, 225.40842, 296.17178, 227.70824);
	    ((GeneralPath) shape).curveTo(295.79477, 228.1721, 294.5716, 232.92754, 295.3848, 233.74017);
	    ((GeneralPath) shape).curveTo(297.4566, 235.81055, 295.7951, 233.58154, 296.95914, 237.14937);
	    ((GeneralPath) shape).lineTo(299.07745, 238.54942);
	    ((GeneralPath) shape).lineTo(300.1319, 238.15144);
	    ((GeneralPath) shape).lineTo(308.32068, 238.11424);
	    ((GeneralPath) shape).curveTo(308.26718, 239.08374, 308.1095, 240.2009, 307.80405, 240.87367);
	    ((GeneralPath) shape).curveTo(307.26404, 242.06306, 310.14517, 243.07648, 310.90488, 243.28822);
	    ((GeneralPath) shape).curveTo(311.33752, 243.40897, 311.76166, 243.57787, 312.11035, 243.80556);
	    ((GeneralPath) shape).curveTo(313.52737, 244.72937, 311.4644, 244.20036, 313.14395, 244.66777);
	    ((GeneralPath) shape).curveTo(313.9033, 244.87881, 313.83313, 245.79448, 313.83313, 246.73708);
	    ((GeneralPath) shape).curveTo(313.83313, 247.34682, 313.48694, 248.2873, 313.66092, 248.4615);
	    ((GeneralPath) shape).curveTo(314.20306, 249.00504, 313.2279, 248.9498, 312.97174, 249.15128);
	    ((GeneralPath) shape).curveTo(312.81335, 249.27663, 312.82858, 250.23267, 312.62732, 250.35872);
	    ((GeneralPath) shape).curveTo(312.21063, 250.61897, 311.5324, 250.2139, 311.76593, 251.22093);
	    ((GeneralPath) shape).curveTo(311.93246, 251.93796, 313.6475, 251.34026, 314.17792, 251.73827);
	    ((GeneralPath) shape).lineTo(314.69455, 261.22366);
	    ((GeneralPath) shape).lineTo(319.51782, 267.94962);
	    ((GeneralPath) shape).lineTo(325.90054, 267.94962);
	    ((GeneralPath) shape).curveTo(326.53836, 269.52673, 329.48044, 267.3944, 329.85355, 268.98392);
	    ((GeneralPath) shape).curveTo(330.3684, 271.17645, 331.2532, 270.10248, 332.95404, 270.36346);
	    ((GeneralPath) shape).curveTo(333.3406, 270.42297, 333.08017, 272.65335, 333.12625, 273.1229);
	    ((GeneralPath) shape).curveTo(333.15076, 273.37466, 334.1457, 275.54913, 334.33206, 275.88232);
	    ((GeneralPath) shape).curveTo(335.53433, 278.02954, 335.14423, 277.8107, 336.91626, 277.60675);
	    ((GeneralPath) shape).curveTo(338.7096, 277.40033, 337.9612, 280.53864, 340.0164, 280.53864);
	    ((GeneralPath) shape).lineTo(340.87814, 281.57364);
	    ((GeneralPath) shape).lineTo(340.87814, 282.09097);
	    ((GeneralPath) shape).curveTo(340.87814, 282.42523, 341.71616, 282.22626, 341.7392, 282.6083);
	    ((GeneralPath) shape).curveTo(341.7573, 282.9082, 341.7023, 285.1698, 341.7392, 285.19528);
	    ((GeneralPath) shape).curveTo(341.9284, 285.32452, 342.42838, 284.96655, 342.42838, 285.19528);
	    ((GeneralPath) shape).lineTo(342.42838, 285.36774);
	    ((GeneralPath) shape).curveTo(342.42838, 285.87198, 342.7728, 285.28134, 342.7728, 286.0575);
	    ((GeneralPath) shape).curveTo(344.1735, 286.5582, 344.55655, 286.95654, 345.87363, 287.09213);
	    ((GeneralPath) shape).curveTo(346.94656, 287.20297, 347.33493, 288.64447, 348.1127, 288.64447);
	    ((GeneralPath) shape).curveTo(351.49203, 288.64447, 348.0231, 290.769, 350.8677, 288.8987);
	    ((GeneralPath) shape).curveTo(359.49588, 283.22617, 355.04892, 285.19882, 356.89822, 276.74454);
	    ((GeneralPath) shape).curveTo(357.4751, 274.10797, 359.3095, 275.5116, 359.3095, 271.9158);
	    ((GeneralPath) shape).curveTo(359.3095, 267.34625, 361.9373, 264.11517, 364.64975, 261.39612);
	    ((GeneralPath) shape).curveTo(366.4498, 259.59097, 363.8305, 254.32597, 366.71698, 253.11783);
	    ((GeneralPath) shape).curveTo(368.5071, 252.36856, 368.59818, 252.52472, 369.3008, 251.04852);
	    ((GeneralPath) shape).curveTo(369.87024, 249.85098, 371.7121, 249.10916, 371.7121, 247.9442);
	    ((GeneralPath) shape).curveTo(376.62183, 246.47012, 373.23007, 249.36977, 376.0191, 249.49619);
	    ((GeneralPath) shape).curveTo(379.9753, 249.67572, 381.20663, 253.8993, 383.59842, 254.8426);
	    ((GeneralPath) shape).curveTo(385.00232, 255.39676, 384.36096, 254.69211, 385.14865, 254.15283);
	    ((GeneralPath) shape).curveTo(386.69144, 253.09517, 386.66522, 256.1885, 387.0433, 256.56705);
	    ((GeneralPath) shape).curveTo(387.2077, 256.73206, 389.39435, 257.7483, 389.97192, 257.7745);
	    ((GeneralPath) shape).curveTo(392.56357, 257.8917, 398.58484, 264.8471, 398.58484, 262.0859);
	    ((GeneralPath) shape).curveTo(398.58484, 260.5467, 397.92117, 259.59772, 399.1018, 258.63672);
	    ((GeneralPath) shape).curveTo(399.51108, 258.30316, 400.3806, 259.03577, 400.47983, 259.32648);
	    ((GeneralPath) shape).curveTo(401.17328, 261.3547, 401.92874, 260.9592, 403.75287, 259.8438);
	    ((GeneralPath) shape).curveTo(405.21664, 258.94937, 405.91364, 259.06586, 407.71475, 258.46426);
	    ((GeneralPath) shape).curveTo(410.03497, 259.47095, 410.65897, 259.36118, 411.50443, 261.2237);
	    ((GeneralPath) shape).curveTo(412.1238, 262.58728, 414.1797, 264.2494, 415.81107, 264.15558);
	    ((GeneralPath) shape).curveTo(418.33185, 264.0104, 416.93643, 259.7907, 417.87793, 258.1194);
	    ((GeneralPath) shape).curveTo(418.0154, 257.87613, 419.18933, 257.0787, 419.42853, 256.91193);
	    ((GeneralPath) shape).curveTo(419.64502, 256.7618, 420.72046, 255.79123, 420.80618, 255.53238);
	    ((GeneralPath) shape).lineTo(427.17474, 250.67957);
	    ((GeneralPath) shape).lineTo(440.9653, 251.93234);
	    ((GeneralPath) shape).lineTo(435.11478, 211.00685);
	    ((GeneralPath) shape).lineTo(451.8021, 177.61397);
	    ((GeneralPath) shape).curveTo(450.28503, 176.6387, 449.20837, 174.51834, 447.7711, 173.84428);
	    ((GeneralPath) shape).curveTo(446.53384, 173.26404, 446.3066, 173.15416, 444.8258, 173.00368);
	    ((GeneralPath) shape).curveTo(440.9511, 172.60922, 440.23462, 169.88449, 437.46228, 167.32724);
	    ((GeneralPath) shape).curveTo(429.76175, 167.32724, 430.45697, 163.05902, 423.99844, 160.8102);
	    ((GeneralPath) shape).curveTo(421.47128, 159.92993, 415.99, 151.69838, 415.37274, 148.40674);
	    ((GeneralPath) shape).curveTo(414.56024, 144.07549, 415.85925, 140.33134, 413.26904, 136.63356);
	    ((GeneralPath) shape).curveTo(412.82117, 135.73807, 412.78644, 134.74165, 411.79642, 134.74165);
	    ((GeneralPath) shape).lineTo(411.58594, 134.74165);
	    ((GeneralPath) shape).curveTo(410.37976, 134.74165, 410.32767, 132.95172, 409.90283, 132.42908);
	    ((GeneralPath) shape).curveTo(409.62964, 132.09305, 409.6385, 132.15112, 409.48224, 131.79845);
	    ((GeneralPath) shape).curveTo(408.46704, 129.50357, 409.52155, 127.377266, 407.589, 126.12201);
	    ((GeneralPath) shape).curveTo(406.5444, 125.44358, 407.67438, 124.92094, 405.48492, 124.23011);
	    ((GeneralPath) shape).curveTo(404.0183, 119.833, 401.5493, 116.50561, 396.43863, 114.97983);
	    ((GeneralPath) shape).curveTo(389.13852, 112.80005, 389.3504, 107.14273, 383.1849, 104.678604);
	    ((GeneralPath) shape).curveTo(380.83884, 103.740974, 376.7462, 96.46086, 374.77005, 94.7977);
	    ((GeneralPath) shape).curveTo(372.27692, 92.69971, 370.68027, 90.0805, 368.66904, 88.07032);
	    ((GeneralPath) shape).curveTo(366.12805, 85.53149, 364.76953, 85.69791, 361.9054, 83.2168);
	    ((GeneralPath) shape).lineTo(314.252, 81.436424);
	    ((GeneralPath) shape).lineTo(312.4704, 97.013245);
	    ((GeneralPath) shape).lineTo(294.947, 96.03612);
	    ((GeneralPath) shape).closePath();
	
	    g.setPaint(new Color(0x3c7a51));
	    g.fill(shape);
	    g.setPaint(Color.WHITE);
	    g.draw(shape);
	    if (this.drawSquares){ this.paintSquare(g, shape); }
	    this.detectMouse(g, shape, "Chihuahua");
	    /*
	     * 
	     * Coahuila
	     * */
	    // _0_0_0_16
	    shape = new GeneralPath();
	    ((GeneralPath) shape).moveTo(440.95493, 251.92726);
	    ((GeneralPath) shape).lineTo(450.87476, 256.40802);
	    ((GeneralPath) shape).lineTo(452.47247, 261.65283);
	    ((GeneralPath) shape).lineTo(454.75443, 266.44193);
	    ((GeneralPath) shape).lineTo(451.7879, 269.6344);
	    ((GeneralPath) shape).curveTo(451.7879, 270.91302, 452.19397, 273.71423, 451.10297, 274.4235);
	    ((GeneralPath) shape).curveTo(450.30713, 274.94153, 450.29257, 274.3435, 450.4184, 275.56366);
	    ((GeneralPath) shape).curveTo(450.4598, 275.96344, 450.5952, 275.75027, 450.64658, 276.4758);
	    ((GeneralPath) shape).curveTo(450.66888, 276.7913, 450.67346, 277.14468, 450.8748, 277.38828);
	    ((GeneralPath) shape).curveTo(451.1884, 277.76715, 451.59976, 277.90454, 452.0161, 278.52844);
	    ((GeneralPath) shape).curveTo(452.39136, 281.15652, 452.94165, 284.51965, 451.78793, 286.73804);
	    ((GeneralPath) shape).curveTo(451.47363, 287.34177, 450.93433, 288.40652, 450.41843, 289.0184);
	    ((GeneralPath) shape).curveTo(449.8366, 289.7096, 448.92877, 289.1519, 448.59286, 290.15857);
	    ((GeneralPath) shape).curveTo(448.59286, 290.71237, 448.80545, 290.8023, 449.04926, 291.2991);
	    ((GeneralPath) shape).curveTo(449.32138, 291.85397, 449.00604, 294.4268, 449.50565, 294.4916);
	    ((GeneralPath) shape).curveTo(450.28094, 294.59216, 450.41736, 294.18143, 450.6466, 295.17572);
	    ((GeneralPath) shape).curveTo(450.716, 295.47598, 451.23657, 295.72385, 450.41843, 295.85983);
	    ((GeneralPath) shape).curveTo(449.78912, 295.9643, 449.27142, 296.00006, 448.59286, 296.08786);
	    ((GeneralPath) shape).curveTo(447.86966, 296.18207, 448.13647, 297.56372, 448.13647, 298.36856);
	    ((GeneralPath) shape).curveTo(446.04727, 305.67593, 450.87482, 299.8136, 450.87482, 304.06943);
	    ((GeneralPath) shape).curveTo(450.87482, 307.9754, 453.3442, 311.59174, 456.58005, 313.41956);
	    ((GeneralPath) shape).curveTo(457.6317, 314.013, 461.7307, 314.11606, 461.8289, 314.3317);
	    ((GeneralPath) shape).curveTo(462.66547, 316.1712, 463.5421, 317.5242, 465.93674, 317.5242);
	    ((GeneralPath) shape).lineTo(467.3059, 316.61206);
	    ((GeneralPath) shape).curveTo(467.5224, 316.4683, 467.69144, 315.89786, 467.7623, 315.4719);
	    ((GeneralPath) shape).lineTo(469.35965, 310.45477);
	    ((GeneralPath) shape).lineTo(471.60538, 307.76205);
	    ((GeneralPath) shape).lineTo(472.78293, 306.35016);
	    ((GeneralPath) shape).lineTo(479.40094, 308.85855);
	    ((GeneralPath) shape).lineTo(479.17276, 305.21);
	    ((GeneralPath) shape).lineTo(486.01895, 304.7539);
	    ((GeneralPath) shape).lineTo(496.51627, 307.9464);
	    ((GeneralPath) shape).lineTo(500.39594, 313.19156);
	    ((GeneralPath) shape).lineTo(501.9933, 312.27942);
	    ((GeneralPath) shape).lineTo(504.73163, 312.27942);
	    ((GeneralPath) shape).lineTo(504.9598, 316.6121);
	    ((GeneralPath) shape).lineTo(510.89322, 315.47192);
	    ((GeneralPath) shape).curveTo(510.89322, 317.11276, 512.23083, 317.5561, 513.1752, 316.6121);
	    ((GeneralPath) shape).curveTo(513.7871, 316.00058, 514.9107, 316.10892, 516.1421, 316.156);
	    ((GeneralPath) shape).curveTo(519.5636, 316.28738, 516.53613, 317.39957, 517.5112, 319.34885);
	    ((GeneralPath) shape).curveTo(517.6682, 319.66293, 519.06604, 320.489, 519.3368, 320.489);
	    ((GeneralPath) shape).curveTo(520.3194, 320.489, 521.1655, 324.33514, 523.67285, 322.76938);
	    ((GeneralPath) shape).curveTo(524.5817, 322.20178, 528.5496, 323.9269, 529.60626, 324.1376);
	    ((GeneralPath) shape).curveTo(529.39966, 323.6564, 529.1442, 322.99176, 528.9217, 322.76938);
	    ((GeneralPath) shape).curveTo(528.81433, 322.66208, 528.71295, 322.69177, 528.6935, 322.54135);
	    ((GeneralPath) shape).curveTo(528.635, 322.09024, 528.674, 321.3764, 528.6935, 320.9451);
	    ((GeneralPath) shape).curveTo(528.73346, 320.05457, 528.9341, 320.12643, 529.14984, 319.34885);
	    ((GeneralPath) shape).curveTo(529.16895, 319.27905, 529.119, 318.68103, 529.14984, 318.66473);
	    ((GeneralPath) shape).curveTo(529.5573, 318.44803, 530.49915, 318.64493, 529.8344, 317.9803);
	    ((GeneralPath) shape).lineTo(529.6062, 317.75226);
	    ((GeneralPath) shape).curveTo(529.0375, 317.1836, 529.9616, 316.84012, 529.14984, 316.84012);
	    ((GeneralPath) shape).lineTo(527.09607, 314.55978);
	    ((GeneralPath) shape).lineTo(529.14984, 309.31464);
	    ((GeneralPath) shape).lineTo(527.3243, 309.54266);
	    ((GeneralPath) shape).lineTo(527.09607, 305.21);
	    ((GeneralPath) shape).lineTo(533.0291, 299.50876);
	    ((GeneralPath) shape).curveTo(534.3246, 300.1061, 534.0539, 300.26227, 534.62683, 301.33304);
	    ((GeneralPath) shape).curveTo(535.1222, 302.259, 535.6087, 301.27142, 536.6806, 301.33304);
	    ((GeneralPath) shape).curveTo(538.12274, 301.41592, 538.1717, 301.50974, 538.9625, 302.4732);
	    ((GeneralPath) shape).curveTo(539.6843, 303.35205, 542.39856, 302.84323, 543.0704, 302.01712);
	    ((GeneralPath) shape).curveTo(543.7812, 301.14252, 545.9862, 302.39743, 546.4933, 300.87695);
	    ((GeneralPath) shape).curveTo(545.009, 300.75372, 545.0862, 300.51294, 544.89594, 299.05267);
	    ((GeneralPath) shape).curveTo(544.6695, 297.31372, 543.0151, 298.36856, 541.70123, 298.36856);
	    ((GeneralPath) shape).curveTo(540.5677, 298.36856, 540.7488, 297.81406, 540.1035, 297.22803);
	    ((GeneralPath) shape).curveTo(539.74, 296.89764, 538.16846, 296.77194, 537.3652, 296.77194);
	    ((GeneralPath) shape).curveTo(537.1795, 296.36935, 536.97577, 295.73764, 536.6806, 295.40372);
	    ((GeneralPath) shape).curveTo(536.3915, 295.07724, 536.03107, 294.76248, 535.99603, 294.49158);
	    ((GeneralPath) shape).curveTo(535.8986, 293.7416, 535.31146, 293.73737, 535.31146, 292.6673);
	    ((GeneralPath) shape).lineTo(535.31146, 291.52713);
	    ((GeneralPath) shape).curveTo(535.31146, 291.05087, 535.4741, 290.5169, 535.08325, 290.3866);
	    ((GeneralPath) shape).curveTo(533.5957, 289.1979, 533.6046, 289.47446, 531.66, 289.47446);
	    ((GeneralPath) shape).curveTo(529.3479, 289.47446, 531.59155, 287.49722, 531.43176, 286.73804);
	    ((GeneralPath) shape).curveTo(531.34204, 286.3096, 528.5088, 287.33752, 528.00885, 286.51);
	    ((GeneralPath) shape).curveTo(527.72217, 286.0366, 527.382, 283.80228, 526.8675, 283.5452);
	    ((GeneralPath) shape).curveTo(526.1751, 283.19962, 524.6986, 283.5169, 524.8137, 282.63306);
	    ((GeneralPath) shape).curveTo(524.8693, 282.20425, 525.4983, 282.27966, 525.4983, 281.4929);
	    ((GeneralPath) shape).curveTo(525.4983, 281.07968, 525.3346, 279.50146, 525.4983, 279.21255);
	    ((GeneralPath) shape).curveTo(525.842, 278.60422, 527.096, 278.33972, 527.096, 277.38828);
	    ((GeneralPath) shape).curveTo(526.2637, 277.19635, 525.45154, 277.048, 524.5855, 277.16025);
	    ((GeneralPath) shape).curveTo(524.31976, 277.19455, 524.1628, 277.7119, 524.12915, 277.16025);
	    ((GeneralPath) shape).curveTo(524.09796, 276.63797, 524.12915, 276.08807, 524.12915, 275.56366);
	    ((GeneralPath) shape).curveTo(524.12915, 275.41245, 524.04877, 275.23648, 524.12915, 275.10757);
	    ((GeneralPath) shape).curveTo(524.20953, 274.97903, 524.2709, 275.0038, 524.35736, 274.87955);
	    ((GeneralPath) shape).curveTo(524.51575, 274.65152, 524.9232, 274.43268, 525.04193, 274.19543);
	    ((GeneralPath) shape).curveTo(525.3803, 273.5184, 524.5026, 273.73935, 524.12915, 273.73935);
	    ((GeneralPath) shape).lineTo(515.6856, 263.70547);
	    ((GeneralPath) shape).lineTo(528.92163, 251.16287);
	    ((GeneralPath) shape).curveTo(529.3192, 251.84415, 530.0715, 252.68475, 529.8344, 253.44322);
	    ((GeneralPath) shape).curveTo(529.344, 255.01256, 529.8897, 254.81142, 531.20355, 254.81142);
	    ((GeneralPath) shape).curveTo(531.4034, 254.81142, 532.27045, 254.62305, 532.34454, 254.58339);
	    ((GeneralPath) shape).curveTo(532.66235, 254.41449, 531.84985, 251.43198, 533.0291, 250.7068);
	    ((GeneralPath) shape).curveTo(533.6758, 250.30916, 534.06665, 250.33182, 534.85504, 250.25073);
	    ((GeneralPath) shape).curveTo(535.5694, 250.17703, 535.3114, 249.22493, 535.3114, 248.65413);
	    ((GeneralPath) shape).lineTo(535.3114, 241.35667);
	    ((GeneralPath) shape).lineTo(530.06256, 238.8483);
	    ((GeneralPath) shape).curveTo(529.6094, 242.24687, 530.06256, 239.02747, 530.06256, 240.2165);
	    ((GeneralPath) shape).curveTo(530.06256, 240.47783, 529.4606, 240.51749, 529.1498, 240.67258);
	    ((GeneralPath) shape).curveTo(528.7391, 240.87794, 528.1275, 241.59816, 527.78064, 242.04079);
	    ((GeneralPath) shape).curveTo(527.05707, 242.96532, 527.25195, 243.62534, 527.09607, 242.26917);
	    ((GeneralPath) shape).curveTo(527.0348, 241.74016, 526.63934, 241.92145, 526.63934, 241.81274);
	    ((GeneralPath) shape).lineTo(526.63934, 241.12865);
	    ((GeneralPath) shape).lineTo(526.41113, 241.12865);
	    ((GeneralPath) shape).curveTo(525.81726, 241.12865, 526.11206, 239.8833, 526.63934, 239.5324);
	    ((GeneralPath) shape).curveTo(526.9777, 239.30684, 527.49506, 239.1174, 527.5525, 238.62027);
	    ((GeneralPath) shape).curveTo(527.685, 237.46877, 527.5525, 236.1395, 527.5525, 234.97136);
	    ((GeneralPath) shape).curveTo(529.012, 234.7635, 530.7065, 234.7026, 532.1164, 234.28725);
	    ((GeneralPath) shape).curveTo(532.2489, 234.24864, 532.3315, 233.66016, 532.3446, 233.3751);
	    ((GeneralPath) shape).curveTo(532.4098, 232.00195, 532.89667, 232.72818, 533.4856, 231.55084);
	    ((GeneralPath) shape).curveTo(534.015, 230.49246, 533.79846, 230.29027, 535.3115, 230.18263);
	    ((GeneralPath) shape).curveTo(536.06805, 230.12883, 538.6104, 229.64264, 538.73444, 229.2705);
	    ((GeneralPath) shape).curveTo(539.5767, 226.60489, 539.1908, 223.41241, 539.1908, 220.60448);
	    ((GeneralPath) shape).lineTo(545.1242, 216.72789);
	    ((GeneralPath) shape).lineTo(545.58057, 217.64003);
	    ((GeneralPath) shape).curveTo(545.8541, 218.18639, 545.8088, 217.46794, 545.8088, 218.0961);
	    ((GeneralPath) shape).lineTo(545.8088, 218.32413);
	    ((GeneralPath) shape).lineTo(546.49335, 218.32413);
	    ((GeneralPath) shape).curveTo(546.6085, 218.32413, 546.814, 218.59889, 547.1779, 218.7802);
	    ((GeneralPath) shape).curveTo(547.4603, 218.92148, 549.2859, 219.69305, 549.4602, 219.92036);
	    ((GeneralPath) shape).curveTo(550.1271, 220.78859, 550.0066, 220.86508, 550.82935, 221.745);
	    ((GeneralPath) shape).curveTo(551.0781, 222.01056, 551.2071, 222.19258, 551.2857, 222.42911);
	    ((GeneralPath) shape).lineTo(554.07684, 218.7367);
	    ((GeneralPath) shape).curveTo(552.90686, 217.30284, 552.1184, 215.44595, 552.1184, 212.73692);
	    ((GeneralPath) shape).curveTo(552.1184, 211.55107, 541.7508, 199.9266, 540.5474, 195.91866);
	    ((GeneralPath) shape).curveTo(538.58545, 189.38072, 533.1676, 185.37666, 530.0285, 179.73103);
	    ((GeneralPath) shape).curveTo(528.6916, 177.32533, 529.4435, 173.06209, 527.2937, 171.53206);
	    ((GeneralPath) shape).curveTo(526.46027, 170.9386, 521.7189, 166.90692, 521.61365, 165.6453);
	    ((GeneralPath) shape).curveTo(521.0062, 164.83632, 518.8897, 164.62091, 517.5482, 163.79843);
	    ((GeneralPath) shape).lineTo(517.5727, 163.66522);
	    ((GeneralPath) shape).curveTo(517.4962, 162.97049, 515.1157, 163.54979, 514.62354, 163.48074);
	    ((GeneralPath) shape).curveTo(513.686, 163.34866, 514.1193, 162.98926, 513.7023, 162.80408);
	    ((GeneralPath) shape).curveTo(513.07117, 162.52327, 508.95483, 163.39682, 508.78687, 163.11177);
	    ((GeneralPath) shape).curveTo(508.5849, 162.76831, 509.1143, 160.78503, 509.15536, 160.22063);
	    ((GeneralPath) shape).curveTo(509.19366, 159.69586, 510.55112, 159.01283, 510.13864, 158.55994);
	    ((GeneralPath) shape).curveTo(509.65887, 158.03305, 509.27832, 158.64674, 509.27832, 157.51431);
	    ((GeneralPath) shape).curveTo(509.27832, 156.872, 508.88428, 155.41704, 509.58554, 155.42305);
	    ((GeneralPath) shape).curveTo(510.27792, 155.42905, 511.60776, 158.77629, 511.73602, 159.4211);
	    ((GeneralPath) shape).curveTo(512.67505, 159.98445, 513.5879, 159.58702, 514.5009, 160.22064);
	    ((GeneralPath) shape).curveTo(514.5974, 160.28754, 514.6811, 160.21764, 514.7499, 160.0997);
	    ((GeneralPath) shape).curveTo(513.67883, 158.95937, 512.984, 157.47397, 511.93622, 156.18506);
	    ((GeneralPath) shape).curveTo(509.2163, 152.83926, 505.7406, 150.80182, 500.7862, 151.98059);
	    ((GeneralPath) shape).curveTo(496.83212, 152.9207, 496.68152, 150.50899, 494.26422, 150.50899);
	    ((GeneralPath) shape).curveTo(491.12476, 150.50899, 488.04803, 150.69206, 484.3767, 150.50899);
	    ((GeneralPath) shape).curveTo(482.91754, 150.26573, 483.2021, 149.33163, 481.43143, 149.4577);
	    ((GeneralPath) shape).curveTo(480.5959, 149.5168, 480.52823, 149.98105, 480.1689, 150.08833);
	    ((GeneralPath) shape).curveTo(479.4351, 150.30823, 478.67786, 150.96648, 478.27567, 151.77028);
	    ((GeneralPath) shape).curveTo(478.0021, 152.31699, 472.70227, 153.91287, 471.96417, 154.08286);
	    ((GeneralPath) shape).curveTo(470.49048, 154.42206, 470.7449, 157.05333, 470.28107, 158.07736);
	    ((GeneralPath) shape).curveTo(469.712, 159.3351, 468.18515, 158.63116, 467.3358, 159.54897);
	    ((GeneralPath) shape).curveTo(466.99387, 159.91864, 466.3897, 161.76309, 466.28412, 161.86118);
	    ((GeneralPath) shape).curveTo(464.62793, 163.40643, 465.793, 169.3233, 466.28412, 171.53212);
	    ((GeneralPath) shape).curveTo(466.28412, 171.85965, 466.4255, 171.93118, 466.07364, 171.95242);
	    ((GeneralPath) shape).curveTo(465.6541, 171.97752, 465.23135, 171.93863, 464.8115, 171.95242);
	    ((GeneralPath) shape).curveTo(463.8172, 171.98532, 463.78674, 172.01683, 462.9179, 172.37273);
	    ((GeneralPath) shape).curveTo(462.29745, 172.62697, 461.7787, 173.0317, 461.23514, 173.42403);
	    ((GeneralPath) shape).curveTo(459.83054, 173.42403, 459.7756, 176.5818, 459.13107, 177.6285);
	    ((GeneralPath) shape).curveTo(458.24097, 179.07425, 453.76993, 178.59018, 452.18884, 177.83882);
	    ((GeneralPath) shape).curveTo(452.04987, 177.77283, 451.9147, 177.69615, 451.80194, 177.61401);
	    ((GeneralPath) shape).lineTo(435.11462, 211.0069);
	    ((GeneralPath) shape).lineTo(440.95477, 251.92734);
	    ((GeneralPath) shape).closePath();
	
	    g.setPaint(new Color(0x3c7a51));
	    g.fill(shape);
	    g.setPaint(Color.WHITE);
	    g.draw(shape);
	    if (this.drawSquares){ this.paintSquare(g, shape); }
	    this.detectMouse(g, shape, "Coahuila");
	    /*
	     * 
	     * 
	     * Tamaulipas
	     * 
	     * */
	    // _0_0_0_17
	    shape = new GeneralPath();
	    ((GeneralPath) shape).moveTo(556.9523, 221.19943);
	    ((GeneralPath) shape).lineTo(553.151, 225.03201);
	    ((GeneralPath) shape).curveTo(554.0946, 225.36238, 555.3277, 225.45975, 555.3277, 226.39703);
	    ((GeneralPath) shape).curveTo(555.3277, 227.82898, 557.5703, 227.77374, 558.47705, 227.77374);
	    ((GeneralPath) shape).curveTo(559.4118, 227.77374, 559.1432, 228.51839, 558.8707, 228.95392);
	    ((GeneralPath) shape).curveTo(558.2868, 229.88837, 558.62445, 231.21161, 558.47705, 232.49448);
	    ((GeneralPath) shape).curveTo(558.4423, 232.79794, 557.431, 233.21895, 557.49304, 233.47778);
	    ((GeneralPath) shape).curveTo(557.7928, 234.72064, 559.1847, 234.46109, 560.4454, 234.46109);
	    ((GeneralPath) shape).curveTo(560.34155, 235.00604, 559.76117, 236.96558, 560.0517, 237.60825);
	    ((GeneralPath) shape).curveTo(560.2044, 237.9457, 560.6367, 238.0845, 560.83905, 238.39503);
	    ((GeneralPath) shape).curveTo(561.2735, 239.06108, 560.78235, 239.68605, 561.82306, 239.77174);
	    ((GeneralPath) shape).curveTo(562.9247, 239.86314, 561.88684, 240.71399, 561.4294, 240.7554);
	    ((GeneralPath) shape).curveTo(559.753, 240.9066, 560.0676, 241.47668, 559.8547, 243.11542);
	    ((GeneralPath) shape).curveTo(559.787, 243.63771, 559.7363, 243.14021, 559.46136, 243.3123);
	    ((GeneralPath) shape).curveTo(558.99506, 243.60301, 559.0677, 245.06612, 559.0677, 245.86919);
	    ((GeneralPath) shape).lineTo(563.9884, 246.06606);
	    ((GeneralPath) shape).lineTo(562.2167, 252.55655);
	    ((GeneralPath) shape).lineTo(566.35004, 252.55655);
	    ((GeneralPath) shape).lineTo(569.1058, 256.8839);
	    ((GeneralPath) shape).lineTo(567.53107, 262.19458);
	    ((GeneralPath) shape).lineTo(576.3885, 267.30835);
	    ((GeneralPath) shape).lineTo(576.3885, 273.02585);
	    ((GeneralPath) shape).lineTo(576.9788, 273.20926);
	    ((GeneralPath) shape).lineTo(577.5695, 273.20926);
	    ((GeneralPath) shape).lineTo(578.15985, 273.4058);
	    ((GeneralPath) shape).curveTo(579.0326, 273.69614, 578.9773, 274.13733, 579.73456, 274.38947);
	    ((GeneralPath) shape).curveTo(578.7499, 269.30542, 581.2561, 271.66934, 582.49023, 274.586);
	    ((GeneralPath) shape).curveTo(582.54736, 274.72092, 585.1974, 275.35226, 585.2456, 274.9794);
	    ((GeneralPath) shape).curveTo(585.44934, 273.4143, 585.0833, 273.79922, 587.214, 273.79922);
	    ((GeneralPath) shape).curveTo(588.05945, 273.79922, 588.0545, 274.25, 588.198, 273.9961);
	    ((GeneralPath) shape).curveTo(588.5208, 273.42496, 588.7454, 272.75357, 589.57605, 273.01242);
	    ((GeneralPath) shape).curveTo(590.2932, 273.23657, 591.47675, 273.00543, 592.1347, 273.40582);
	    ((GeneralPath) shape).curveTo(593.6371, 274.32114, 593.1378, 274.19263, 595.08704, 274.19263);
	    ((GeneralPath) shape).lineTo(595.08704, 290.518);
	    ((GeneralPath) shape).lineTo(599.8274, 290.518);
	    ((GeneralPath) shape).curveTo(599.7367, 290.90857, 599.3295, 291.94748, 599.8111, 292.09158);
	    ((GeneralPath) shape).curveTo(599.9656, 292.13757, 600.1927, 292.49667, 600.00775, 292.6815);
	    ((GeneralPath) shape).curveTo(599.9506, 292.7385, 599.5191, 292.7764, 599.4174, 292.87836);
	    ((GeneralPath) shape).curveTo(599.3001, 292.99554, 599.3122, 293.10922, 599.02374, 293.27176);
	    ((GeneralPath) shape).curveTo(598.8937, 293.34506, 598.63007, 293.401, 598.63007, 293.6648);
	    ((GeneralPath) shape).lineTo(598.63007, 294.25507);
	    ((GeneralPath) shape).lineTo(598.43304, 294.25507);
	    ((GeneralPath) shape).curveTo(598.3027, 294.25507, 598.50287, 294.53763, 598.43304, 294.64847);
	    ((GeneralPath) shape).curveTo(598.40295, 294.69736, 598.308, 295.16687, 598.2364, 295.23837);
	    ((GeneralPath) shape).curveTo(598.2314, 295.24338, 597.6613, 295.24838, 597.6457, 295.23837);
	    ((GeneralPath) shape).curveTo(597.49335, 295.14386, 597.4728, 294.46786, 597.44904, 294.45157);
	    ((GeneralPath) shape).curveTo(597.319, 294.36267, 596.1784, 294.45157, 595.8743, 294.45157);
	    ((GeneralPath) shape).lineTo(584.26154, 305.46628);
	    ((GeneralPath) shape).lineTo(581.50586, 305.46628);
	    ((GeneralPath) shape).curveTo(581.50586, 304.91037, 581.57635, 303.91855, 581.50586, 303.3028);
	    ((GeneralPath) shape).curveTo(581.45026, 302.81485, 581.00165, 303.1675, 580.9155, 303.49933);
	    ((GeneralPath) shape).curveTo(580.83795, 303.79605, 580.767, 303.96036, 580.7185, 304.483);
	    ((GeneralPath) shape).curveTo(580.57074, 306.06827, 578.55347, 305.17844, 578.55347, 306.6465);
	    ((GeneralPath) shape).curveTo(578.55347, 307.28955, 578.6924, 307.18863, 578.1598, 307.23642);
	    ((GeneralPath) shape).curveTo(577.60345, 307.28632, 577.69275, 307.80862, 577.56946, 308.2201);
	    ((GeneralPath) shape).curveTo(577.4376, 308.65988, 576.1603, 308.41663, 575.6011, 308.41663);
	    ((GeneralPath) shape).curveTo(575.6011, 309.48953, 575.1978, 310.17612, 576.1914, 310.3836);
	    ((GeneralPath) shape).curveTo(577.0397, 310.5603, 575.7587, 310.12866, 576.5851, 310.18707);
	    ((GeneralPath) shape).curveTo(577.4702, 310.2498, 577.7151, 310.80637, 578.35645, 311.17038);
	    ((GeneralPath) shape).curveTo(578.6693, 311.34814, 578.9429, 310.85275, 579.1438, 311.36725);
	    ((GeneralPath) shape).curveTo(579.35535, 311.9083, 578.66223, 311.75073, 578.55347, 311.95715);
	    ((GeneralPath) shape).curveTo(578.2664, 312.50317, 578.7792, 313.45532, 578.55347, 313.53073);
	    ((GeneralPath) shape).curveTo(577.5783, 313.85507, 576.1914, 313.04172, 576.1914, 314.31754);
	    ((GeneralPath) shape).curveTo(576.1914, 315.8904, 572.78546, 315.92264, 572.64874, 314.31754);
	    ((GeneralPath) shape).curveTo(572.56866, 313.37848, 572.63135, 312.95782, 571.8614, 313.72726);
	    ((GeneralPath) shape).curveTo(571.52264, 314.06577, 571.9082, 315.1546, 571.4677, 315.30084);
	    ((GeneralPath) shape).curveTo(571.4677, 315.39075, 571.6017, 317.07095, 571.4677, 317.07095);
	    ((GeneralPath) shape).lineTo(571.2707, 317.07095);
	    ((GeneralPath) shape).curveTo(570.24207, 317.07095, 571.5708, 316.81778, 570.877, 317.85776);
	    ((GeneralPath) shape).curveTo(570.8451, 317.90594, 569.4993, 318.24054, 569.4993, 318.05463);
	    ((GeneralPath) shape).lineTo(569.4993, 317.85776);
	    ((GeneralPath) shape).curveTo(569.4993, 317.6545, 569.03516, 316.63437, 568.909, 317.26785);
	    ((GeneralPath) shape).curveTo(568.7747, 317.9392, 568.7187, 317.47995, 568.3183, 318.05466);
	    ((GeneralPath) shape).curveTo(568.2737, 318.11905, 568.16095, 318.4084, 568.12164, 318.44806);
	    ((GeneralPath) shape).curveTo(568.0289, 318.54047, 567.9831, 318.52777, 567.9246, 318.6446);
	    ((GeneralPath) shape).curveTo(567.7776, 318.9399, 567.5632, 319.21646, 567.53094, 319.4314);
	    ((GeneralPath) shape).curveTo(567.47034, 319.83896, 567.4761, 320.30246, 567.13727, 320.41507);
	    ((GeneralPath) shape).lineTo(561.8229, 320.41507);
	    ((GeneralPath) shape).lineTo(561.6262, 325.72537);
	    ((GeneralPath) shape).lineTo(564.3819, 328.08575);
	    ((GeneralPath) shape).lineTo(564.9722, 340.47717);
	    ((GeneralPath) shape).lineTo(569.1056, 344.41113);
	    ((GeneralPath) shape).curveTo(568.9366, 344.9745, 568.8065, 345.2666, 568.7119, 345.78784);
	    ((GeneralPath) shape).curveTo(568.6828, 345.95, 568.6017, 346.15717, 568.51526, 346.3781);
	    ((GeneralPath) shape).curveTo(568.2959, 346.9351, 567.3792, 347.22086, 566.7435, 347.36142);
	    ((GeneralPath) shape).curveTo(566.21234, 347.47934, 566.026, 347.14542, 565.9562, 347.75482);
	    ((GeneralPath) shape).curveTo(565.91046, 348.15564, 566.1036, 348.03384, 565.7595, 348.14822);
	    ((GeneralPath) shape).lineTo(556.70544, 348.14822);
	    ((GeneralPath) shape).curveTo(554.70306, 350.9186, 555.13074, 355.24033, 555.13074, 358.76953);
	    ((GeneralPath) shape).curveTo(555.13074, 362.7474, 553.46185, 359.89572, 550.9974, 360.3431);
	    ((GeneralPath) shape).curveTo(548.3131, 360.8304, 550.8734, 366.20404, 547.82904, 366.92563);
	    ((GeneralPath) shape).lineTo(547.822, 368.64514);
	    ((GeneralPath) shape).curveTo(547.822, 368.9971, 548.43005, 369.10617, 548.7805, 369.19363);
	    ((GeneralPath) shape).curveTo(549.8177, 369.45282, 549.60187, 369.09238, 549.60187, 370.42764);
	    ((GeneralPath) shape).curveTo(549.60187, 371.6273, 549.4917, 371.38724, 550.6979, 371.38724);
	    ((GeneralPath) shape).lineTo(552.4781, 371.38724);
	    ((GeneralPath) shape).curveTo(552.4781, 372.91904, 552.5468, 372.94843, 551.5192, 373.58118);
	    ((GeneralPath) shape).curveTo(551.06604, 373.85983, 550.537, 374.1063, 550.1501, 374.26636);
	    ((GeneralPath) shape).curveTo(548.7115, 374.86087, 549.1912, 374.40585, 549.1912, 376.3229);
	    ((GeneralPath) shape).curveTo(549.1912, 377.20068, 548.95667, 379.0441, 549.1912, 379.75052);
	    ((GeneralPath) shape).curveTo(549.3567, 380.24802, 550.8113, 378.54025, 550.83466, 378.5165);
	    ((GeneralPath) shape).curveTo(551.2113, 378.13977, 551.6153, 380.316, 551.38245, 380.7101);
	    ((GeneralPath) shape).curveTo(551.30206, 380.84644, 550.7244, 380.84714, 550.5607, 380.84714);
	    ((GeneralPath) shape).curveTo(549.6724, 380.84714, 550.3056, 382.2104, 550.6979, 382.49225);
	    ((GeneralPath) shape).curveTo(550.8853, 382.6268, 551.39734, 382.16116, 551.6564, 382.08115);
	    ((GeneralPath) shape).curveTo(552.97626, 381.67252, 554.6923, 381.80673, 556.3124, 381.80673);
	    ((GeneralPath) shape).curveTo(557.6993, 381.80673, 557.3935, 382.02237, 557.6819, 383.17776);
	    ((GeneralPath) shape).curveTo(557.6819, 383.81052, 557.5451, 384.36926, 557.5451, 384.96027);
	    ((GeneralPath) shape).curveTo(557.5451, 385.85504, 557.1493, 386.5073, 558.2297, 386.46835);
	    ((GeneralPath) shape).curveTo(559.26825, 386.43085, 559.72394, 386.06293, 560.2838, 385.78317);
	    ((GeneralPath) shape).curveTo(561.2579, 385.2963, 560.6548, 385.83878, 561.2423, 386.0569);
	    ((GeneralPath) shape).curveTo(562.54736, 386.5427, 562.6292, 384.8204, 563.5703, 385.0973);
	    ((GeneralPath) shape).curveTo(565.27185, 385.59903, 566.1754, 386.75125, 567.8157, 387.01648);
	    ((GeneralPath) shape).curveTo(568.7281, 387.1645, 567.8157, 384.58353, 567.8157, 384.13736);
	    ((GeneralPath) shape).curveTo(567.8157, 382.5167, 569.52856, 383.14697, 569.86945, 384.00067);
	    ((GeneralPath) shape).curveTo(570.4973, 385.01514, 571.48914, 386.60077, 572.6085, 387.15387);
	    ((GeneralPath) shape).curveTo(573.1471, 387.4205, 575.6686, 386.7934, 575.7586, 387.2909);
	    ((GeneralPath) shape).curveTo(575.8681, 387.8971, 575.8993, 388.2041, 575.7586, 388.79895);
	    ((GeneralPath) shape).curveTo(575.709, 389.0075, 575.62146, 389.1796, 575.62146, 389.48447);
	    ((GeneralPath) shape).curveTo(575.62146, 390.40616, 575.45917, 390.2649, 576.4432, 390.30737);
	    ((GeneralPath) shape).curveTo(577.47003, 390.3513, 576.82587, 390.70996, 576.71674, 391.12958);
	    ((GeneralPath) shape).curveTo(576.6345, 391.4479, 576.4184, 393.83447, 576.306, 393.872);
	    ((GeneralPath) shape).curveTo(577.47534, 394.68216, 581.3898, 392.9372, 583.56433, 393.0491);
	    ((GeneralPath) shape).curveTo(583.99945, 393.0711, 585.21765, 393.4156, 585.3442, 393.73462);
	    ((GeneralPath) shape).curveTo(586.3494, 396.2699, 584.965, 394.8316, 587.3983, 394.8316);
	    ((GeneralPath) shape).curveTo(588.14984, 394.8316, 591.7935, 395.64212, 592.32825, 394.6942);
	    ((GeneralPath) shape).curveTo(592.70953, 394.0179, 592.7343, 393.18616, 593.6981, 393.18616);
	    ((GeneralPath) shape).curveTo(596.3114, 393.18616, 596.1707, 394.52817, 597.6692, 394.6942);
	    ((GeneralPath) shape).curveTo(598.87256, 390.47736, 601.3607, 394.70023, 603.2837, 392.7747);
	    ((GeneralPath) shape).curveTo(603.6359, 392.42166, 604.44135, 392.7414, 604.5164, 392.0895);
	    ((GeneralPath) shape).curveTo(604.678, 390.68164, 605.8346, 390.40085, 607.2551, 390.44406);
	    ((GeneralPath) shape).curveTo(611.633, 390.5772, 609.7185, 396.02844, 614.51306, 396.4767);
	    ((GeneralPath) shape).curveTo(614.99493, 396.5213, 616.9378, 397.23694, 618.88983, 397.77728);
	    ((GeneralPath) shape).lineTo(618.88983, 397.77728);
	    ((GeneralPath) shape).lineTo(619.0996, 397.77728);
	    ((GeneralPath) shape).lineTo(619.55066, 397.77728);
	    ((GeneralPath) shape).curveTo(619.95776, 397.77728, 620.4514, 398.23758, 620.6041, 397.6268);
	    ((GeneralPath) shape).curveTo(619.8118, 395.0221, 621.6891, 395.61096, 618.775, 393.9931);
	    ((GeneralPath) shape).curveTo(617.62164, 393.3529, 618.0816, 388.9119, 617.9618, 386.952);
	    ((GeneralPath) shape).curveTo(617.8441, 385.02716, 617.61774, 383.94046, 618.3686, 382.07758);
	    ((GeneralPath) shape).curveTo(618.9699, 380.58508, 621.8227, 370.36423, 620.2654, 368.808);
	    ((GeneralPath) shape).curveTo(620.2654, 368.06903, 620.06555, 366.41577, 620.2654, 365.6938);
	    ((GeneralPath) shape).curveTo(620.37946, 365.28268, 620.7629, 363.72116, 620.40106, 363.3922);
	    ((GeneralPath) shape).curveTo(619.9769, 363.0059, 619.30334, 363.4191, 619.0461, 363.12134);
	    ((GeneralPath) shape).curveTo(618.64636, 362.6589, 619.7236, 362.23575, 619.7236, 361.63168);
	    ((GeneralPath) shape).curveTo(619.7236, 358.65094, 620.2654, 355.968, 620.2654, 352.966);
	    ((GeneralPath) shape).curveTo(620.2654, 352.2798, 619.86566, 350.3383, 619.31683, 350.12265);
	    ((GeneralPath) shape).curveTo(618.8916, 349.95517, 618.98944, 349.64746, 619.04614, 349.0395);
	    ((GeneralPath) shape).curveTo(619.13477, 348.09018, 618.3006, 348.49774, 618.504, 348.49774);
	    ((GeneralPath) shape).curveTo(617.21674, 348.49774, 617.4704, 348.54803, 617.4201, 348.49774);
	    ((GeneralPath) shape).curveTo(616.90137, 347.97934, 618.74744, 347.9096, 617.5555, 347.8207);
	    ((GeneralPath) shape).curveTo(616.5449, 347.7453, 615.7529, 348.1734, 616.0651, 346.73755);
	    ((GeneralPath) shape).curveTo(616.1718, 346.2475, 616.20404, 346.74155, 615.92944, 346.46667);
	    ((GeneralPath) shape).curveTo(615.88055, 346.41748, 615.9135, 345.79745, 615.92944, 345.78964);
	    ((GeneralPath) shape).curveTo(616.46027, 345.53326, 617.12604, 346.0389, 617.42017, 346.06052);
	    ((GeneralPath) shape).curveTo(617.65015, 346.07712, 617.9836, 345.36755, 618.23303, 345.24823);
	    ((GeneralPath) shape).curveTo(618.97644, 344.89307, 619.1352, 345.27762, 619.72375, 345.65436);
	    ((GeneralPath) shape).curveTo(620.8385, 346.36893, 619.99445, 343.21857, 619.99445, 342.811);
	    ((GeneralPath) shape).curveTo(619.39984, 342.6127, 619.47217, 342.69522, 619.72375, 342.13397);
	    ((GeneralPath) shape).curveTo(620.0044, 341.50864, 619.99445, 341.6131, 619.99445, 341.05045);
	    ((GeneralPath) shape).curveTo(619.99445, 340.173, 618.09766, 341.5561, 618.09766, 340.23816);
	    ((GeneralPath) shape).curveTo(618.09766, 339.7973, 618.13696, 339.32104, 618.09766, 338.8841);
	    ((GeneralPath) shape).curveTo(618.06433, 338.5176, 617.8145, 338.9096, 617.6912, 338.74884);
	    ((GeneralPath) shape).curveTo(617.34644, 338.3009, 618.3085, 338.36783, 618.5041, 338.3427);
	    ((GeneralPath) shape).curveTo(619.10785, 338.2644, 619.0186, 337.0361, 618.9105, 336.58218);
	    ((GeneralPath) shape).curveTo(618.75745, 335.93774, 618.93, 335.67856, 619.45264, 335.49902);
	    ((GeneralPath) shape).curveTo(619.71094, 335.41013, 620.1301, 335.28763, 620.1301, 334.9576);
	    ((GeneralPath) shape).curveTo(620.1301, 333.6216, 620.23926, 333.64676, 619.45264, 332.65567);
	    ((GeneralPath) shape).curveTo(618.49805, 331.4539, 619.28894, 330.60724, 619.0462, 330.21844);
	    ((GeneralPath) shape).curveTo(618.34247, 329.09384, 618.9385, 325.14963, 616.7426, 326.83334);
	    ((GeneralPath) shape).curveTo(616.2125, 327.23984, 615.69025, 326.81454, 615.6587, 326.2916);
	    ((GeneralPath) shape).curveTo(615.5829, 325.04944, 614.0202, 326.8493, 614.71014, 325.34406);
	    ((GeneralPath) shape).curveTo(614.96423, 324.78955, 615.0393, 322.636, 615.38763, 322.636);
	    ((GeneralPath) shape).curveTo(617.4307, 322.636, 617.2008, 324.83594, 617.6912, 326.5625);
	    ((GeneralPath) shape).curveTo(617.7086, 326.6245, 617.9418, 326.05368, 617.9619, 326.0211);
	    ((GeneralPath) shape).curveTo(618.54126, 325.09512, 617.2401, 324.7113, 618.504, 323.44827);
	    ((GeneralPath) shape).curveTo(621.5382, 323.74643, 619.0724, 326.39325, 619.375, 327.4828);
	    ((GeneralPath) shape).curveTo(619.7063, 328.6761, 619.80975, 328.83612, 619.943, 330.1314);
	    ((GeneralPath) shape).curveTo(619.971, 330.40335, 620.13257, 330.39944, 620.13257, 330.88846);
	    ((GeneralPath) shape).curveTo(620.13257, 332.39297, 620.8898, 331.8066, 620.8898, 332.96982);
	    ((GeneralPath) shape).curveTo(620.8898, 335.30328, 621.5276, 338.818, 621.83655, 334.4832);
	    ((GeneralPath) shape).curveTo(622.0038, 332.13593, 620.511, 330.7132, 620.511, 328.0504);
	    ((GeneralPath) shape).curveTo(620.511, 327.2916, 621.2055, 327.6248, 621.45776, 326.72577);
	    ((GeneralPath) shape).curveTo(622.1696, 324.19083, 620.98364, 322.07196, 622.21533, 320.10355);
	    ((GeneralPath) shape).curveTo(622.35425, 319.88153, 622.97253, 317.44714, 622.97253, 317.07608);
	    ((GeneralPath) shape).curveTo(622.97253, 315.8403, 622.4187, 315.34317, 621.2685, 316.1303);
	    ((GeneralPath) shape).curveTo(620.7685, 316.47202, 620.6314, 320.12305, 620.5109, 321.0497);
	    ((GeneralPath) shape).curveTo(620.38763, 321.99796, 619.18567, 321.37372, 619.18567, 319.9145);
	    ((GeneralPath) shape).curveTo(619.18567, 317.46136, 620.5109, 318.27185, 620.5109, 316.3194);
	    ((GeneralPath) shape).curveTo(620.5109, 315.8506, 619.43726, 315.07687, 620.8897, 314.80566);
	    ((GeneralPath) shape).curveTo(621.5495, 314.68243, 622.2153, 314.06598, 622.2153, 313.29227);
	    ((GeneralPath) shape).curveTo(621.45276, 313.24487, 621.1951, 313.555, 621.0793, 312.91376);
	    ((GeneralPath) shape).curveTo(621.0361, 312.67545, 620.93365, 312.23672, 620.8897, 312.72467);
	    ((GeneralPath) shape).curveTo(620.8784, 312.8532, 620.917, 313.83688, 620.8897, 313.8599);
	    ((GeneralPath) shape).curveTo(620.5478, 314.1506, 620.29156, 313.901, 620.1325, 313.48138);
	    ((GeneralPath) shape).curveTo(619.9692, 313.04904, 619.56024, 312.08875, 619.7537, 311.5891);
	    ((GeneralPath) shape).curveTo(620.0677, 310.7786, 620.3568, 310.71167, 621.0793, 310.64334);
	    ((GeneralPath) shape).curveTo(622.20996, 310.5364, 622.11395, 310.2843, 622.0257, 309.1296);
	    ((GeneralPath) shape).curveTo(621.975, 308.4678, 621.63873, 308.82404, 621.0793, 308.75107);
	    ((GeneralPath) shape).curveTo(620.7965, 308.71497, 620.81744, 308.56198, 620.3217, 308.56198);
	    ((GeneralPath) shape).curveTo(619.87665, 308.56198, 619.7714, 308.4253, 619.5645, 308.75107);
	    ((GeneralPath) shape).curveTo(619.2651, 309.22095, 619.0156, 309.40048, 618.23895, 309.50812);
	    ((GeneralPath) shape).curveTo(617.1915, 309.65292, 617.76733, 309.27832, 617.86053, 309.1296);
	    ((GeneralPath) shape).curveTo(618.06287, 308.8049, 617.58453, 308.5273, 618.04974, 308.3729);
	    ((GeneralPath) shape).curveTo(618.36334, 308.22842, 618.66205, 308.07935, 618.9965, 307.9944);
	    ((GeneralPath) shape).curveTo(619.33777, 307.9069, 619.2942, 307.9686, 619.37494, 307.61588);
	    ((GeneralPath) shape).curveTo(619.40436, 307.4884, 619.5053, 307.1336, 619.5645, 307.04828);
	    ((GeneralPath) shape).curveTo(619.9107, 306.54758, 620.2381, 306.2707, 620.511, 305.72397);
	    ((GeneralPath) shape).curveTo(620.64105, 305.46442, 620.71014, 305.1946, 620.8898, 304.96692);
	    ((GeneralPath) shape).curveTo(621.703, 303.9383, 622.0477, 304.02115, 620.8898, 304.02115);
	    ((GeneralPath) shape).curveTo(620.0106, 304.02115, 619.1163, 304.05164, 618.23895, 304.02115);
	    ((GeneralPath) shape).curveTo(617.79144, 304.00555, 618.15424, 303.1816, 618.23895, 303.075);
	    ((GeneralPath) shape).curveTo(618.48486, 302.76804, 619.0029, 302.88593, 619.37494, 302.88593);
	    ((GeneralPath) shape).curveTo(620.7636, 302.88593, 620.7005, 303.22797, 620.7005, 302.12888);
	    ((GeneralPath) shape).curveTo(620.7005, 300.76883, 620.8422, 301.7684, 621.8365, 301.18274);
	    ((GeneralPath) shape).curveTo(621.8482, 301.17575, 621.8365, 300.66153, 621.8365, 300.61514);
	    ((GeneralPath) shape).curveTo(621.8365, 300.24548, 621.97363, 300.08118, 621.6473, 300.04755);
	    ((GeneralPath) shape).curveTo(621.2465, 300.00684, 620.7225, 300.02344, 620.3217, 300.04755);
	    ((GeneralPath) shape).curveTo(619.79126, 300.07944, 620.4567, 301.12823, 619.94293, 300.61514);
	    ((GeneralPath) shape).curveTo(619.6998, 300.37225, 619.6945, 300.24265, 619.5645, 300.04755);
	    ((GeneralPath) shape).curveTo(617.57776, 297.06927, 618.9965, 299.92007, 618.9965, 298.91232);
	    ((GeneralPath) shape).curveTo(618.9965, 298.58478, 618.5306, 298.72324, 618.23895, 298.72324);
	    ((GeneralPath) shape).curveTo(617.5423, 298.72324, 618.13617, 298.94702, 617.67096, 299.10178);
	    ((GeneralPath) shape).curveTo(617.84674, 298.77493, 618.1153, 298.50513, 618.23895, 298.15564);
	    ((GeneralPath) shape).curveTo(618.30206, 297.97787, 618.0653, 297.66275, 618.23895, 297.58804);
	    ((GeneralPath) shape).curveTo(618.6755, 297.39896, 619.32996, 298.26718, 619.5645, 297.58804);
	    ((GeneralPath) shape).curveTo(619.7041, 297.1844, 619.37494, 296.93015, 619.37494, 296.45282);
	    ((GeneralPath) shape).curveTo(619.37494, 295.57504, 619.58826, 295.50668, 620.3217, 295.50668);
	    ((GeneralPath) shape).curveTo(620.619, 295.50668, 621.43115, 295.40997, 621.6473, 295.50668);
	    ((GeneralPath) shape).curveTo(622.0346, 295.6802, 622.1136, 296.30588, 622.2153, 296.6419);
	    ((GeneralPath) shape).curveTo(622.47253, 297.4903, 622.54236, 297.4032, 623.1617, 297.58804);
	    ((GeneralPath) shape).curveTo(623.53375, 297.69922, 623.1617, 298.06534, 623.1617, 298.53418);
	    ((GeneralPath) shape).curveTo(623.20667, 298.5547, 624.13684, 299.25653, 624.2977, 298.72327);
	    ((GeneralPath) shape).curveTo(624.4873, 298.09583, 623.62415, 297.39862, 624.4873, 297.39862);
	    ((GeneralPath) shape).curveTo(624.86786, 297.39862, 626.1825, 297.53387, 626.38055, 297.39862);
	    ((GeneralPath) shape).curveTo(626.4844, 297.32782, 626.38055, 297.1465, 626.38055, 297.02045);
	    ((GeneralPath) shape).curveTo(626.38055, 296.64194, 626.5, 296.24356, 626.38055, 295.88522);
	    ((GeneralPath) shape).curveTo(626.3483, 295.78683, 625.8604, 296.086, 625.81256, 295.5067);
	    ((GeneralPath) shape).curveTo(625.7041, 294.20117, 627.47156, 295.14447, 627.8954, 295.6958);
	    ((GeneralPath) shape).curveTo(628.12573, 295.99643, 627.1208, 297.11215, 626.9486, 297.20953);
	    ((GeneralPath) shape).curveTo(626.7282, 297.33347, 626.5702, 297.621, 626.5702, 297.96658);
	    ((GeneralPath) shape).curveTo(626.5702, 298.43503, 626.7594, 298.34085, 626.7594, 298.91235);
	    ((GeneralPath) shape).curveTo(626.6939, 300.09537, 626.5064, 302.8994, 625.8126, 303.45358);
	    ((GeneralPath) shape).curveTo(625.3052, 303.859, 625.43384, 304.42273, 625.43384, 305.1564);
	    ((GeneralPath) shape).curveTo(625.43384, 306.38474, 624.2932, 307.9753, 623.5406, 308.94058);
	    ((GeneralPath) shape).curveTo(622.8918, 309.772, 623.1618, 313.72968, 623.1618, 315.18427);
	    ((GeneralPath) shape).curveTo(624.0395, 314.3072, 624.24646, 314.16058, 623.5406, 313.29236);
	    ((GeneralPath) shape).curveTo(623.34357, 313.0498, 623.7188, 312.64224, 623.7298, 312.5353);
	    ((GeneralPath) shape).curveTo(623.78827, 311.96558, 623.50446, 310.57083, 623.7298, 310.0758);
	    ((GeneralPath) shape).curveTo(624.0189, 309.43915, 624.65356, 308.5164, 625.05536, 307.8054);
	    ((GeneralPath) shape).curveTo(625.57166, 306.8918, 625.9841, 306.6946, 626.5702, 305.91312);
	    ((GeneralPath) shape).curveTo(628.95917, 303.0142, 631.49304, 295.54108, 631.49304, 293.2363);
	    ((GeneralPath) shape).curveTo(631.49304, 287.04288, 636.7943, 284.6379, 636.7943, 279.04575);
	    ((GeneralPath) shape).curveTo(636.7943, 277.02258, 636.7768, 275.2748, 636.6879, 273.70862);
	    ((GeneralPath) shape).curveTo(634.6031, 274.01694, 632.1737, 274.9415, 631.6408, 275.80652);
	    ((GeneralPath) shape).curveTo(631.0186, 276.81744, 629.25824, 275.75623, 628.69556, 276.43716);
	    ((GeneralPath) shape).curveTo(626.651, 278.91013, 624.59125, 277.64496, 623.0155, 275.38586);
	    ((GeneralPath) shape).curveTo(621.11127, 272.65512, 615.72675, 273.4051, 612.0756, 273.28363);
	    ((GeneralPath) shape).curveTo(610.1381, 273.28363, 607.78314, 273.82965, 606.39557, 273.91428);
	    ((GeneralPath) shape).curveTo(602.51483, 274.15115, 602.9921, 272.9933, 600.29456, 270.55078);
	    ((GeneralPath) shape).curveTo(599.53345, 269.86102, 596.6721, 270.6634, 596.2976, 269.7098);
	    ((GeneralPath) shape).curveTo(595.3381, 267.268, 595.9174, 268.63583, 593.9834, 267.60757);
	    ((GeneralPath) shape).curveTo(591.6054, 266.3424, 590.0463, 264.3581, 586.8303, 264.66437);
	    ((GeneralPath) shape).curveTo(584.4906, 264.40445, 580.786, 263.0681, 577.96454, 261.29416);
	    ((GeneralPath) shape).curveTo(577.89355, 261.4295, 577.68994, 261.35855, 577.20465, 261.37234);
	    ((GeneralPath) shape).curveTo(575.5651, 261.41904, 575.11725, 259.365, 573.61163, 258.82147);
	    ((GeneralPath) shape).curveTo(572.8877, 258.56085, 573.0142, 257.48868, 572.8927, 256.79395);
	    ((GeneralPath) shape).curveTo(572.5752, 254.97993, 570.6717, 257.2263, 570.6717, 255.22426);
	    ((GeneralPath) shape).curveTo(570.9541, 255.22426, 571.8474, 254.53767, 571.8474, 254.11241);
	    ((GeneralPath) shape).curveTo(571.8474, 252.76404, 571.12915, 253.11742, 571.12915, 251.82321);
	    ((GeneralPath) shape).curveTo(571.12915, 251.33456, 570.3691, 250.64622, 569.8223, 250.64622);
	    ((GeneralPath) shape).curveTo(568.90564, 250.64622, 569.7816, 251.6752, 568.58105, 251.43088);
	    ((GeneralPath) shape).curveTo(567.3469, 251.17982, 568.68134, 250.1774, 568.7118, 249.53401);
	    ((GeneralPath) shape).curveTo(568.7646, 248.40977, 568.16223, 249.20576, 567.8624, 248.09534);
	    ((GeneralPath) shape).curveTo(567.67566, 247.40416, 568.0428, 246.94348, 567.60095, 246.26363);
	    ((GeneralPath) shape).curveTo(567.08044, 245.46338, 566.81854, 244.66278, 566.75195, 243.58157);
	    ((GeneralPath) shape).curveTo(565.62946, 239.19376, 564.2576, 233.0614, 563.8992, 227.87392);
	    ((GeneralPath) shape).curveTo(562.76184, 224.46417, 559.68787, 223.06226, 556.9519, 221.19975);
	    ((GeneralPath) shape).closePath();
	
	    g.setPaint(new Color(0x3c7a51));
	    g.fill(shape);
	    g.setPaint(Color.WHITE);
	    g.draw(shape);
	    if (this.drawSquares){ this.paintSquare(g, shape); }
	    this.detectMouse(g, shape, "Tamaulipas");
	    
	    paintMexico1(g, origAlpha, transformations);
	    
	}

	private void paintMexico1(Graphics2D g, float origAlpha, java.util.LinkedList<AffineTransform> transformations) {
	    Shape shape = null;
	
	    /*
	     * 
	     * 
	     * 
	     * 
	     * Nuevo León
	     * */
	    // _0_0_0_18
	    shape = new GeneralPath();
	    ((GeneralPath) shape).moveTo(556.9523, 221.19943);
	    ((GeneralPath) shape).curveTo(555.4704, 220.27611, 554.24304, 218.90529, 554.0769, 218.73668);
	    ((GeneralPath) shape).lineTo(551.28577, 222.4291);
	    ((GeneralPath) shape).curveTo(551.2071, 222.19257, 551.0781, 222.01056, 550.8294, 221.74498);
	    ((GeneralPath) shape).curveTo(550.00665, 220.86507, 550.12714, 220.78857, 549.46027, 219.92035);
	    ((GeneralPath) shape).curveTo(549.28595, 219.69302, 547.4604, 218.92146, 547.178, 218.78018);
	    ((GeneralPath) shape).curveTo(546.8141, 218.59888, 546.6086, 218.32411, 546.4934, 218.32411);
	    ((GeneralPath) shape).lineTo(545.80884, 218.32411);
	    ((GeneralPath) shape).lineTo(545.80884, 218.09608);
	    ((GeneralPath) shape).curveTo(545.80884, 217.46793, 545.85425, 218.18639, 545.5806, 217.64001);
	    ((GeneralPath) shape).lineTo(545.12427, 216.72787);
	    ((GeneralPath) shape).lineTo(539.19086, 220.60446);
	    ((GeneralPath) shape).curveTo(539.19086, 223.4124, 539.5767, 226.60489, 538.7345, 229.27048);
	    ((GeneralPath) shape).curveTo(538.6105, 229.64262, 536.0681, 230.1288, 535.3116, 230.18262);
	    ((GeneralPath) shape).curveTo(533.7986, 230.29025, 534.0151, 230.49245, 533.48566, 231.55083);
	    ((GeneralPath) shape).curveTo(532.8967, 232.72818, 532.4099, 232.00194, 532.34467, 233.37509);
	    ((GeneralPath) shape).curveTo(532.33154, 233.66014, 532.24896, 234.24864, 532.11646, 234.28723);
	    ((GeneralPath) shape).curveTo(530.70654, 234.70258, 529.0121, 234.76349, 527.55255, 234.97134);
	    ((GeneralPath) shape).curveTo(527.55255, 236.13948, 527.68506, 237.46875, 527.55255, 238.62025);
	    ((GeneralPath) shape).curveTo(527.4952, 239.1174, 526.9778, 239.30684, 526.6394, 239.53238);
	    ((GeneralPath) shape).curveTo(526.1122, 239.88329, 525.8173, 241.12863, 526.4112, 241.12863);
	    ((GeneralPath) shape).lineTo(526.6394, 241.12863);
	    ((GeneralPath) shape).lineTo(526.6394, 241.81273);
	    ((GeneralPath) shape).curveTo(526.6394, 241.92143, 527.03485, 241.74013, 527.0961, 242.26915);
	    ((GeneralPath) shape).curveTo(527.252, 243.62532, 527.0571, 242.9653, 527.7807, 242.04077);
	    ((GeneralPath) shape).curveTo(528.1276, 241.59814, 528.7392, 240.87793, 529.14984, 240.67256);
	    ((GeneralPath) shape).curveTo(529.4606, 240.51747, 530.0626, 240.47781, 530.0626, 240.21649);
	    ((GeneralPath) shape).curveTo(530.0626, 239.02745, 529.60944, 242.24686, 530.0626, 238.84828);
	    ((GeneralPath) shape).lineTo(535.31146, 241.35666);
	    ((GeneralPath) shape).lineTo(535.31146, 248.65411);
	    ((GeneralPath) shape).curveTo(535.31146, 249.22491, 535.5694, 250.17706, 534.8551, 250.25072);
	    ((GeneralPath) shape).curveTo(534.0667, 250.33182, 533.67584, 250.30911, 533.0292, 250.70679);
	    ((GeneralPath) shape).curveTo(531.8499, 251.43196, 532.6624, 254.41447, 532.3446, 254.58337);
	    ((GeneralPath) shape).curveTo(532.2705, 254.62308, 531.4035, 254.8114, 531.2036, 254.8114);
	    ((GeneralPath) shape).curveTo(529.8897, 254.8114, 529.34406, 255.01253, 529.8345, 253.4432);
	    ((GeneralPath) shape).curveTo(530.07153, 252.68474, 529.3193, 251.84413, 528.9217, 251.16286);
	    ((GeneralPath) shape).lineTo(515.68567, 263.70547);
	    ((GeneralPath) shape).lineTo(524.1292, 273.73935);
	    ((GeneralPath) shape).curveTo(524.5027, 273.73935, 525.3804, 273.5184, 525.042, 274.19543);
	    ((GeneralPath) shape).curveTo(524.9233, 274.43268, 524.5158, 274.65152, 524.3574, 274.87955);
	    ((GeneralPath) shape).curveTo(524.27094, 275.00385, 524.20966, 274.97903, 524.1292, 275.10757);
	    ((GeneralPath) shape).curveTo(524.0488, 275.23645, 524.1292, 275.41245, 524.1292, 275.56366);
	    ((GeneralPath) shape).curveTo(524.1292, 276.08807, 524.098, 276.63797, 524.1292, 277.16025);
	    ((GeneralPath) shape).curveTo(524.1629, 277.7119, 524.3198, 277.19455, 524.5856, 277.16025);
	    ((GeneralPath) shape).curveTo(525.4516, 277.048, 526.26373, 277.19635, 527.09607, 277.38828);
	    ((GeneralPath) shape).curveTo(527.09607, 278.33972, 525.84204, 278.60422, 525.49835, 279.21255);
	    ((GeneralPath) shape).curveTo(525.33466, 279.5015, 525.49835, 281.07968, 525.49835, 281.4929);
	    ((GeneralPath) shape).curveTo(525.49835, 282.2797, 524.8694, 282.20425, 524.8138, 282.63306);
	    ((GeneralPath) shape).curveTo(524.6986, 283.51688, 526.1752, 283.1996, 526.86755, 283.5452);
	    ((GeneralPath) shape).curveTo(527.3821, 283.80228, 527.7222, 286.0366, 528.0089, 286.51);
	    ((GeneralPath) shape).curveTo(528.5089, 287.33752, 531.34216, 286.3096, 531.4318, 286.73804);
	    ((GeneralPath) shape).curveTo(531.5916, 287.49722, 529.34796, 289.47446, 531.66003, 289.47446);
	    ((GeneralPath) shape).curveTo(533.6046, 289.47446, 533.59576, 289.1979, 535.0833, 290.3866);
	    ((GeneralPath) shape).curveTo(535.4742, 290.5169, 535.3115, 291.05087, 535.3115, 291.52713);
	    ((GeneralPath) shape).lineTo(535.3115, 292.6673);
	    ((GeneralPath) shape).curveTo(535.3115, 293.73737, 535.8987, 293.7416, 535.9961, 294.49158);
	    ((GeneralPath) shape).curveTo(536.0312, 294.76245, 536.39154, 295.07724, 536.68066, 295.40372);
	    ((GeneralPath) shape).curveTo(536.9758, 295.73764, 537.17957, 296.36932, 537.36523, 296.77194);
	    ((GeneralPath) shape).curveTo(538.1685, 296.77194, 539.74005, 296.89764, 540.1036, 297.22803);
	    ((GeneralPath) shape).curveTo(540.74884, 297.81406, 540.56775, 298.36856, 541.7013, 298.36856);
	    ((GeneralPath) shape).curveTo(543.0152, 298.36856, 544.6696, 297.31372, 544.896, 299.05267);
	    ((GeneralPath) shape).curveTo(545.0863, 300.51294, 545.00903, 300.75372, 546.49335, 300.87695);
	    ((GeneralPath) shape).curveTo(545.98627, 302.39743, 543.78125, 301.14252, 543.07043, 302.01712);
	    ((GeneralPath) shape).curveTo(542.3986, 302.84323, 539.6843, 303.35205, 538.9626, 302.4732);
	    ((GeneralPath) shape).curveTo(538.1717, 301.50974, 538.1228, 301.4159, 536.68066, 301.33304);
	    ((GeneralPath) shape).curveTo(535.60876, 301.27142, 535.12225, 302.259, 534.6269, 301.33304);
	    ((GeneralPath) shape).curveTo(534.0539, 300.26227, 534.32465, 300.1061, 533.0292, 299.50876);
	    ((GeneralPath) shape).lineTo(527.0961, 305.21);
	    ((GeneralPath) shape).lineTo(527.32434, 309.54266);
	    ((GeneralPath) shape).lineTo(529.1499, 309.31464);
	    ((GeneralPath) shape).lineTo(527.0961, 314.55978);
	    ((GeneralPath) shape).lineTo(529.1499, 316.84012);
	    ((GeneralPath) shape).curveTo(529.9617, 316.84012, 529.0376, 317.1836, 529.60626, 317.75226);
	    ((GeneralPath) shape).lineTo(529.8345, 317.9803);
	    ((GeneralPath) shape).curveTo(530.4992, 318.64493, 529.5574, 318.44803, 529.1499, 318.66473);
	    ((GeneralPath) shape).curveTo(529.1191, 318.68103, 529.169, 319.27908, 529.1499, 319.34885);
	    ((GeneralPath) shape).curveTo(528.9341, 320.12643, 528.7336, 320.05453, 528.69354, 320.9451);
	    ((GeneralPath) shape).curveTo(528.6741, 321.37637, 528.6351, 322.09024, 528.69354, 322.54135);
	    ((GeneralPath) shape).curveTo(528.713, 322.69183, 528.8144, 322.6621, 528.92175, 322.76938);
	    ((GeneralPath) shape).curveTo(529.1443, 322.99176, 529.3998, 323.65637, 529.5889, 324.1251);
	    ((GeneralPath) shape).lineTo(530.1339, 324.74203);
	    ((GeneralPath) shape).curveTo(530.1339, 325.17154, 531.02295, 325.7271, 531.51196, 325.9222);
	    ((GeneralPath) shape).curveTo(531.95984, 326.10104, 532.12286, 327.4958, 532.496, 327.4958);
	    ((GeneralPath) shape).curveTo(532.7376, 327.4958, 533.424, 326.8499, 533.87366, 327.4958);
	    ((GeneralPath) shape).curveTo(534.03986, 327.7348, 533.59375, 327.77728, 533.677, 328.0857);
	    ((GeneralPath) shape).curveTo(533.82367, 328.63312, 534.44305, 328.8969, 534.661, 329.26587);
	    ((GeneralPath) shape).curveTo(534.729, 329.38095, 534.69183, 330.37488, 534.661, 330.64258);
	    ((GeneralPath) shape).curveTo(534.5841, 331.31747, 534.116, 331.0792, 534.0707, 331.42938);
	    ((GeneralPath) shape).curveTo(533.9991, 331.98425, 534.0707, 332.6347, 534.0707, 333.19983);
	    ((GeneralPath) shape).curveTo(534.0707, 334.19058, 533.9137, 333.7115, 534.46436, 333.98663);
	    ((GeneralPath) shape).curveTo(535.61066, 335.41858, 534.6472, 335.84348, 536.2357, 335.95325);
	    ((GeneralPath) shape).curveTo(536.53406, 335.97415, 536.53973, 336.6579, 536.43274, 336.93692);
	    ((GeneralPath) shape).curveTo(536.0164, 338.019, 536.03906, 339.0271, 536.03906, 340.4771);
	    ((GeneralPath) shape).curveTo(536.03906, 343.25848, 536.5798, 344.65326, 537.2197, 346.77142);
	    ((GeneralPath) shape).curveTo(537.8986, 349.01672, 538.5977, 346.40884, 538.5977, 349.91824);
	    ((GeneralPath) shape).curveTo(538.5977, 351.5106, 538.9113, 351.26874, 540.1724, 351.6887);
	    ((GeneralPath) shape).curveTo(540.2908, 352.04385, 541.3205, 353.03778, 540.76276, 353.8522);
	    ((GeneralPath) shape).curveTo(540.57776, 354.12308, 537.2417, 353.24033, 536.8264, 353.65533);
	    ((GeneralPath) shape).curveTo(536.7871, 353.69464, 536.6294, 359.9663, 536.6294, 360.34305);
	    ((GeneralPath) shape).curveTo(536.6294, 363.84076, 538.0071, 361.07816, 538.0071, 362.70306);
	    ((GeneralPath) shape).curveTo(538.0071, 364.19308, 536.6985, 366.0673, 537.0231, 367.62033);
	    ((GeneralPath) shape).curveTo(537.2892, 368.89258, 541.14655, 367.70563, 540.5661, 368.9974);
	    ((GeneralPath) shape).curveTo(540.23834, 369.72614, 539.8819, 368.6263, 539.9754, 369.9807);
	    ((GeneralPath) shape).curveTo(540.0275, 370.7321, 543.50287, 369.89322, 543.9121, 369.78418);
	    ((GeneralPath) shape).curveTo(543.2307, 369.55722, 543.995, 364.93243, 544.10876, 364.8669);
	    ((GeneralPath) shape).curveTo(545.8766, 363.85068, 545.25397, 367.03043, 547.0611, 367.03043);
	    ((GeneralPath) shape).curveTo(551.28375, 367.03043, 548.11383, 360.8664, 550.9978, 360.34305);
	    ((GeneralPath) shape).curveTo(553.4622, 359.89548, 555.13116, 362.7473, 555.13116, 358.76947);
	    ((GeneralPath) shape).curveTo(555.13116, 355.24026, 554.7035, 350.91855, 556.7059, 348.14816);
	    ((GeneralPath) shape).lineTo(565.75995, 348.14816);
	    ((GeneralPath) shape).curveTo(566.104, 348.03378, 565.9109, 348.15515, 565.9566, 347.75476);
	    ((GeneralPath) shape).curveTo(566.0264, 347.1454, 566.21277, 347.47928, 566.74396, 347.36136);
	    ((GeneralPath) shape).curveTo(567.37964, 347.22076, 568.2963, 346.93503, 568.5157, 346.37805);
	    ((GeneralPath) shape).curveTo(568.6022, 346.1571, 568.6833, 345.94995, 568.71234, 345.78778);
	    ((GeneralPath) shape).curveTo(568.80695, 345.26654, 568.937, 344.97443, 569.106, 344.41107);
	    ((GeneralPath) shape).lineTo(564.97266, 340.4771);
	    ((GeneralPath) shape).lineTo(564.3823, 328.0857);
	    ((GeneralPath) shape).lineTo(561.62665, 325.7253);
	    ((GeneralPath) shape).lineTo(561.8233, 320.415);
	    ((GeneralPath) shape).lineTo(567.1377, 320.415);
	    ((GeneralPath) shape).curveTo(567.47644, 320.3024, 567.47076, 319.8389, 567.5314, 319.43134);
	    ((GeneralPath) shape).curveTo(567.5636, 319.2164, 567.778, 318.93985, 567.92505, 318.64453);
	    ((GeneralPath) shape).curveTo(567.9835, 318.52768, 568.02924, 318.54044, 568.1221, 318.448);
	    ((GeneralPath) shape).curveTo(568.1614, 318.4083, 568.2741, 318.11905, 568.3187, 318.0546);
	    ((GeneralPath) shape).curveTo(568.7191, 317.47992, 568.7751, 317.93915, 568.9094, 317.2678);
	    ((GeneralPath) shape).curveTo(569.0356, 316.6343, 569.49976, 317.65445, 569.49976, 317.8577);
	    ((GeneralPath) shape).lineTo(569.49976, 318.05457);
	    ((GeneralPath) shape).curveTo(569.49976, 318.24045, 570.8455, 317.90585, 570.87744, 317.8577);
	    ((GeneralPath) shape).curveTo(571.5712, 316.81775, 570.24243, 317.0709, 571.2711, 317.0709);
	    ((GeneralPath) shape).lineTo(571.46814, 317.0709);
	    ((GeneralPath) shape).curveTo(571.6021, 317.0709, 571.46814, 315.39075, 571.46814, 315.30078);
	    ((GeneralPath) shape).curveTo(571.90857, 315.15454, 571.523, 314.0657, 571.8618, 313.7272);
	    ((GeneralPath) shape).curveTo(572.6318, 312.95776, 572.5691, 313.37842, 572.6492, 314.31747);
	    ((GeneralPath) shape).curveTo(572.78595, 315.92258, 576.19183, 315.89035, 576.19183, 314.31747);
	    ((GeneralPath) shape).curveTo(576.19183, 313.0417, 577.57874, 313.85504, 578.55383, 313.53067);
	    ((GeneralPath) shape).curveTo(578.77954, 313.45526, 578.2668, 312.5031, 578.55383, 311.9571);
	    ((GeneralPath) shape).curveTo(578.6626, 311.75064, 579.3557, 311.9082, 579.14417, 311.3672);
	    ((GeneralPath) shape).curveTo(578.94324, 310.8527, 578.6697, 311.34808, 578.3568, 311.17032);
	    ((GeneralPath) shape).curveTo(577.71545, 310.8063, 577.4706, 310.24966, 576.58545, 310.187);
	    ((GeneralPath) shape).curveTo(575.75916, 310.1286, 577.04004, 310.5602, 576.1918, 310.38354);
	    ((GeneralPath) shape).curveTo(575.1982, 310.17606, 575.60144, 309.48947, 575.60144, 308.41656);
	    ((GeneralPath) shape).curveTo(576.1606, 308.41656, 577.438, 308.65982, 577.5698, 308.22003);
	    ((GeneralPath) shape).curveTo(577.6931, 307.8086, 577.6038, 307.2863, 578.16016, 307.23636);
	    ((GeneralPath) shape).curveTo(578.69275, 307.18857, 578.55383, 307.28946, 578.55383, 306.64645);
	    ((GeneralPath) shape).curveTo(578.55383, 305.1784, 580.5711, 306.06824, 580.7189, 304.48294);
	    ((GeneralPath) shape).curveTo(580.7674, 303.9603, 580.8383, 303.79602, 580.9159, 303.49927);
	    ((GeneralPath) shape).curveTo(581.002, 303.16748, 581.4506, 302.81482, 581.5062, 303.30273);
	    ((GeneralPath) shape).curveTo(581.5767, 303.9185, 581.5062, 304.9103, 581.5062, 305.46622);
	    ((GeneralPath) shape).lineTo(584.2619, 305.46622);
	    ((GeneralPath) shape).lineTo(595.8747, 294.4515);
	    ((GeneralPath) shape).curveTo(596.1787, 294.4515, 597.31934, 294.3626, 597.4494, 294.4515);
	    ((GeneralPath) shape).curveTo(597.4731, 294.4678, 597.4937, 295.14377, 597.64606, 295.2383);
	    ((GeneralPath) shape).curveTo(597.6617, 295.24832, 598.23145, 295.24332, 598.23676, 295.2383);
	    ((GeneralPath) shape).curveTo(598.30835, 295.1668, 598.4033, 294.69727, 598.4334, 294.6484);
	    ((GeneralPath) shape).curveTo(598.50323, 294.53757, 598.30304, 294.255, 598.4334, 294.255);
	    ((GeneralPath) shape).lineTo(598.63043, 294.255);
	    ((GeneralPath) shape).lineTo(598.63043, 293.66473);
	    ((GeneralPath) shape).curveTo(598.63043, 293.40094, 598.89404, 293.345, 599.0241, 293.2717);
	    ((GeneralPath) shape).curveTo(599.31256, 293.10916, 599.3005, 292.9955, 599.4178, 292.8783);
	    ((GeneralPath) shape).curveTo(599.5195, 292.7763, 599.95105, 292.73843, 600.0081, 292.68143);
	    ((GeneralPath) shape).curveTo(600.19305, 292.49658, 599.96594, 292.13754, 599.81146, 292.09152);
	    ((GeneralPath) shape).curveTo(599.3299, 291.9474, 599.73706, 290.9085, 599.82776, 290.51794);
	    ((GeneralPath) shape).lineTo(595.0874, 290.51794);
	    ((GeneralPath) shape).lineTo(595.0874, 274.19257);
	    ((GeneralPath) shape).curveTo(593.1382, 274.19257, 593.63745, 274.3211, 592.1351, 273.40576);
	    ((GeneralPath) shape).curveTo(591.47705, 273.00528, 590.2936, 273.2365, 589.5764, 273.01236);
	    ((GeneralPath) shape).curveTo(588.74585, 272.7535, 588.5212, 273.42487, 588.19836, 273.99603);
	    ((GeneralPath) shape).curveTo(588.0549, 274.2499, 588.0598, 273.79916, 587.21436, 273.79916);
	    ((GeneralPath) shape).curveTo(585.0837, 273.79916, 585.4497, 273.41428, 585.246, 274.97934);
	    ((GeneralPath) shape).curveTo(585.19775, 275.3522, 582.54767, 274.72086, 582.4906, 274.58594);
	    ((GeneralPath) shape).curveTo(581.2565, 271.66928, 578.7502, 269.3054, 579.7349, 274.3894);
	    ((GeneralPath) shape).curveTo(578.9777, 274.1373, 579.03296, 273.6961, 578.1602, 273.40573);
	    ((GeneralPath) shape).lineTo(577.5699, 273.2092);
	    ((GeneralPath) shape).lineTo(576.9792, 273.2092);
	    ((GeneralPath) shape).lineTo(576.38885, 273.0258);
	    ((GeneralPath) shape).lineTo(576.38885, 267.3083);
	    ((GeneralPath) shape).lineTo(567.53143, 262.19452);
	    ((GeneralPath) shape).lineTo(569.10614, 256.88385);
	    ((GeneralPath) shape).lineTo(566.3504, 252.5565);
	    ((GeneralPath) shape).lineTo(562.21704, 252.5565);
	    ((GeneralPath) shape).lineTo(563.9888, 246.06601);
	    ((GeneralPath) shape).lineTo(559.06805, 245.86914);
	    ((GeneralPath) shape).curveTo(559.06805, 245.06606, 558.9955, 243.60297, 559.46173, 243.31226);
	    ((GeneralPath) shape).curveTo(559.7367, 243.14017, 559.78735, 243.63766, 559.85504, 243.11537);
	    ((GeneralPath) shape).curveTo(560.068, 241.47664, 559.75336, 240.90656, 561.42975, 240.75536);
	    ((GeneralPath) shape).curveTo(561.8872, 240.71396, 562.92505, 239.86305, 561.8234, 239.7717);
	    ((GeneralPath) shape).curveTo(560.7827, 239.686, 561.27386, 239.06104, 560.8394, 238.39499);
	    ((GeneralPath) shape).curveTo(560.6371, 238.08446, 560.2048, 237.94565, 560.05206, 237.6082);
	    ((GeneralPath) shape).curveTo(559.7615, 236.96553, 560.3419, 235.006, 560.44574, 234.46104);
	    ((GeneralPath) shape).curveTo(559.185, 234.46104, 557.79315, 234.7206, 557.4934, 233.47774);
	    ((GeneralPath) shape).curveTo(557.4314, 233.2189, 558.4427, 232.79788, 558.4774, 232.49443);
	    ((GeneralPath) shape).curveTo(558.6248, 231.21156, 558.2871, 229.88832, 558.8711, 228.95387);
	    ((GeneralPath) shape).curveTo(559.14355, 228.51834, 559.4122, 227.7737, 558.4774, 227.7737);
	    ((GeneralPath) shape).curveTo(557.5707, 227.7737, 555.32806, 227.8289, 555.32806, 226.39699);
	    ((GeneralPath) shape).curveTo(555.32806, 225.4597, 554.095, 225.36234, 553.15137, 225.03197);
	    ((GeneralPath) shape).lineTo(556.95264, 221.19939);
	    ((GeneralPath) shape).closePath();
	    
	    g.setPaint(new Color(0x3c7a51));
	    g.fill(shape);
	    g.setPaint(Color.WHITE);
	    g.draw(shape);
	    if (this.drawSquares){ this.paintSquare(g, shape); }
	    this.detectMouse(g, shape, "Nuevo León");
	    
	    /*
	     * 
	     * 
	     * 
	     * Sinaloa
	     * 
	     * 
	     * */
	    // _0_0_0_19
	    shape = new GeneralPath();
	    ((GeneralPath) shape).moveTo(327.00815, 332.2161);
	    ((GeneralPath) shape).curveTo(326.50928, 332.2509, 326.07614, 331.9408, 325.71677, 331.63144);
	    ((GeneralPath) shape).curveTo(325.62527, 331.22025, 325.18127, 330.90826, 325.23608, 330.47192);
	    ((GeneralPath) shape).curveTo(325.2862, 330.09622, 325.06656, 329.72708, 324.75665, 329.5268);
	    ((GeneralPath) shape).curveTo(324.51404, 329.25116, 324.05786, 328.94162, 323.70203, 329.06256);
	    ((GeneralPath) shape).curveTo(323.48312, 329.34863, 323.32553, 329.87207, 323.65942, 330.13565);
	    ((GeneralPath) shape).curveTo(323.9568, 330.37415, 324.1493, 330.849, 324.61227, 330.6555);
	    ((GeneralPath) shape).curveTo(325.00916, 330.57648, 325.41068, 330.6909, 325.8072, 330.7285);
	    ((GeneralPath) shape).curveTo(326.37665, 330.68, 326.111, 331.452, 326.47012, 331.68536);
	    ((GeneralPath) shape).curveTo(326.74045, 331.76306, 326.8406, 332.02017, 327.00815, 332.21603);
	    ((GeneralPath) shape).closePath();
	    ((GeneralPath) shape).moveTo(276.1291, 258.20905);
	    ((GeneralPath) shape).curveTo(276.1669, 258.36542, 276.1749, 258.47098, 276.14548, 258.51025);
	    ((GeneralPath) shape).curveTo(276.14548, 260.55832, 275.834, 260.43085, 277.79282, 260.43085);
	    ((GeneralPath) shape).curveTo(280.87946, 260.43085, 279.16553, 262.21866, 279.16553, 263.72318);
	    ((GeneralPath) shape).curveTo(279.16553, 265.03226, 280.4128, 266.89865, 281.08746, 268.1132);
	    ((GeneralPath) shape).curveTo(281.36313, 268.60855, 277.7524, 268.1872, 277.5182, 265.91818);
	    ((GeneralPath) shape).curveTo(277.41928, 264.9625, 277.83817, 263.33862, 277.2436, 262.62585);
	    ((GeneralPath) shape).curveTo(275.66998, 260.7382, 275.32166, 261.38263, 275.32166, 263.44876);
	    ((GeneralPath) shape).curveTo(275.32166, 264.5847, 274.28912, 264.5514, 273.67435, 265.09494);
	    ((GeneralPath) shape).curveTo(271.8268, 266.728, 273.22574, 268.39365, 271.47778, 269.48495);
	    ((GeneralPath) shape).curveTo(270.4587, 270.1216, 269.45416, 269.58658, 268.45776, 270.58228);
	    ((GeneralPath) shape).curveTo(266.97873, 272.06024, 267.27002, 275.23398, 269.28125, 273.60056);
	    ((GeneralPath) shape).curveTo(270.33328, 272.74683, 269.59802, 275.61426, 269.28125, 276.0696);
	    ((GeneralPath) shape).curveTo(268.9301, 276.5742, 267.75974, 276.93573, 267.0847, 277.4417);
	    ((GeneralPath) shape).curveTo(268.13104, 278.22922, 268.7047, 278.03906, 269.54877, 278.94165);
	    ((GeneralPath) shape).curveTo(270.89774, 280.3835, 266.07516, 280.5701, 268.88544, 282.69748);
	    ((GeneralPath) shape).curveTo(269.69687, 283.31146, 271.1504, 283.75516, 271.3173, 282.47653);
	    ((GeneralPath) shape).curveTo(271.40768, 281.78217, 272.56705, 283.8961, 273.08582, 284.02283);
	    ((GeneralPath) shape).curveTo(276.9421, 284.96613, 280.8735, 288.42596, 284.3609, 289.9875);
	    ((GeneralPath) shape).curveTo(285.99158, 290.718, 285.4565, 292.3022, 287.23495, 292.4176);
	    ((GeneralPath) shape).curveTo(288.0517, 292.4707, 285.9083, 289.13977, 285.9083, 287.99927);
	    ((GeneralPath) shape).curveTo(285.9083, 284.2473, 288.737, 288.47446, 289.22458, 289.54593);
	    ((GeneralPath) shape).curveTo(290.87616, 293.17783, 287.46317, 295.06866, 293.2038, 295.06866);
	    ((GeneralPath) shape).curveTo(295.0035, 295.06866, 298.26697, 297.14188, 298.7308, 298.16165);
	    ((GeneralPath) shape).curveTo(299.44196, 299.72568, 298.94376, 301.98868, 300.72043, 302.58002);
	    ((GeneralPath) shape).curveTo(303.96014, 303.32678, 300.1347, 300.8765, 300.27823, 299.92892);
	    ((GeneralPath) shape).curveTo(300.8565, 296.1136, 301.9252, 298.4559, 303.15228, 300.5918);
	    ((GeneralPath) shape).curveTo(303.60513, 301.3807, 304.64548, 305.383, 305.1419, 305.45206);
	    ((GeneralPath) shape).curveTo(306.68506, 305.667, 304.11963, 307.5235, 305.80524, 309.20755);
	    ((GeneralPath) shape).curveTo(306.09262, 309.49472, 307.128, 311.18338, 307.13153, 311.19614);
	    ((GeneralPath) shape).curveTo(307.59998, 312.7081, 308.85434, 313.62238, 310.00558, 315.17258);
	    ((GeneralPath) shape).curveTo(311.96118, 317.8049, 316.47974, 318.67877, 317.08, 321.8001);
	    ((GeneralPath) shape).curveTo(317.378, 323.34927, 320.53302, 328.20667, 321.94366, 328.20667);
	    ((GeneralPath) shape).curveTo(324.40454, 325.58356, 320.34558, 324.23624, 323.26996, 321.57913);
	    ((GeneralPath) shape).curveTo(324.50766, 320.4549, 326.9877, 327.47864, 327.02844, 327.7651);
	    ((GeneralPath) shape).curveTo(328.03442, 334.8037, 332.29605, 331.54822, 334.54504, 334.6136);
	    ((GeneralPath) shape).curveTo(336.67038, 337.5097, 335.2073, 342.66846, 340.2928, 343.4503);
	    ((GeneralPath) shape).curveTo(343.47052, 343.93857, 344.80246, 358.0328, 351.78864, 360.46118);
	    ((GeneralPath) shape).curveTo(357.08072, 362.29996, 353.8966, 364.63272, 356.8734, 367.30966);
	    ((GeneralPath) shape).curveTo(360.10995, 370.22064, 361.03833, 371.15475, 363.7267, 374.3791);
	    ((GeneralPath) shape).curveTo(364.04776, 376.30392, 364.37268, 376.16443, 364.83224, 377.25113);
	    ((GeneralPath) shape).curveTo(365.33292, 378.4338, 367.32468, 379.6083, 368.36926, 379.68127);
	    ((GeneralPath) shape).curveTo(369.91064, 379.7882, 369.26962, 380.06052, 369.91702, 381.00662);
	    ((GeneralPath) shape).curveTo(370.33267, 381.6139, 369.88513, 380.64688, 370.13812, 382.33234);
	    ((GeneralPath) shape).curveTo(370.23523, 382.98352, 372.76556, 385.50925, 373.2329, 387.1926);
	    ((GeneralPath) shape).curveTo(373.71234, 388.91702, 375.00177, 388.51938, 375.00177, 390.9481);
	    ((GeneralPath) shape).curveTo(375.00177, 391.79153, 375.0021, 393.46637, 375.22287, 394.26202);
	    ((GeneralPath) shape).curveTo(375.28488, 394.4851, 378.31766, 395.0428, 378.31766, 393.82013);
	    ((GeneralPath) shape).curveTo(378.31766, 390.7413, 377.43356, 388.0364, 377.43356, 384.54153);
	    ((GeneralPath) shape).curveTo(377.43356, 382.62872, 376.84747, 381.00098, 379.2021, 382.33237);
	    ((GeneralPath) shape).curveTo(380.4341, 383.0285, 380.4593, 385.30072, 380.20062, 387.7903);
	    ((GeneralPath) shape).curveTo(381.0195, 387.768, 381.83698, 387.81763, 382.13852, 388.16565);
	    ((GeneralPath) shape).curveTo(382.8805, 389.02396, 383.50485, 389.75763, 384.8276, 389.80792);
	    ((GeneralPath) shape).curveTo(387.94794, 389.92654, 385.86725, 386.61508, 385.7241, 385.03018);
	    ((GeneralPath) shape).curveTo(385.68228, 384.56808, 383.99384, 384.20444, 384.08066, 383.23883);
	    ((GeneralPath) shape).curveTo(384.20786, 381.83203, 384.47256, 379.6179, 385.12668, 378.4611);
	    ((GeneralPath) shape).curveTo(385.6975, 377.45053, 383.80286, 373.53427, 386.0228, 373.53427);
	    ((GeneralPath) shape).curveTo(386.7701, 373.53427, 388.5804, 372.31052, 389.01096, 371.5935);
	    ((GeneralPath) shape).curveTo(388.63962, 370.85028, 388.46634, 370.57303, 388.41354, 369.65237);
	    ((GeneralPath) shape).curveTo(388.39084, 369.25436, 388.38873, 369.20447, 387.9653, 369.20447);
	    ((GeneralPath) shape).curveTo(386.9533, 369.20447, 386.21912, 368.60748, 385.12668, 368.60748);
	    ((GeneralPath) shape).curveTo(384.23233, 368.60748, 384.08066, 368.46478, 384.08066, 369.3539);
	    ((GeneralPath) shape).curveTo(384.08066, 369.617, 382.90497, 370.11874, 382.58676, 369.95126);
	    ((GeneralPath) shape).curveTo(382.21292, 369.7551, 382.63425, 368.29376, 382.43723, 368.15958);
	    ((GeneralPath) shape).curveTo(382.09317, 367.92447, 381.6095, 368.39398, 381.54074, 367.86108);
	    ((GeneralPath) shape).curveTo(381.49854, 367.53568, 381.54074, 367.14758, 381.54074, 366.81583);
	    ((GeneralPath) shape).curveTo(381.54074, 364.68454, 381.71332, 364.87506, 383.78195, 364.87506);
	    ((GeneralPath) shape).curveTo(383.78195, 364.277, 378.9874, 364.51318, 378.70215, 363.08337);
	    ((GeneralPath) shape).curveTo(378.5675, 362.40848, 377.7146, 362.24878, 378.10437, 360.84412);
	    ((GeneralPath) shape).curveTo(378.5239, 359.33533, 379.5607, 356.78342, 377.35742, 355.91693);
	    ((GeneralPath) shape).curveTo(376.94, 355.753, 377.08, 354.8823, 377.05872, 354.4241);
	    ((GeneralPath) shape).curveTo(377.0133, 353.46027, 376.63138, 354.4181, 376.0127, 353.52826);
	    ((GeneralPath) shape).curveTo(375.84332, 353.285, 374.82388, 352.30096, 374.5188, 353.08032);
	    ((GeneralPath) shape).curveTo(374.25375, 353.7577, 374.07056, 353.75275, 374.07056, 354.57352);
	    ((GeneralPath) shape).curveTo(374.07056, 356.46402, 373.3176, 353.96838, 372.87537, 353.37918);
	    ((GeneralPath) shape).curveTo(372.87537, 350.46713, 373.56775, 346.60223, 372.57666, 345.0184);
	    ((GeneralPath) shape).curveTo(371.78046, 343.74545, 378.346, 343.02982, 374.36926, 341.73386);
	    ((GeneralPath) shape).curveTo(372.00403, 340.96228, 370.93323, 335.21964, 370.93323, 332.7757);
	    ((GeneralPath) shape).curveTo(370.93323, 330.48154, 364.15753, 329.4051, 363.6122, 326.953);
	    ((GeneralPath) shape).curveTo(362.64594, 327.53195, 363.34717, 328.31094, 362.11832, 328.59528);
	    ((GeneralPath) shape).curveTo(361.3108, 328.7826, 360.47488, 328.57797, 360.47488, 329.49112);
	    ((GeneralPath) shape).curveTo(360.47488, 329.70038, 360.48657, 330.53003, 360.47488, 330.5364);
	    ((GeneralPath) shape).curveTo(360.11523, 330.72797, 359.48557, 330.9089, 359.13016, 331.1334);
	    ((GeneralPath) shape).curveTo(359.09085, 331.15848, 359.17447, 332.01437, 359.13016, 331.87982);
	    ((GeneralPath) shape).curveTo(358.72516, 330.65927, 358.6139, 331.1688, 357.3372, 331.1334);
	    ((GeneralPath) shape).curveTo(356.9538, 331.12308, 356.08673, 331.0417, 355.99283, 330.6855);
	    ((GeneralPath) shape).curveTo(355.6849, 329.52512, 355.92374, 329.78964, 354.6481, 329.78964);
	    ((GeneralPath) shape).curveTo(354.028, 329.78964, 353.28778, 329.31198, 353.00467, 328.74472);
	    ((GeneralPath) shape).curveTo(352.60355, 327.94235, 353.00467, 324.18225, 353.00467, 323.22055);
	    ((GeneralPath) shape).curveTo(353.00467, 322.0354, 352.16666, 322.95074, 351.65994, 323.07147);
	    ((GeneralPath) shape).curveTo(350.80136, 323.2751, 350.89917, 321.62112, 351.06253, 321.13034);
	    ((GeneralPath) shape).curveTo(351.73364, 319.11414, 349.56827, 319.22073, 349.56827, 318.29373);
	    ((GeneralPath) shape).curveTo(349.56827, 317.22507, 348.76782, 315.762, 348.67178, 314.41183);
	    ((GeneralPath) shape).curveTo(348.6204, 313.68488, 347.6467, 313.99896, 347.32742, 313.6654);
	    ((GeneralPath) shape).curveTo(346.48126, 312.78125, 345.51392, 313.87112, 345.23575, 311.72464);
	    ((GeneralPath) shape).curveTo(345.04016, 310.21906, 342.69583, 310.10397, 342.69583, 308.7386);
	    ((GeneralPath) shape).curveTo(342.69583, 307.6646, 340.69806, 307.84274, 339.70767, 307.84274);
	    ((GeneralPath) shape).curveTo(337.9721, 307.84274, 338.2134, 305.8113, 338.2134, 304.40875);
	    ((GeneralPath) shape).lineTo(338.2134, 297.98907);
	    ((GeneralPath) shape).lineTo(337.01822, 297.98907);
	    ((GeneralPath) shape).curveTo(335.71887, 297.98907, 336.28262, 298.05847, 334.68454, 297.0578);
	    ((GeneralPath) shape).curveTo(334.68454, 294.11282, 335.24014, 296.04156, 336.9973, 294.36176);
	    ((GeneralPath) shape).curveTo(338.75943, 292.67734, 335.89212, 289.89844, 336.6118, 287.81357);
	    ((GeneralPath) shape).curveTo(337.2347, 286.0077, 338.52734, 286.73514, 340.46628, 286.65817);
	    ((GeneralPath) shape).curveTo(341.4937, 286.61737, 342.19537, 286.3677, 342.7558, 286.00888);
	    ((GeneralPath) shape).curveTo(342.7727, 285.28146, 342.42825, 285.87207, 342.42825, 285.36786);
	    ((GeneralPath) shape).lineTo(342.42825, 285.1954);
	    ((GeneralPath) shape).curveTo(342.42825, 284.96667, 341.92828, 285.32465, 341.73907, 285.1954);
	    ((GeneralPath) shape).curveTo(341.70218, 285.1699, 341.75717, 282.90833, 341.73907, 282.60843);
	    ((GeneralPath) shape).curveTo(341.71606, 282.22638, 340.87802, 282.42535, 340.87802, 282.0911);
	    ((GeneralPath) shape).lineTo(340.87802, 281.57376);
	    ((GeneralPath) shape).lineTo(340.01627, 280.53876);
	    ((GeneralPath) shape).curveTo(337.9611, 280.53876, 338.70947, 277.40045, 336.91614, 277.60687);
	    ((GeneralPath) shape).curveTo(335.14407, 277.81082, 335.5342, 278.02966, 334.33194, 275.88245);
	    ((GeneralPath) shape).curveTo(334.14557, 275.54926, 333.15057, 273.3748, 333.12613, 273.12302);
	    ((GeneralPath) shape).curveTo(333.08002, 272.65347, 333.34048, 270.42307, 332.95392, 270.3636);
	    ((GeneralPath) shape).curveTo(331.25308, 270.10263, 330.3683, 271.17657, 329.85342, 268.98404);
	    ((GeneralPath) shape).curveTo(329.48032, 267.39453, 326.53824, 269.52686, 325.90042, 267.94974);
	    ((GeneralPath) shape).lineTo(319.5177, 267.94974);
	    ((GeneralPath) shape).lineTo(314.69443, 261.2238);
	    ((GeneralPath) shape).lineTo(314.1778, 251.7384);
	    ((GeneralPath) shape).curveTo(313.64734, 251.34041, 311.93234, 251.93811, 311.7658, 251.22107);
	    ((GeneralPath) shape).curveTo(311.5323, 250.21404, 312.2105, 250.61913, 312.6272, 250.35886);
	    ((GeneralPath) shape).curveTo(312.82846, 250.2328, 312.81323, 249.27675, 312.97162, 249.15141);
	    ((GeneralPath) shape).curveTo(313.2278, 248.94994, 314.20294, 249.00517, 313.6608, 248.46164);
	    ((GeneralPath) shape).curveTo(313.48682, 248.28743, 313.833, 247.34695, 313.833, 246.73721);
	    ((GeneralPath) shape).curveTo(313.833, 245.79462, 313.9032, 244.87894, 313.14383, 244.66791);
	    ((GeneralPath) shape).curveTo(311.46426, 244.2005, 313.52722, 244.7295, 312.11023, 243.8057);
	    ((GeneralPath) shape).curveTo(311.76157, 243.578, 311.33743, 243.4091, 310.90475, 243.28836);
	    ((GeneralPath) shape).curveTo(310.14505, 243.07661, 307.26392, 242.0632, 307.80392, 240.87381);
	    ((GeneralPath) shape).curveTo(308.10938, 240.20103, 308.26706, 239.08388, 308.32056, 238.11438);
	    ((GeneralPath) shape).lineTo(300.13177, 238.15158);
	    ((GeneralPath) shape).lineTo(299.07733, 238.54956);
	    ((GeneralPath) shape).lineTo(294.10056, 250.24591);
	    ((GeneralPath) shape).lineTo(286.85538, 254.14445);
	    ((GeneralPath) shape).lineTo(286.85538, 256.37204);
	    ((GeneralPath) shape).lineTo(279.6102, 259.15662);
	    ((GeneralPath) shape).lineTo(276.12903, 258.2092);
	    ((GeneralPath) shape).closePath();
	    
	    g.setPaint(new Color(0x3c7a51));
	    g.fill(shape);
	    g.setPaint(Color.WHITE);
	    g.draw(shape);
	    if (this.drawSquares){ this.paintSquare(g, shape); }
	    this.detectMouse(g, shape, "Sinaloa");
	    /*
	     * 
	     * 
	     * 
	     * Durango
	     * 
	     * */
	    // _0_0_0_20
	    shape = new GeneralPath();
	    ((GeneralPath) shape).moveTo(389.01746, 371.5042);
	    ((GeneralPath) shape).curveTo(389.2031, 371.59692, 389.3443, 371.73447, 389.38684, 371.91925);
	    ((GeneralPath) shape).curveTo(389.52686, 372.52722, 390.24506, 373.2662, 389.98993, 373.92908);
	    ((GeneralPath) shape).curveTo(389.69937, 374.6847, 389.52185, 374.1334, 389.78903, 374.934);
	    ((GeneralPath) shape).lineTo(399.84448, 374.934);
	    ((GeneralPath) shape).lineTo(399.84448, 377.54648);
	    ((GeneralPath) shape).curveTo(399.84448, 378.1764, 399.6921, 378.20935, 400.04538, 378.35025);
	    ((GeneralPath) shape).curveTo(400.99252, 378.72806, 400.13928, 378.71106, 400.44757, 379.55594);
	    ((GeneralPath) shape).curveTo(400.6811, 380.19543, 404.00266, 381.34692, 402.4588, 382.57068);
	    ((GeneralPath) shape).curveTo(401.26962, 383.51328, 397.1749, 382.30194, 397.43106, 384.78128);
	    ((GeneralPath) shape).curveTo(397.59088, 386.32724, 398.3506, 385.98697, 399.64322, 385.98697);
	    ((GeneralPath) shape).curveTo(401.17963, 385.98697, 401.4532, 385.98996, 401.4532, 387.59488);
	    ((GeneralPath) shape).curveTo(401.02762, 388.68903, 400.77603, 388.74002, 400.84973, 389.80548);
	    ((GeneralPath) shape).curveTo(400.89835, 390.50305, 402.87442, 389.73538, 403.0619, 389.4036);
	    ((GeneralPath) shape).curveTo(403.4949, 388.63806, 404.85556, 388.82785, 405.07312, 388.19757);
	    ((GeneralPath) shape).curveTo(405.1635, 387.9366, 405.07312, 387.26807, 405.07312, 386.99188);
	    ((GeneralPath) shape).curveTo(405.07312, 386.5967, 405.19467, 385.40945, 405.47528, 385.3843);
	    ((GeneralPath) shape).curveTo(406.04364, 385.3333, 406.9178, 385.28662, 407.08435, 385.7862);
	    ((GeneralPath) shape).curveTo(407.08435, 388.1802, 407.2998, 389.45175, 409.4974, 389.60434);
	    ((GeneralPath) shape).curveTo(410.26172, 389.65744, 409.39395, 393.62363, 412.11172, 393.62363);
	    ((GeneralPath) shape).lineTo(421.3635, 393.61362);
	    ((GeneralPath) shape).curveTo(421.3605, 392.47726, 421.3501, 391.5048, 421.3501, 390.3622);
	    ((GeneralPath) shape).lineTo(421.3501, 388.1279);
	    ((GeneralPath) shape).curveTo(421.3501, 387.49515, 422.001, 387.61694, 422.40887, 387.305);
	    ((GeneralPath) shape).curveTo(423.51123, 386.46048, 422.02866, 382.85513, 423.11508, 382.131);
	    ((GeneralPath) shape).curveTo(423.94104, 381.58075, 424.12177, 381.65228, 424.88004, 381.30774);
	    ((GeneralPath) shape).curveTo(425.83713, 380.87326, 426.69177, 381.63776, 427.46884, 380.6024);
	    ((GeneralPath) shape).curveTo(427.46884, 380.32974, 427.35263, 377.7902, 427.46884, 377.66272);
	    ((GeneralPath) shape).curveTo(428.20163, 376.85718, 425.93915, 377.55154, 425.93915, 376.13412);
	    ((GeneralPath) shape).curveTo(425.93915, 375.45215, 426.0568, 374.91074, 426.0568, 374.13528);
	    ((GeneralPath) shape).curveTo(426.0568, 373.2773, 424.99765, 372.80887, 424.99765, 372.6067);
	    ((GeneralPath) shape).curveTo(424.99765, 369.95172, 424.2195, 368.60864, 427.4688, 368.60864);
	    ((GeneralPath) shape).curveTo(427.4688, 367.24008, 426.9756, 366.36655, 427.93936, 365.55142);
	    ((GeneralPath) shape).curveTo(428.8766, 364.7593, 427.57758, 361.3009, 428.9985, 360.61255);
	    ((GeneralPath) shape).curveTo(429.49103, 360.3739, 430.04523, 359.41537, 430.41055, 358.96637);
	    ((GeneralPath) shape).curveTo(431.59866, 357.50504, 433.54327, 358.32123, 434.52905, 355.67404);
	    ((GeneralPath) shape).curveTo(434.93903, 354.57175, 437.23514, 354.22333, 437.23514, 352.96948);
	    ((GeneralPath) shape).curveTo(437.23514, 351.7847, 436.64694, 351.0595, 436.64694, 350.02982);
	    ((GeneralPath) shape).curveTo(436.64694, 349.2979, 436.7646, 348.56778, 436.7646, 347.91342);
	    ((GeneralPath) shape).curveTo(436.7646, 346.47934, 435.82312, 345.8356, 435.82312, 344.26807);
	    ((GeneralPath) shape).curveTo(435.82312, 343.24155, 436.1764, 342.2083, 436.1764, 341.0933);
	    ((GeneralPath) shape).curveTo(437.52112, 340.75726, 438.6497, 340.5788, 439.00046, 339.212);
	    ((GeneralPath) shape).curveTo(439.35446, 337.83105, 439.07526, 337.80096, 440.88306, 337.80096);
	    ((GeneralPath) shape).curveTo(441.64877, 337.80096, 444.1777, 337.5754, 444.1777, 336.62503);
	    ((GeneralPath) shape).curveTo(444.1777, 334.49905, 444.31946, 334.9123, 445.00156, 333.68536);
	    ((GeneralPath) shape).curveTo(445.30557, 333.13794, 445.28433, 332.6592, 445.7074, 332.27432);
	    ((GeneralPath) shape).curveTo(445.82645, 332.16632, 447.7895, 331.67413, 448.17856, 331.56897);
	    ((GeneralPath) shape).curveTo(450.92612, 330.82645, 448.82666, 326.924, 450.76736, 326.27744);
	    ((GeneralPath) shape).curveTo(451.73364, 327.10495, 453.38876, 327.10458, 454.41495, 327.80603);
	    ((GeneralPath) shape).curveTo(455.0765, 328.25784, 456.2692, 328.82935, 457.00375, 328.98196);
	    ((GeneralPath) shape).curveTo(457.65112, 329.11652, 457.83893, 328.91968, 458.29816, 328.74686);
	    ((GeneralPath) shape).curveTo(459.57767, 328.2653, 459.6436, 328.20758, 459.7102, 326.74802);
	    ((GeneralPath) shape).curveTo(459.78812, 325.0222, 465.6174, 327.3029, 466.65244, 327.92358);
	    ((GeneralPath) shape).curveTo(468.4167, 329.40863, 467.05286, 329.9228, 469.59418, 329.9228);
	    ((GeneralPath) shape).curveTo(470.95343, 329.9228, 470.79965, 329.8743, 471.83008, 330.7457);
	    ((GeneralPath) shape).curveTo(473.78427, 332.3979, 472.8424, 329.8534, 473.35977, 328.98196);
	    ((GeneralPath) shape).curveTo(473.98553, 327.92856, 477.00558, 328.5128, 478.1841, 327.80603);
	    ((GeneralPath) shape).curveTo(478.96152, 326.8999, 478.30176, 324.91098, 478.30176, 323.6908);
	    ((GeneralPath) shape).curveTo(478.30176, 322.61118, 476.64273, 320.04544, 475.71295, 320.04544);
	    ((GeneralPath) shape).curveTo(474.70874, 320.04544, 476.3015, 318.804, 476.3015, 317.69357);
	    ((GeneralPath) shape).curveTo(476.3015, 316.4291, 475.57617, 311.6311, 475.12476, 311.57913);
	    ((GeneralPath) shape).curveTo(472.98096, 311.33224, 472.2003, 309.3654, 471.63226, 307.7613);
	    ((GeneralPath) shape).lineTo(469.35962, 310.45453);
	    ((GeneralPath) shape).lineTo(467.76227, 315.47165);
	    ((GeneralPath) shape).curveTo(467.69138, 315.8976, 467.52237, 316.46805, 467.30588, 316.61182);
	    ((GeneralPath) shape).lineTo(465.9367, 317.52396);
	    ((GeneralPath) shape).curveTo(463.54208, 317.52396, 462.66544, 316.171, 461.82886, 314.33145);
	    ((GeneralPath) shape).curveTo(461.73065, 314.1158, 457.63168, 314.01276, 456.58002, 313.4193);
	    ((GeneralPath) shape).curveTo(453.34418, 311.5915, 450.8748, 307.97516, 450.8748, 304.06918);
	    ((GeneralPath) shape).curveTo(450.8748, 299.81335, 446.04724, 305.6757, 448.13644, 298.36832);
	    ((GeneralPath) shape).curveTo(448.13644, 297.56348, 447.86963, 296.1818, 448.59283, 296.08762);
	    ((GeneralPath) shape).curveTo(449.2714, 295.99982, 449.7891, 295.96405, 450.4184, 295.8596);
	    ((GeneralPath) shape).curveTo(451.23657, 295.72363, 450.71603, 295.47577, 450.64658, 295.17548);
	    ((GeneralPath) shape).curveTo(450.41733, 294.18118, 450.28088, 294.59195, 449.5056, 294.49136);
	    ((GeneralPath) shape).curveTo(449.00598, 294.42657, 449.32135, 291.85373, 449.04922, 291.29886);
	    ((GeneralPath) shape).curveTo(448.80542, 290.80206, 448.59283, 290.71213, 448.59283, 290.15833);
	    ((GeneralPath) shape).curveTo(448.92874, 289.15164, 449.83658, 289.70935, 450.4184, 289.01816);
	    ((GeneralPath) shape).curveTo(450.9343, 288.40628, 451.4736, 287.34155, 451.7879, 286.7378);
	    ((GeneralPath) shape).curveTo(452.94162, 284.5194, 452.39136, 281.15625, 452.01608, 278.5282);
	    ((GeneralPath) shape).curveTo(451.59973, 277.9043, 451.18835, 277.7669, 450.87476, 277.38803);
	    ((GeneralPath) shape).curveTo(450.6735, 277.1444, 450.66888, 276.79105, 450.64655, 276.47556);
	    ((GeneralPath) shape).curveTo(450.59515, 275.75003, 450.4598, 275.9632, 450.41837, 275.56342);
	    ((GeneralPath) shape).curveTo(450.29257, 274.3432, 450.3071, 274.94128, 451.10294, 274.42325);
	    ((GeneralPath) shape).curveTo(452.19394, 273.714, 451.78787, 270.91278, 451.78787, 269.63416);
	    ((GeneralPath) shape).lineTo(454.7544, 266.44168);
	    ((GeneralPath) shape).lineTo(452.47244, 261.6526);
	    ((GeneralPath) shape).lineTo(450.87473, 256.40778);
	    ((GeneralPath) shape).lineTo(440.9549, 251.92702);
	    ((GeneralPath) shape).lineTo(427.17468, 250.67929);
	    ((GeneralPath) shape).lineTo(420.80612, 255.5321);
	    ((GeneralPath) shape).curveTo(420.72034, 255.79094, 419.64496, 256.7615, 419.42847, 256.91165);
	    ((GeneralPath) shape).curveTo(419.1893, 257.07843, 418.01535, 257.87585, 417.87787, 258.1191);
	    ((GeneralPath) shape).curveTo(416.93637, 259.7904, 418.33176, 264.01013, 415.811, 264.1553);
	    ((GeneralPath) shape).curveTo(414.17963, 264.2491, 412.12375, 262.58704, 411.50436, 261.22342);
	    ((GeneralPath) shape).curveTo(410.6589, 259.3609, 410.0349, 259.47067, 407.7147, 258.464);
	    ((GeneralPath) shape).curveTo(405.91357, 259.06558, 405.2166, 258.9491, 403.7528, 259.84354);
	    ((GeneralPath) shape).curveTo(401.92868, 260.95892, 401.17322, 261.35443, 400.47977, 259.3262);
	    ((GeneralPath) shape).curveTo(400.38055, 259.0355, 399.51102, 258.3029, 399.10175, 258.63644);
	    ((GeneralPath) shape).curveTo(397.92108, 259.59744, 398.58478, 260.54642, 398.58478, 262.08563);
	    ((GeneralPath) shape).curveTo(398.58478, 264.84683, 392.56348, 257.89142, 389.97186, 257.77423);
	    ((GeneralPath) shape).curveTo(389.3943, 257.74802, 387.20764, 256.73178, 387.04324, 256.56677);
	    ((GeneralPath) shape).curveTo(386.66516, 256.18823, 386.69138, 253.09491, 385.1486, 254.15257);
	    ((GeneralPath) shape).curveTo(384.3609, 254.69185, 385.00226, 255.3965, 383.59836, 254.84235);
	    ((GeneralPath) shape).curveTo(381.20654, 253.89905, 379.97522, 249.67546, 376.01904, 249.49593);
	    ((GeneralPath) shape).curveTo(373.23004, 249.36952, 376.62177, 246.46986, 371.71204, 247.94394);
	    ((GeneralPath) shape).curveTo(371.71204, 249.1089, 369.87018, 249.85072, 369.30075, 251.04826);
	    ((GeneralPath) shape).curveTo(368.5981, 252.52446, 368.50702, 252.36832, 366.71692, 253.11757);
	    ((GeneralPath) shape).curveTo(363.83047, 254.32571, 366.44974, 259.5907, 364.6497, 261.39587);
	    ((GeneralPath) shape).curveTo(361.93723, 264.11493, 359.30945, 267.34604, 359.30945, 271.91556);
	    ((GeneralPath) shape).curveTo(359.30945, 275.51135, 357.47504, 274.10773, 356.89816, 276.7443);
	    ((GeneralPath) shape).curveTo(355.04886, 285.19858, 359.49582, 283.22592, 350.86765, 288.89847);
	    ((GeneralPath) shape).curveTo(348.023, 290.76877, 351.492, 288.64423, 348.11264, 288.64423);
	    ((GeneralPath) shape).curveTo(347.33487, 288.64423, 346.9465, 287.20273, 345.87357, 287.0919);
	    ((GeneralPath) shape).curveTo(344.5565, 286.95627, 344.17343, 286.55792, 342.75586, 286.00848);
	    ((GeneralPath) shape).curveTo(342.19543, 286.36728, 341.49377, 286.61697, 340.46634, 286.65778);
	    ((GeneralPath) shape).curveTo(338.5274, 286.73477, 337.23477, 286.0073, 336.61185, 287.81317);
	    ((GeneralPath) shape).curveTo(335.89218, 289.89807, 338.7595, 292.67697, 336.99738, 294.36136);
	    ((GeneralPath) shape).curveTo(335.2402, 296.04117, 334.6846, 294.11243, 334.6846, 297.0574);
	    ((GeneralPath) shape).curveTo(336.28268, 298.05807, 335.71893, 297.98868, 337.01828, 297.98868);
	    ((GeneralPath) shape).lineTo(338.21347, 297.98868);
	    ((GeneralPath) shape).lineTo(338.21347, 304.40836);
	    ((GeneralPath) shape).curveTo(338.21347, 305.8109, 337.97217, 307.84235, 339.70773, 307.84235);
	    ((GeneralPath) shape).curveTo(340.69812, 307.84235, 342.6959, 307.66425, 342.6959, 308.7382);
	    ((GeneralPath) shape).curveTo(342.6959, 310.10355, 345.0402, 310.21863, 345.2358, 311.72424);
	    ((GeneralPath) shape).curveTo(345.51395, 313.87076, 346.48132, 312.78085, 347.32748, 313.665);
	    ((GeneralPath) shape).curveTo(347.64676, 313.99857, 348.62045, 313.6845, 348.67184, 314.41144);
	    ((GeneralPath) shape).curveTo(348.76785, 315.7616, 349.56833, 317.2247, 349.56833, 318.29333);
	    ((GeneralPath) shape).curveTo(349.56833, 319.22034, 351.7337, 319.11377, 351.0626, 321.12994);
	    ((GeneralPath) shape).curveTo(350.89923, 321.62073, 350.80145, 323.2747, 351.66, 323.07108);
	    ((GeneralPath) shape).curveTo(352.16672, 322.95032, 353.00473, 322.035, 353.00473, 323.22015);
	    ((GeneralPath) shape).curveTo(353.00473, 324.18185, 352.6036, 327.94196, 353.00473, 328.74432);
	    ((GeneralPath) shape).curveTo(353.28784, 329.31158, 354.02805, 329.78925, 354.64816, 329.78925);
	    ((GeneralPath) shape).curveTo(355.9238, 329.78925, 355.68497, 329.52475, 355.9929, 330.6851);
	    ((GeneralPath) shape).curveTo(356.0868, 331.0413, 356.95386, 331.12274, 357.33725, 331.133);
	    ((GeneralPath) shape).curveTo(358.61395, 331.1684, 358.7252, 330.65887, 359.13022, 331.87943);
	    ((GeneralPath) shape).curveTo(359.17453, 332.01398, 359.0909, 331.15814, 359.13022, 331.133);
	    ((GeneralPath) shape).curveTo(359.48563, 330.9085, 360.11526, 330.72757, 360.47495, 330.536);
	    ((GeneralPath) shape).curveTo(360.48663, 330.53, 360.47495, 329.7, 360.47495, 329.49072);
	    ((GeneralPath) shape).curveTo(360.47495, 328.5775, 361.31082, 328.7822, 362.11838, 328.59488);
	    ((GeneralPath) shape).curveTo(363.34723, 328.31055, 362.646, 327.53152, 363.61227, 326.9526);
	    ((GeneralPath) shape).curveTo(364.1576, 329.4047, 370.9333, 330.48114, 370.9333, 332.7753);
	    ((GeneralPath) shape).curveTo(370.9333, 335.21924, 372.0041, 340.96188, 374.36932, 341.73346);
	    ((GeneralPath) shape).curveTo(378.34607, 343.02942, 371.78052, 343.74506, 372.57672, 345.018);
	    ((GeneralPath) shape).curveTo(373.5678, 346.60184, 372.87543, 350.46677, 372.87543, 353.37878);
	    ((GeneralPath) shape).curveTo(373.31766, 353.968, 374.07062, 356.46362, 374.07062, 354.57312);
	    ((GeneralPath) shape).curveTo(374.07062, 353.75235, 374.2538, 353.7573, 374.51886, 353.07993);
	    ((GeneralPath) shape).curveTo(374.82394, 352.30057, 375.84338, 353.2846, 376.01276, 353.52786);
	    ((GeneralPath) shape).curveTo(376.63144, 354.4177, 377.0134, 353.45987, 377.05878, 354.4237);
	    ((GeneralPath) shape).curveTo(377.08008, 354.8819, 376.94006, 355.7526, 377.35748, 355.91653);
	    ((GeneralPath) shape).curveTo(379.56076, 356.783, 378.524, 359.33493, 378.10443, 360.84372);
	    ((GeneralPath) shape).curveTo(377.71466, 362.2484, 378.56757, 362.4081, 378.7022, 363.08298);
	    ((GeneralPath) shape).curveTo(378.98746, 364.5128, 383.782, 364.2766, 383.782, 364.87466);
	    ((GeneralPath) shape).curveTo(381.71338, 364.87466, 381.5408, 364.68417, 381.5408, 366.81543);
	    ((GeneralPath) shape).curveTo(381.5408, 367.14722, 381.4986, 367.53528, 381.5408, 367.8607);
	    ((GeneralPath) shape).curveTo(381.6096, 368.3936, 382.09323, 367.92407, 382.4373, 368.15918);
	    ((GeneralPath) shape).curveTo(382.6343, 368.29337, 382.21298, 369.75473, 382.58682, 369.95087);
	    ((GeneralPath) shape).curveTo(382.905, 370.11835, 384.08072, 369.6166, 384.08072, 369.35352);
	    ((GeneralPath) shape).curveTo(384.08072, 368.4644, 384.2324, 368.6071, 385.12674, 368.6071);
	    ((GeneralPath) shape).curveTo(386.21918, 368.6071, 386.95337, 369.20407, 387.96536, 369.20407);
	    ((GeneralPath) shape).curveTo(388.3888, 369.20407, 388.39093, 369.25397, 388.4136, 369.65198);
	    ((GeneralPath) shape).curveTo(388.4664, 370.57263, 388.6462, 370.7606, 389.01758, 371.50385);
	    ((GeneralPath) shape).closePath();
	
	    g.setPaint(new Color(0x3c7a51));
	    g.fill(shape);
	    g.setPaint(Color.WHITE);
	    g.draw(shape);
	    if (this.drawSquares){ this.paintSquare(g, shape); }
	    this.detectMouse(g, shape, "Durango");
	    /*
	     * 
	     * Nayarit
	     * 
	     * */
	    // _0_0_0_21
	    shape = new GeneralPath();
	    ((GeneralPath) shape).moveTo(362.04495, 430.1697);
	    ((GeneralPath) shape).curveTo(361.92813, 430.59125, 361.734, 431.14767, 361.2249, 431.19324);
	    ((GeneralPath) shape).curveTo(360.70786, 431.16135, 360.0766, 431.008, 359.65918, 431.40897);
	    ((GeneralPath) shape).curveTo(359.51547, 431.95325, 358.75742, 431.6002, 359.1361, 431.1556);
	    ((GeneralPath) shape).curveTo(359.4047, 430.74585, 359.25516, 429.92715, 358.61816, 430.22464);
	    ((GeneralPath) shape).curveTo(358.19012, 430.40732, 357.55035, 430.62012, 357.25845, 430.11072);
	    ((GeneralPath) shape).curveTo(357.0849, 429.958, 356.9132, 429.48795, 357.33386, 429.6211);
	    ((GeneralPath) shape).curveTo(357.78964, 429.47946, 358.59308, 429.205, 358.47763, 428.61682);
	    ((GeneralPath) shape).curveTo(358.33792, 428.24866, 358.54764, 427.96112, 358.8627, 427.8783);
	    ((GeneralPath) shape).curveTo(359.1194, 427.52975, 359.66718, 427.1904, 360.05643, 427.53784);
	    ((GeneralPath) shape).curveTo(360.3362, 427.95343, 360.06042, 428.67493, 360.6179, 428.94403);
	    ((GeneralPath) shape).curveTo(360.99396, 429.3654, 361.58884, 429.49057, 361.99564, 429.84244);
	    ((GeneralPath) shape).curveTo(362.05432, 429.93933, 362.07333, 430.05972, 362.04504, 430.16968);
	    ((GeneralPath) shape).closePath();
	    ((GeneralPath) shape).moveTo(353.58118, 422.4987);
	    ((GeneralPath) shape).curveTo(354.3494, 422.4987, 356.33688, 422.1492, 356.33688, 423.0886);
	    ((GeneralPath) shape).curveTo(356.33688, 423.85202, 356.26178, 423.73764, 356.53354, 424.07227);
	    ((GeneralPath) shape).curveTo(356.99384, 424.63846, 356.38046, 424.2688, 357.1242, 424.2688);
	    ((GeneralPath) shape).lineTo(357.71454, 424.2688);
	    ((GeneralPath) shape).curveTo(358.4193, 424.2688, 358.7928, 424.03934, 358.69855, 424.85907);
	    ((GeneralPath) shape).curveTo(358.61566, 425.5853, 358.42856, 425.24573, 357.91156, 425.44897);
	    ((GeneralPath) shape).curveTo(357.78967, 425.49677, 357.84286, 425.62036, 357.71454, 425.64584);
	    ((GeneralPath) shape).curveTo(357.52213, 425.68405, 357.4736, 425.71915, 357.32086, 425.84238);
	    ((GeneralPath) shape).curveTo(357.2195, 425.9246, 357.21667, 425.94647, 357.1242, 426.03925);
	    ((GeneralPath) shape).curveTo(356.98672, 426.17627, 356.05728, 426.48575, 355.7462, 426.62915);
	    ((GeneralPath) shape).curveTo(355.58426, 427.11462, 355.14523, 426.9213, 354.95883, 427.21906);
	    ((GeneralPath) shape).curveTo(354.86102, 427.37558, 355.06265, 428.61594, 354.56516, 428.39923);
	    ((GeneralPath) shape).curveTo(354.2232, 428.25015, 353.1875, 426.97403, 353.1875, 426.62912);
	    ((GeneralPath) shape).curveTo(353.1875, 424.6809, 353.7477, 425.5516, 352.2035, 425.6458);
	    ((GeneralPath) shape).curveTo(350.525, 425.74744, 350.12775, 425.5038, 350.82547, 424.26874);
	    ((GeneralPath) shape).curveTo(351.31445, 423.40442, 349.91553, 421.42645, 348.66046, 421.90836);
	    ((GeneralPath) shape).curveTo(346.42316, 422.7688, 346.49545, 419.58694, 346.49545, 417.97476);
	    ((GeneralPath) shape).curveTo(346.49545, 415.9699, 351.56995, 415.49152, 352.20352, 416.40118);
	    ((GeneralPath) shape).curveTo(352.3977, 416.6802, 352.56247, 417.90112, 352.5972, 418.1713);
	    ((GeneralPath) shape).curveTo(352.6521, 418.5973, 352.5972, 419.1185, 352.5972, 419.54837);
	    ((GeneralPath) shape).curveTo(352.5972, 420.62057, 353.2467, 419.2736, 353.97485, 419.15497);
	    ((GeneralPath) shape).curveTo(354.98615, 418.99033, 354.59354, 419.49985, 354.1715, 419.54837);
	    ((GeneralPath) shape).curveTo(353.1535, 419.66486, 353.1875, 420.7013, 353.58118, 422.49866);
	    ((GeneralPath) shape).lineTo(353.58118, 422.49866);
	    ((GeneralPath) shape).closePath();
	    ((GeneralPath) shape).moveTo(371.2957, 413.2541);
	    ((GeneralPath) shape).curveTo(371.59125, 412.87088, 372.00607, 412.53146, 372.08316, 412.0264);
	    ((GeneralPath) shape).curveTo(372.12238, 411.69183, 372.12167, 411.35126, 372.06625, 411.01855);
	    ((GeneralPath) shape).curveTo(371.93164, 410.80417, 371.65103, 410.86264, 371.44092, 410.88995);
	    ((GeneralPath) shape).curveTo(371.15192, 410.92917, 370.81604, 410.78833, 370.56665, 410.99512);
	    ((GeneralPath) shape).curveTo(370.29782, 411.10715, 370.38293, 411.4287, 370.52225, 411.59143);
	    ((GeneralPath) shape).curveTo(370.53314, 411.81253, 370.45166, 412.09137, 370.65106, 412.25357);
	    ((GeneralPath) shape).curveTo(370.9605, 412.51016, 371.1168, 412.90393, 371.29565, 413.2541);
	    ((GeneralPath) shape).closePath();
	    ((GeneralPath) shape).moveTo(346.2984, 415.22107);
	    ((GeneralPath) shape).curveTo(346.8267, 415.16998, 347.34454, 414.9411, 347.8815, 415.03793);
	    ((GeneralPath) shape).curveTo(348.18738, 414.8882, 348.1457, 414.50546, 348.22894, 414.22733);
	    ((GeneralPath) shape).curveTo(348.31555, 413.92844, 348.4661, 413.49344, 348.16293, 413.2713);
	    ((GeneralPath) shape).curveTo(347.86224, 413.1209, 347.8463, 412.66254, 347.49136, 412.58737);
	    ((GeneralPath) shape).curveTo(347.19165, 412.45, 346.92996, 412.1543, 346.5675, 412.2566);
	    ((GeneralPath) shape).curveTo(346.2469, 412.3224, 345.89157, 412.52234, 345.7693, 412.83847);
	    ((GeneralPath) shape).curveTo(345.68057, 413.14636, 345.95145, 413.38712, 345.9256, 413.69208);
	    ((GeneralPath) shape).curveTo(345.9509, 414.0628, 345.9998, 414.43393, 346.13538, 414.78223);
	    ((GeneralPath) shape).curveTo(346.18338, 414.93076, 346.2381, 415.07715, 346.2984, 415.2211);
	    ((GeneralPath) shape).closePath();
	    ((GeneralPath) shape).moveTo(380.2021, 387.7876);
	    ((GeneralPath) shape).curveTo(381.02097, 387.7653, 381.83694, 387.8176, 382.1385, 388.16568);
	    ((GeneralPath) shape).curveTo(382.88046, 389.024, 383.50482, 389.75766, 384.82758, 389.80795);
	    ((GeneralPath) shape).curveTo(387.9479, 389.92657, 385.86722, 386.6151, 385.72406, 385.0302);
	    ((GeneralPath) shape).curveTo(385.68225, 384.5681, 383.9938, 384.20447, 384.08063, 383.23886);
	    ((GeneralPath) shape).curveTo(384.20782, 381.83206, 384.47253, 379.61792, 385.12665, 378.46112);
	    ((GeneralPath) shape).curveTo(385.69748, 377.45056, 383.80283, 373.5343, 386.02277, 373.5343);
	    ((GeneralPath) shape).curveTo(386.77008, 373.5343, 388.58038, 372.31055, 389.01746, 371.54843);
	    ((GeneralPath) shape).curveTo(389.20966, 371.59604, 389.3443, 371.73453, 389.38684, 371.9193);
	    ((GeneralPath) shape).curveTo(389.52686, 372.52728, 390.24506, 373.26627, 389.98993, 373.92914);
	    ((GeneralPath) shape).curveTo(389.69937, 374.68475, 389.52185, 374.13345, 389.78903, 374.93405);
	    ((GeneralPath) shape).lineTo(399.84448, 374.93405);
	    ((GeneralPath) shape).lineTo(399.84448, 377.54654);
	    ((GeneralPath) shape).curveTo(399.84448, 378.17645, 399.6921, 378.2094, 400.04538, 378.3503);
	    ((GeneralPath) shape).curveTo(400.99252, 378.72812, 400.13928, 378.71112, 400.44757, 379.556);
	    ((GeneralPath) shape).curveTo(400.6811, 380.1955, 404.00266, 381.347, 402.4588, 382.57074);
	    ((GeneralPath) shape).curveTo(401.26962, 383.51334, 397.1749, 382.302, 397.43106, 384.78134);
	    ((GeneralPath) shape).curveTo(397.59088, 386.3273, 398.3506, 385.98703, 399.64322, 385.98703);
	    ((GeneralPath) shape).curveTo(401.17963, 385.98703, 401.4532, 385.99002, 401.4532, 387.59494);
	    ((GeneralPath) shape).curveTo(401.02762, 388.6891, 400.77603, 388.74008, 400.84973, 389.80554);
	    ((GeneralPath) shape).curveTo(400.89835, 390.5031, 402.87442, 389.73544, 403.0619, 389.40366);
	    ((GeneralPath) shape).curveTo(403.4949, 388.63812, 404.85556, 388.8279, 405.07312, 388.19763);
	    ((GeneralPath) shape).curveTo(405.1635, 387.93668, 405.07312, 387.26813, 405.07312, 386.99194);
	    ((GeneralPath) shape).curveTo(405.07312, 386.59677, 405.19467, 385.40952, 405.47528, 385.38437);
	    ((GeneralPath) shape).curveTo(406.04364, 385.33337, 406.9178, 385.28668, 407.08435, 385.78625);
	    ((GeneralPath) shape).curveTo(407.08435, 388.18027, 407.2998, 389.4518, 409.4974, 389.6044);
	    ((GeneralPath) shape).curveTo(410.26172, 389.6575, 409.39395, 393.6237, 412.11172, 393.6237);
	    ((GeneralPath) shape).lineTo(421.36282, 393.6237);
	    ((GeneralPath) shape).curveTo(421.32062, 394.2968, 421.1658, 396.1742, 420.96063, 396.8392);
	    ((GeneralPath) shape).curveTo(420.91983, 396.9702, 420.208, 397.04352, 420.15628, 397.44223);
	    ((GeneralPath) shape).curveTo(420.00427, 398.61072, 420.2378, 398.76334, 419.55283, 399.65283);
	    ((GeneralPath) shape).curveTo(419.22647, 400.07666, 419.35156, 400.70908, 419.35156, 401.2604);
	    ((GeneralPath) shape).curveTo(419.35156, 402.2855, 418.14505, 401.59964, 418.14505, 403.0691);
	    ((GeneralPath) shape).curveTo(418.14505, 404.37286, 418.27014, 406.10968, 417.9438, 407.08838);
	    ((GeneralPath) shape).curveTo(419.92456, 408.0023, 420.20624, 406.78067, 421.96625, 406.8876);
	    ((GeneralPath) shape).curveTo(422.04065, 406.8916, 423.47467, 407.19815, 423.97714, 407.2895);
	    ((GeneralPath) shape).curveTo(425.02634, 407.47964, 425.70596, 409.76636, 424.7815, 410.505);
	    ((GeneralPath) shape).curveTo(423.77872, 411.3063, 424.24432, 414.85715, 426.59146, 413.72052);
	    ((GeneralPath) shape).curveTo(427.3182, 413.3682, 428.29193, 413.4978, 429.20615, 414.1224);
	    ((GeneralPath) shape).curveTo(430.02042, 414.67938, 429.44247, 415.5292, 431.0161, 415.5292);
	    ((GeneralPath) shape).curveTo(431.37433, 417.3209, 430.94843, 416.56384, 432.02136, 417.3379);
	    ((GeneralPath) shape).curveTo(432.91748, 417.98447, 431.53168, 422.67618, 432.22263, 423.36664);
	    ((GeneralPath) shape).curveTo(432.25342, 423.39783, 432.75308, 423.35864, 432.8257, 423.36664);
	    ((GeneralPath) shape).curveTo(432.98624, 423.38474, 433.06952, 423.53873, 433.22824, 423.56775);
	    ((GeneralPath) shape).curveTo(437.6185, 424.36905, 434.83694, 426.05417, 434.83694, 428.99384);
	    ((GeneralPath) shape).curveTo(434.83694, 430.81174, 434.82895, 431.83932, 433.6304, 432.812);
	    ((GeneralPath) shape).curveTo(432.47702, 433.7486, 431.77438, 431.2919, 430.41266, 432.0082);
	    ((GeneralPath) shape).curveTo(430.32657, 432.0535, 430.2114, 432.38425, 430.2114, 432.61124);
	    ((GeneralPath) shape).curveTo(430.2114, 433.89304, 429.40952, 433.59985, 429.20615, 434.82184);
	    ((GeneralPath) shape).curveTo(428.51624, 434.66284, 428.24164, 434.6207, 427.59708, 434.6207);
	    ((GeneralPath) shape).curveTo(427.2778, 434.6207, 426.91074, 434.64938, 426.59146, 434.6207);
	    ((GeneralPath) shape).curveTo(425.85373, 434.5541, 426.45184, 434.682, 425.98837, 434.2188);
	    ((GeneralPath) shape).curveTo(425.87427, 434.1048, 425.746, 434.0361, 425.58618, 434.01804);
	    ((GeneralPath) shape).curveTo(425.0235, 433.95325, 425.37146, 434.1788, 424.98273, 434.2188);
	    ((GeneralPath) shape).curveTo(424.27618, 434.29102, 423.4853, 434.2188, 422.7706, 434.2188);
	    ((GeneralPath) shape).lineTo(422.7706, 442.25986);
	    ((GeneralPath) shape).lineTo(419.35156, 445.674);
	    ((GeneralPath) shape).lineTo(421.76498, 448.6884);
	    ((GeneralPath) shape).lineTo(422.16718, 454.31558);
	    ((GeneralPath) shape).curveTo(421.53787, 453.26712, 421.80008, 453.00757, 421.56372, 451.90387);
	    ((GeneralPath) shape).curveTo(421.28378, 450.5955, 419.6166, 451.27536, 418.9494, 450.09518);
	    ((GeneralPath) shape).curveTo(418.64856, 449.56335, 418.21237, 448.16858, 417.74286, 447.4827);
	    ((GeneralPath) shape).curveTo(416.98352, 446.3737, 411.86224, 445.18817, 411.70953, 443.8653);
	    ((GeneralPath) shape).curveTo(411.51605, 442.18338, 410.53384, 442.2574, 408.89432, 442.2574);
	    ((GeneralPath) shape).curveTo(408.51447, 442.2574, 408.18494, 440.82968, 408.0896, 440.4487);
	    ((GeneralPath) shape).curveTo(406.3165, 439.6612, 401.55627, 438.7781, 401.051, 441.25284);
	    ((GeneralPath) shape).curveTo(400.51486, 443.8795, 398.16916, 441.77158, 396.8276, 442.8604);
	    ((GeneralPath) shape).curveTo(395.76068, 443.72687, 394.69095, 443.67056, 394.0124, 444.87024);
	    ((GeneralPath) shape).curveTo(393.2559, 446.20764, 390.5643, 446.3174, 390.1912, 447.8846);
	    ((GeneralPath) shape).curveTo(389.91516, 449.04355, 389.85175, 449.7025, 389.4145, 450.38132);
	    ((GeneralPath) shape).curveTo(389.1682, 449.86115, 388.65338, 449.53256, 387.60382, 449.49362);
	    ((GeneralPath) shape).curveTo(385.8867, 449.43063, 384.21918, 449.27267, 382.51904, 449.27267);
	    ((GeneralPath) shape).curveTo(382.72208, 446.62796, 384.86972, 445.84613, 385.3931, 444.4124);
	    ((GeneralPath) shape).curveTo(386.3739, 441.7277, 390.5335, 441.62112, 391.1412, 439.33157);
	    ((GeneralPath) shape).curveTo(391.9569, 436.25595, 389.2905, 433.47668, 390.47787, 430.0526);
	    ((GeneralPath) shape).curveTo(391.52707, 427.02762, 392.13123, 425.23306, 388.93048, 422.9832);
	    ((GeneralPath) shape).curveTo(387.7888, 422.18082, 385.26273, 416.19208, 383.4035, 415.91376);
	    ((GeneralPath) shape).curveTo(381.8299, 415.67792, 378.63266, 408.2466, 378.53983, 406.8561);
	    ((GeneralPath) shape).curveTo(378.34885, 405.90005, 378.04907, 406.11536, 378.0976, 405.08884);
	    ((GeneralPath) shape).curveTo(378.1341, 404.32187, 378.70493, 403.7511, 378.76093, 403.32156);
	    ((GeneralPath) shape).curveTo(378.91153, 402.16403, 377.43463, 399.47473, 377.43463, 398.0194);
	    ((GeneralPath) shape).curveTo(377.43463, 397.53857, 377.2277, 396.0312, 377.6554, 396.0312);
	    ((GeneralPath) shape).curveTo(378.98523, 396.0312, 377.9399, 396.0875, 378.31873, 396.69406);
	    ((GeneralPath) shape).curveTo(378.8559, 397.55237, 379.20316, 398.93475, 379.20316, 400.2286);
	    ((GeneralPath) shape).curveTo(379.20316, 402.03976, 379.12985, 401.37054, 380.08725, 402.21683);
	    ((GeneralPath) shape).curveTo(380.5153, 402.59534, 380.46393, 404.7199, 380.08725, 404.86792);
	    ((GeneralPath) shape).curveTo(378.5721, 405.46457, 380.23962, 406.05945, 380.30835, 405.9727);
	    ((GeneralPath) shape).curveTo(380.91357, 405.20468, 381.3207, 404.79675, 382.0772, 404.42603);
	    ((GeneralPath) shape).curveTo(383.13174, 403.9087, 382.59988, 404.91998, 382.74017, 405.30984);
	    ((GeneralPath) shape).curveTo(382.81348, 405.51202, 383.39536, 405.9589, 383.4035, 405.97272);
	    ((GeneralPath) shape).curveTo(384.22098, 407.27933, 384.83646, 406.85938, 386.27756, 405.75177);
	    ((GeneralPath) shape).curveTo(386.27756, 403.59818, 382.92868, 404.3655, 381.19278, 402.43784);
	    ((GeneralPath) shape).curveTo(380.50146, 401.67053, 380.04764, 396.414, 379.6454, 395.3684);
	    ((GeneralPath) shape).curveTo(379.16464, 394.11884, 379.89078, 390.79507, 380.20212, 387.78778);
	    ((GeneralPath) shape).closePath();
	    
	    g.setPaint(new Color(0x3c7a51));
	    g.fill(shape);
	    g.setPaint(Color.WHITE);
	    g.draw(shape);
	    if (this.drawSquares){ this.paintSquare(g, shape); }
	    this.detectMouse(g, shape, "Nayarit");
	    /*
	     * 
	     * 
	     * 
	     * 
	     * San Luis Potosí
	     * 
	     * */
	    // _0_0_0_22
	    shape = new GeneralPath();
	    ((GeneralPath) shape).moveTo(507.2406, 413.58002);
	    ((GeneralPath) shape).curveTo(510.97995, 414.57642, 515.89496, 414.00836, 520.1038, 414.52286);
	    ((GeneralPath) shape).curveTo(523.58167, 414.94812, 530.23834, 420.58554, 532.464, 423.23804);
	    ((GeneralPath) shape).curveTo(534.6365, 425.82608, 542.3802, 417.72305, 544.52356, 417.00958);
	    ((GeneralPath) shape).curveTo(546.1829, 417.39236, 547.6949, 417.43875, 547.9107, 419.31152);
	    ((GeneralPath) shape).curveTo(548.21967, 421.9888, 552.1614, 422.70053, 554.1439, 423.5089);
	    ((GeneralPath) shape).curveTo(555.03827, 423.87363, 555.7905, 423.91507, 556.98926, 423.91507);
	    ((GeneralPath) shape).curveTo(558.26135, 423.91507, 558.6961, 424.3212, 559.8346, 424.3212);
	    ((GeneralPath) shape).lineTo(562.00244, 420.66522);
	    ((GeneralPath) shape).lineTo(564.17065, 420.66522);
	    ((GeneralPath) shape).lineTo(568.7774, 425.94614);
	    ((GeneralPath) shape).curveTo(569.3387, 424.744, 570.3638, 425.0379, 571.2163, 424.18594);
	    ((GeneralPath) shape).curveTo(571.4275, 423.9749, 572.76196, 423.68243, 572.8424, 423.37332);
	    ((GeneralPath) shape).curveTo(572.99054, 422.80466, 573.3845, 422.367, 573.3845, 421.74875);
	    ((GeneralPath) shape).curveTo(573.3845, 419.0548, 577.1784, 422.22678, 577.1784, 419.85294);
	    ((GeneralPath) shape).curveTo(577.1784, 418.8877, 577.5756, 418.37283, 578.2623, 417.6866);
	    ((GeneralPath) shape).curveTo(578.8112, 417.1378, 580.78455, 417.8219, 579.8884, 417.8219);
	    ((GeneralPath) shape).curveTo(580.21936, 418.8155, 580.1591, 419.6281, 580.1591, 420.66525);
	    ((GeneralPath) shape).curveTo(580.1591, 421.3851, 580.06104, 421.38193, 580.70123, 421.4779);
	    ((GeneralPath) shape).curveTo(581.5155, 421.59937, 581.1704, 424.5695, 580.8366, 425.13388);
	    ((GeneralPath) shape).curveTo(580.444, 425.79816, 580.4302, 426.21103, 580.4302, 427.16458);
	    ((GeneralPath) shape).curveTo(580.4302, 428.9453, 582.0761, 429.33234, 583.0048, 430.95584);
	    ((GeneralPath) shape).curveTo(583.27344, 430.45233, 584.3598, 429.0767, 585.0373, 429.46652);
	    ((GeneralPath) shape).curveTo(585.95325, 429.9941, 586.11664, 430.6793, 587.20514, 430.8206);
	    ((GeneralPath) shape).curveTo(587.4071, 430.8472, 587.51764, 432.32016, 587.6116, 432.58078);
	    ((GeneralPath) shape).curveTo(587.7639, 433.00284, 589.1526, 433.5287, 589.7794, 433.5287);
	    ((GeneralPath) shape).curveTo(590.9055, 433.5287, 593.0854, 434.38135, 593.9801, 433.9348);
	    ((GeneralPath) shape).curveTo(594.2965, 433.77652, 594.59845, 433.3166, 594.79297, 433.12253);
	    ((GeneralPath) shape).curveTo(594.8238, 433.09134, 594.89606, 432.9055, 594.92834, 432.85165);
	    ((GeneralPath) shape).curveTo(595.03357, 432.67566, 595.3153, 432.63635, 595.47046, 432.4455);
	    ((GeneralPath) shape).curveTo(595.64197, 432.23447, 595.8971, 431.8432, 596.14795, 431.76846);
	    ((GeneralPath) shape).curveTo(596.3829, 431.69797, 597.2319, 431.34073, 597.2319, 431.09143);
	    ((GeneralPath) shape).curveTo(597.17126, 430.30392, 597.0193, 430.14352, 596.2833, 430.14352);
	    ((GeneralPath) shape).curveTo(596.053, 430.14352, 595.7688, 430.13953, 595.60583, 430.00824);
	    ((GeneralPath) shape).curveTo(595.32416, 429.7795, 595.2224, 429.8769, 594.79297, 429.73737);
	    ((GeneralPath) shape).curveTo(594.5247, 429.64987, 594.25085, 429.18073, 594.25085, 428.92508);
	    ((GeneralPath) shape).curveTo(594.25085, 428.3872, 594.1155, 427.98212, 594.1155, 427.43542);
	    ((GeneralPath) shape).lineTo(599.9419, 426.08136);
	    ((GeneralPath) shape).lineTo(599.129, 422.2901);
	    ((GeneralPath) shape).lineTo(597.90936, 422.2901);
	    ((GeneralPath) shape).curveTo(597.29956, 422.2901, 597.392, 422.45474, 597.36725, 421.88397);
	    ((GeneralPath) shape).curveTo(597.3342, 421.10922, 597.2319, 420.8649, 597.2319, 420.12378);
	    ((GeneralPath) shape).curveTo(597.2319, 419.71942, 597.01855, 419.86423, 596.9608, 419.71765);
	    ((GeneralPath) shape).curveTo(596.79675, 419.30054, 596.8141, 418.8023, 596.68976, 418.36362);
	    ((GeneralPath) shape).curveTo(596.59766, 418.03574, 596.41907, 417.5421, 596.41907, 417.28046);
	    ((GeneralPath) shape).lineTo(601.0258, 414.97852);
	    ((GeneralPath) shape).lineTo(600.89044, 413.0827);
	    ((GeneralPath) shape).curveTo(600.50244, 411.33774, 599.80725, 411.88907, 598.1805, 411.45813);
	    ((GeneralPath) shape).curveTo(597.9519, 411.39792, 599.1967, 411.43793, 599.3998, 410.7811);
	    ((GeneralPath) shape).curveTo(600.30725, 407.85135, 599.229, 406.36877, 601.70337, 404.55264);
	    ((GeneralPath) shape).curveTo(603.10583, 403.52258, 604.9569, 397.24066, 602.38086, 397.24066);
	    ((GeneralPath) shape).curveTo(600.983, 397.24066, 598.127, 396.86462, 597.7741, 395.61572);
	    ((GeneralPath) shape).curveTo(597.70154, 395.3586, 597.66125, 395.05502, 597.65045, 394.7116);
	    ((GeneralPath) shape).curveTo(596.1711, 394.52795, 596.3117, 393.18594, 593.6985, 393.18594);
	    ((GeneralPath) shape).curveTo(592.7347, 393.18594, 592.7099, 394.0177, 592.3286, 394.694);
	    ((GeneralPath) shape).curveTo(591.7939, 395.6419, 588.1502, 394.8314, 587.3987, 394.8314);
	    ((GeneralPath) shape).curveTo(584.96545, 394.8314, 586.34985, 396.2697, 585.34454, 393.7344);
	    ((GeneralPath) shape).curveTo(585.218, 393.41537, 583.9998, 393.07083, 583.5647, 393.0489);
	    ((GeneralPath) shape).curveTo(581.39014, 392.93698, 577.4757, 394.68195, 576.3064, 393.8718);
	    ((GeneralPath) shape).curveTo(576.4187, 393.8343, 576.6349, 391.4477, 576.7171, 391.12936);
	    ((GeneralPath) shape).curveTo(576.82623, 390.70978, 577.47046, 390.35107, 576.44354, 390.30716);
	    ((GeneralPath) shape).curveTo(575.45953, 390.26465, 575.6218, 390.40594, 575.6218, 389.48425);
	    ((GeneralPath) shape).curveTo(575.6218, 389.17938, 575.70935, 389.0073, 575.759, 388.79874);
	    ((GeneralPath) shape).curveTo(575.89966, 388.20386, 575.86847, 387.89688, 575.759, 387.29068);
	    ((GeneralPath) shape).curveTo(575.66895, 386.79318, 573.1475, 387.4203, 572.6089, 387.15366);
	    ((GeneralPath) shape).curveTo(571.4895, 386.60056, 570.49774, 385.01495, 569.8698, 384.00046);
	    ((GeneralPath) shape).curveTo(569.52893, 383.14676, 567.81604, 382.51648, 567.81604, 384.13715);
	    ((GeneralPath) shape).curveTo(567.81604, 384.5833, 568.72845, 387.16428, 567.81604, 387.01627);
	    ((GeneralPath) shape).curveTo(566.1758, 386.75104, 565.2722, 385.59885, 563.5707, 385.09708);
	    ((GeneralPath) shape).curveTo(562.6296, 384.8202, 562.54767, 386.54248, 561.2427, 386.05667);
	    ((GeneralPath) shape).curveTo(560.6552, 385.83856, 561.2583, 385.29608, 560.2842, 385.78296);
	    ((GeneralPath) shape).curveTo(559.7243, 386.06268, 559.2686, 386.4306, 558.23004, 386.46814);
	    ((GeneralPath) shape).curveTo(557.14966, 386.50705, 557.5455, 385.85486, 557.5455, 384.96005);
	    ((GeneralPath) shape).curveTo(557.5455, 384.36908, 557.68225, 383.81033, 557.68225, 383.17755);
	    ((GeneralPath) shape).curveTo(557.3938, 382.02216, 557.69965, 381.80652, 556.31274, 381.80652);
	    ((GeneralPath) shape).curveTo(554.6927, 381.80652, 552.9766, 381.67233, 551.65674, 382.08093);
	    ((GeneralPath) shape).curveTo(551.3977, 382.16092, 550.8857, 382.6266, 550.69824, 382.49203);
	    ((GeneralPath) shape).curveTo(550.30597, 382.21017, 549.6728, 380.84692, 550.5611, 380.84692);
	    ((GeneralPath) shape).curveTo(550.7248, 380.84692, 551.30237, 380.84622, 551.3828, 380.7099);
	    ((GeneralPath) shape).curveTo(551.6156, 380.3158, 551.2117, 378.13956, 550.835, 378.5163);
	    ((GeneralPath) shape).curveTo(550.81165, 378.54, 549.35706, 380.2478, 549.1916, 379.7503);
	    ((GeneralPath) shape).curveTo(548.95703, 379.04388, 549.1916, 377.2005, 549.1916, 376.3227);
	    ((GeneralPath) shape).curveTo(549.1916, 374.40564, 548.7118, 374.86066, 550.15045, 374.26614);
	    ((GeneralPath) shape).curveTo(550.5374, 374.10608, 551.0664, 373.85965, 551.5196, 373.58096);
	    ((GeneralPath) shape).curveTo(552.5472, 372.9482, 552.47845, 372.91882, 552.47845, 371.38702);
	    ((GeneralPath) shape).lineTo(550.69824, 371.38702);
	    ((GeneralPath) shape).curveTo(549.49207, 371.38702, 549.60223, 371.6271, 549.60223, 370.42743);
	    ((GeneralPath) shape).curveTo(549.60223, 369.09216, 549.81805, 369.4526, 548.7809, 369.19342);
	    ((GeneralPath) shape).curveTo(548.4304, 369.10593, 547.8224, 368.9969, 547.8224, 368.64493);
	    ((GeneralPath) shape).lineTo(547.8294, 366.9254);
	    ((GeneralPath) shape).curveTo(547.6103, 367.0007, 547.3534, 367.03027, 547.06104, 367.03027);
	    ((GeneralPath) shape).curveTo(545.2539, 367.03027, 545.87646, 363.85052, 544.1087, 364.86676);
	    ((GeneralPath) shape).curveTo(543.99493, 364.93225, 543.23065, 369.55704, 543.91205, 369.78403);
	    ((GeneralPath) shape).curveTo(543.5028, 369.8931, 540.0274, 370.73193, 539.97534, 369.98056);
	    ((GeneralPath) shape).curveTo(539.88184, 368.62616, 540.2383, 369.72598, 540.56604, 368.99725);
	    ((GeneralPath) shape).curveTo(541.1464, 367.70554, 537.2891, 368.89246, 537.023, 367.62018);
	    ((GeneralPath) shape).curveTo(536.6984, 366.06714, 538.007, 364.19293, 538.007, 362.7029);
	    ((GeneralPath) shape).curveTo(538.007, 361.078, 536.62933, 363.8406, 536.62933, 360.3429);
	    ((GeneralPath) shape).curveTo(536.62933, 359.96616, 536.787, 353.6945, 536.82635, 353.65518);
	    ((GeneralPath) shape).curveTo(537.24164, 353.2402, 540.57776, 354.12296, 540.7627, 353.85205);
	    ((GeneralPath) shape).curveTo(541.32043, 353.03763, 540.2907, 352.0437, 540.17236, 351.68854);
	    ((GeneralPath) shape).curveTo(538.91125, 351.2686, 538.59766, 351.51044, 538.59766, 349.9181);
	    ((GeneralPath) shape).curveTo(538.59766, 346.4087, 537.89856, 349.01657, 537.21967, 346.77127);
	    ((GeneralPath) shape).curveTo(536.5797, 344.6531, 536.039, 343.25833, 536.039, 340.47696);
	    ((GeneralPath) shape).curveTo(536.039, 339.02695, 536.0163, 338.01886, 536.4327, 336.93677);
	    ((GeneralPath) shape).curveTo(536.5397, 336.65775, 536.534, 335.974, 536.23566, 335.9531);
	    ((GeneralPath) shape).curveTo(534.64716, 335.84332, 535.6106, 335.41843, 534.4643, 333.98648);
	    ((GeneralPath) shape).curveTo(533.91364, 333.71136, 534.0706, 334.19043, 534.0706, 333.19968);
	    ((GeneralPath) shape).curveTo(534.0706, 332.63455, 533.999, 331.98407, 534.0706, 331.42923);
	    ((GeneralPath) shape).curveTo(534.1159, 331.07904, 534.58405, 331.31735, 534.66095, 330.64243);
	    ((GeneralPath) shape).curveTo(534.6918, 330.37473, 534.72894, 329.3808, 534.66095, 329.26572);
	    ((GeneralPath) shape).curveTo(534.44305, 328.89676, 533.82367, 328.63297, 533.67694, 328.08554);
	    ((GeneralPath) shape).curveTo(533.5936, 327.77713, 534.0398, 327.73465, 533.8736, 327.49564);
	    ((GeneralPath) shape).curveTo(533.42395, 326.84976, 532.73755, 327.49564, 532.4959, 327.49564);
	    ((GeneralPath) shape).curveTo(532.1228, 327.49564, 531.9598, 326.10086, 531.5119, 325.92206);
	    ((GeneralPath) shape).curveTo(531.0229, 325.72696, 530.13385, 325.1714, 530.13385, 324.74188);
	    ((GeneralPath) shape).lineTo(529.5715, 324.11246);
	    ((GeneralPath) shape).lineTo(528.6825, 323.87543);
	    ((GeneralPath) shape).lineTo(520.60956, 337.5894);
	    ((GeneralPath) shape).lineTo(518.9948, 337.5894);
	    ((GeneralPath) shape).curveTo(518.1596, 337.5894, 518.1515, 337.07983, 516.97687, 337.18607);
	    ((GeneralPath) shape).curveTo(515.93756, 337.28027, 516.90985, 337.4548, 516.5733, 337.99268);
	    ((GeneralPath) shape).curveTo(516.16974, 338.63818, 515.7626, 338.1492, 516.1694, 338.79965);
	    ((GeneralPath) shape).curveTo(516.3118, 339.02734, 516.5386, 338.93668, 516.5733, 339.20297);
	    ((GeneralPath) shape).curveTo(516.6208, 339.5737, 516.5733, 340.03543, 516.5733, 340.4129);
	    ((GeneralPath) shape).curveTo(516.5733, 341.34912, 516.25903, 342.1908, 516.97687, 342.4298);
	    ((GeneralPath) shape).lineTo(499.62024, 358.9673);
	    ((GeneralPath) shape).curveTo(497.19833, 356.95074, 497.74258, 356.98544, 497.60193, 356.95074);
	    ((GeneralPath) shape).curveTo(494.75763, 356.24045, 497.15405, 357.23578, 496.39114, 357.75735);
	    ((GeneralPath) shape).curveTo(495.65164, 358.26263, 494.07623, 357.21063, 493.96924, 358.9673);
	    ((GeneralPath) shape).curveTo(493.89734, 360.1517, 493.15637, 361.13434, 493.15637, 362.3269);
	    ((GeneralPath) shape).curveTo(491.66565, 362.2883, 489.1619, 364.0184, 487.10745, 363.7433);
	    ((GeneralPath) shape).curveTo(484.73584, 362.07516, 482.21472, 359.75763, 482.21472, 362.1127);
	    ((GeneralPath) shape).curveTo(482.21472, 362.67322, 481.0748, 376.3337, 484.28195, 379.53857);
	    ((GeneralPath) shape).curveTo(485.28827, 380.5442, 487.00293, 381.4627, 488.31824, 382.3621);
	    ((GeneralPath) shape).curveTo(489.84793, 383.40808, 489.86102, 387.22235, 492.34885, 387.22235);
	    ((GeneralPath) shape).curveTo(495.67963, 387.22235, 496.51233, 387.91956, 498.4095, 389.08948);
	    ((GeneralPath) shape).curveTo(500.56317, 390.41803, 499.4902, 390.42935, 501.63858, 390.42935);
	    ((GeneralPath) shape).curveTo(503.3185, 390.42935, 504.66464, 390.98386, 504.86768, 389.2191);
	    ((GeneralPath) shape).curveTo(504.91867, 388.77646, 504.91907, 387.3732, 505.27127, 387.20255);
	    ((GeneralPath) shape).curveTo(507.4182, 386.16257, 505.50833, 386.91467, 506.48206, 386.39557);
	    ((GeneralPath) shape).curveTo(509.58676, 384.7416, 506.6837, 387.20255, 507.69318, 385.58896);
	    ((GeneralPath) shape).curveTo(507.83527, 385.36127, 507.9065, 385.37543, 508.09677, 385.18564);
	    ((GeneralPath) shape).curveTo(508.19107, 385.09103, 508.70587, 384.834, 508.90396, 384.78232);
	    ((GeneralPath) shape).curveTo(509.5921, 384.6035, 509.7278, 384.379, 510.51868, 384.379);
	    ((GeneralPath) shape).curveTo(513.49866, 384.62686, 512.3545, 385.4271, 512.5366, 388.41245);
	    ((GeneralPath) shape).curveTo(512.60785, 389.58093, 513.3438, 390.48846, 513.3438, 392.4459);
	    ((GeneralPath) shape).curveTo(513.3438, 394.21457, 511.32584, 394.0563, 511.32584, 396.4797);
	    ((GeneralPath) shape).curveTo(511.32584, 399.8733, 512.8952, 401.8495, 512.13306, 405.35358);
	    ((GeneralPath) shape).curveTo(511.885, 406.49445, 509.9332, 408.13528, 509.30756, 409.38702);
	    ((GeneralPath) shape).curveTo(508.90488, 410.19266, 508.12933, 412.50024, 507.24066, 413.58);
	    ((GeneralPath) shape).closePath();
	
	    g.setPaint(new Color(0x3c7a51));
	    g.fill(shape);
	    g.setPaint(Color.WHITE);
	    g.draw(shape);
	    if (this.drawSquares){ this.paintSquare(g, shape); }
	    this.detectMouse(g, shape, "San Luis Potosí");
	    /*
	     * 
	     * 
	     * Queretaro
	     * 
	     * */
	    // _0_0_0_23
	    shape = new GeneralPath();
	    ((GeneralPath) shape).moveTo(550.1703, 473.66425);
	    ((GeneralPath) shape).curveTo(550.1221, 473.16922, 550.0728, 472.7201, 550.1551, 472.62982);
	    ((GeneralPath) shape).curveTo(550.2402, 472.5364, 551.0349, 470.68408, 551.03564, 470.6717);
	    ((GeneralPath) shape).curveTo(551.11115, 469.5754, 549.8532, 470.39374, 549.76355, 469.39838);
	    ((GeneralPath) shape).curveTo(549.73236, 469.04852, 548.48724, 469.02234, 548.2962, 468.90866);
	    ((GeneralPath) shape).curveTo(548.2391, 468.87436, 547.9284, 467.98413, 547.7094, 467.8315);
	    ((GeneralPath) shape).curveTo(547.1744, 467.4583, 546.1893, 467.38608, 545.6553, 466.8521);
	    ((GeneralPath) shape).curveTo(545.1819, 466.3794, 544.93243, 465.3954, 544.5788, 464.5994);
	    ((GeneralPath) shape).curveTo(544.25385, 464.64578, 543.97736, 464.83224, 543.7769, 465.1249);
	    ((GeneralPath) shape).curveTo(543.1702, 464.1244, 542.48975, 462.9156, 542.46985, 462.67456);
	    ((GeneralPath) shape).curveTo(542.44275, 462.34668, 542.62396, 461.65265, 542.29236, 461.61017);
	    ((GeneralPath) shape).curveTo(541.62585, 461.52347, 539.44806, 461.88956, 539.0959, 461.61017);
	    ((GeneralPath) shape).curveTo(538.7752, 461.3563, 539.3443, 458.17407, 539.0959, 457.52856);
	    ((GeneralPath) shape).curveTo(538.7972, 456.75168, 538.87866, 453.30743, 538.38544, 453.2699);
	    ((GeneralPath) shape).curveTo(537.8082, 453.2256, 536.60986, 453.5783, 536.60986, 452.9151);
	    ((GeneralPath) shape).curveTo(536.60986, 449.9804, 541.111, 450.4556, 536.4324, 450.2534);
	    ((GeneralPath) shape).curveTo(534.07635, 450.1514, 534.9626, 447.1367, 536.4324, 446.17215);
	    ((GeneralPath) shape).curveTo(537.4178, 445.52487, 538.33905, 443.59225, 538.9184, 442.26828);
	    ((GeneralPath) shape).curveTo(539.5484, 442.89786, 539.9495, 444.04263, 541.2269, 444.04263);
	    ((GeneralPath) shape).curveTo(542.7864, 444.04263, 544.71857, 444.47003, 545.13354, 442.97787);
	    ((GeneralPath) shape).curveTo(545.48895, 441.69962, 543.64, 441.02612, 546.0212, 441.02612);
	    ((GeneralPath) shape).curveTo(546.56757, 441.02612, 546.4138, 441.44006, 546.3766, 441.55832);
	    ((GeneralPath) shape).curveTo(545.9599, 442.8688, 547.28656, 442.49808, 548.15216, 442.44568);
	    ((GeneralPath) shape).curveTo(548.44305, 442.42798, 549.26904, 441.47583, 549.3952, 442.44568);
	    ((GeneralPath) shape).curveTo(549.44763, 442.8511, 550.5702, 442.68185, 550.63824, 442.0905);
	    ((GeneralPath) shape).curveTo(550.8459, 440.28537, 550.7945, 440.49356, 552.7692, 440.49356);
	    ((GeneralPath) shape).lineTo(552.2363, 433.3958);
	    ((GeneralPath) shape).curveTo(552.4571, 433.24887, 553.9446, 432.69754, 553.8348, 433.21805);
	    ((GeneralPath) shape).curveTo(553.6356, 434.15958, 553.6544, 434.05405, 554.8999, 434.1054);
	    ((GeneralPath) shape).curveTo(556.3049, 434.1635, 555.2341, 432.2631, 557.3859, 433.21805);
	    ((GeneralPath) shape).curveTo(558.14526, 433.55478, 558.6697, 433.47263, 558.2739, 434.1054);
	    ((GeneralPath) shape).curveTo(557.8218, 434.8274, 558.6839, 434.99277, 559.1619, 434.99277);
	    ((GeneralPath) shape).curveTo(560.06976, 434.99277, 559.94324, 434.98776, 560.58246, 434.4602);
	    ((GeneralPath) shape).curveTo(561.4811, 433.71875, 561.84216, 433.29984, 562.35803, 432.33105);
	    ((GeneralPath) shape).curveTo(562.50543, 432.05487, 564.5351, 431.8601, 564.84406, 431.7985);
	    ((GeneralPath) shape).curveTo(564.7112, 431.39944, 564.71545, 431.84738, 564.489, 431.6211);
	    ((GeneralPath) shape).curveTo(564.4607, 431.59308, 564.497, 431.15442, 564.489, 431.0889);
	    ((GeneralPath) shape).curveTo(564.4741, 430.97205, 564.3742, 431.0113, 564.3115, 430.9115);
	    ((GeneralPath) shape).curveTo(564.24884, 430.81128, 564.35333, 430.66647, 564.3115, 430.55634);
	    ((GeneralPath) shape).curveTo(564.2158, 430.30847, 564.0373, 430.28262, 563.9561, 430.20154);
	    ((GeneralPath) shape).curveTo(563.68787, 429.93314, 564.00824, 429.8995, 563.4235, 429.84674);
	    ((GeneralPath) shape).curveTo(562.6702, 429.77914, 562.8867, 429.89954, 562.003, 429.49194);
	    ((GeneralPath) shape).lineTo(560.9375, 430.37894);
	    ((GeneralPath) shape).lineTo(559.77716, 424.335);
	    ((GeneralPath) shape).lineTo(562.0026, 420.66516);
	    ((GeneralPath) shape).lineTo(564.17084, 420.66516);
	    ((GeneralPath) shape).lineTo(568.7776, 425.94608);
	    ((GeneralPath) shape).curveTo(569.33887, 424.74393, 570.36395, 425.03784, 571.2165, 424.18588);
	    ((GeneralPath) shape).curveTo(571.4277, 423.97485, 572.76215, 423.68237, 572.8426, 423.37326);
	    ((GeneralPath) shape).curveTo(572.9907, 422.8046, 573.3847, 422.36694, 573.3847, 421.7487);
	    ((GeneralPath) shape).curveTo(573.3847, 419.05475, 577.1786, 422.2267, 577.1786, 419.85287);
	    ((GeneralPath) shape).curveTo(577.1786, 418.88763, 577.5758, 418.37277, 578.2625, 417.68655);
	    ((GeneralPath) shape).curveTo(578.8114, 417.13773, 580.7847, 417.82184, 579.8886, 417.82184);
	    ((GeneralPath) shape).curveTo(580.21954, 418.81543, 580.1593, 419.62805, 580.1593, 420.6652);
	    ((GeneralPath) shape).curveTo(580.1593, 421.38504, 580.0612, 421.38187, 580.7014, 421.47784);
	    ((GeneralPath) shape).curveTo(581.5157, 421.5993, 581.1706, 424.56943, 580.8368, 425.13382);
	    ((GeneralPath) shape).curveTo(580.44415, 425.7981, 580.43036, 426.21097, 580.43036, 427.16452);
	    ((GeneralPath) shape).curveTo(580.43036, 428.94525, 582.0763, 429.33228, 583.01086, 430.9086);
	    ((GeneralPath) shape).lineTo(583.2679, 433.44006);
	    ((GeneralPath) shape).curveTo(582.85895, 433.44006, 582.3318, 435.09012, 581.71344, 435.17017);
	    ((GeneralPath) shape).curveTo(580.604, 435.3143, 578.7246, 435.05615, 578.3398, 436.05753);
	    ((GeneralPath) shape).curveTo(577.99286, 436.95798, 577.4394, 436.62088, 576.74133, 436.41232);
	    ((GeneralPath) shape).curveTo(575.864, 436.1503, 575.538, 435.77744, 574.07776, 435.70236);
	    ((GeneralPath) shape).curveTo(572.32416, 435.61246, 572.4797, 435.19104, 572.4797, 436.94452);
	    ((GeneralPath) shape).curveTo(572.4797, 437.5925, 572.2281, 437.9969, 572.3022, 438.71924);
	    ((GeneralPath) shape).curveTo(572.3479, 439.1622, 574.3095, 439.69086, 574.2553, 439.9614);
	    ((GeneralPath) shape).lineTo(574.07776, 440.8484);
	    ((GeneralPath) shape).curveTo(573.81696, 441.89188, 572.8347, 441.11148, 572.8347, 442.62308);
	    ((GeneralPath) shape).curveTo(572.8347, 443.71652, 571.3989, 444.43884, 570.52655, 444.04263);
	    ((GeneralPath) shape).curveTo(567.91754, 442.85715, 569.46106, 449.01514, 569.46106, 449.89825);
	    ((GeneralPath) shape).curveTo(569.46106, 452.0228, 568.32324, 451.0809, 567.6851, 452.7377);
	    ((GeneralPath) shape).curveTo(567.3201, 453.6863, 565.79504, 452.95972, 565.732, 453.4473);
	    ((GeneralPath) shape).curveTo(565.6158, 454.34067, 564.14526, 454.4359, 563.246, 454.68945);
	    ((GeneralPath) shape).curveTo(561.9165, 455.06445, 563.32495, 454.53827, 562.5355, 455.5768);
	    ((GeneralPath) shape).curveTo(561.9583, 456.33563, 560.06647, 455.91214, 559.33936, 455.5768);
	    ((GeneralPath) shape).lineTo(558.80646, 464.27188);
	    ((GeneralPath) shape).curveTo(558.0843, 464.27188, 557.6244, 464.09448, 556.85333, 464.09448);
	    ((GeneralPath) shape).curveTo(555.71625, 464.09448, 556.6758, 464.7807, 556.6758, 464.98148);
	    ((GeneralPath) shape).curveTo(556.6758, 465.3331, 555.76227, 465.0413, 555.6103, 464.98148);
	    ((GeneralPath) shape).curveTo(555.004, 464.74353, 555.7485, 465.5512, 555.6103, 465.86884);
	    ((GeneralPath) shape).curveTo(555.48944, 466.1454, 555.19073, 467.52988, 555.07733, 467.6432);
	    ((GeneralPath) shape).curveTo(554.15076, 468.5695, 555.7878, 468.01108, 555.7878, 469.41788);
	    ((GeneralPath) shape).curveTo(555.7878, 469.86615, 555.9199, 470.9812, 555.43274, 471.01483);
	    ((GeneralPath) shape).curveTo(554.1628, 471.10263, 554.7779, 471.13593, 554.0122, 471.72443);
	    ((GeneralPath) shape).curveTo(553.081, 472.44077, 553.40985, 471.26163, 552.76917, 471.9022);
	    ((GeneralPath) shape).curveTo(552.508, 472.1628, 552.3478, 472.05902, 552.0587, 472.4344);
	    ((GeneralPath) shape).curveTo(551.1757, 473.58093, 551.99133, 473.65762, 550.17035, 473.66425);
	    ((GeneralPath) shape).closePath();
	
	    g.setPaint(new Color(0x3c7a51));
	    g.fill(shape);
	    g.setPaint(Color.WHITE);
	    g.draw(shape);
	    if (this.drawSquares){ this.paintSquare(g, shape); }
	    this.detectMouse(g, shape, "Queretaro");
	    /*
	     * Zacatecas
	     * */
	    // _0_0_0_24
	    shape = new GeneralPath();
	    ((GeneralPath) shape).moveTo(507.2413, 413.62372);
	    ((GeneralPath) shape).lineTo(499.48273, 406.62302);
	    ((GeneralPath) shape).lineTo(495.83472, 406.62503);
	    ((GeneralPath) shape).lineTo(495.17996, 406.1607);
	    ((GeneralPath) shape).curveTo(495.0517, 404.62042, 495.5446, 404.47702, 493.96918, 404.1438);
	    ((GeneralPath) shape).curveTo(493.55212, 404.0556, 493.21338, 406.06616, 492.3548, 404.54712);
	    ((GeneralPath) shape).curveTo(492.2223, 404.31342, 492.3892, 404.00677, 492.3548, 403.7405);
	    ((GeneralPath) shape).curveTo(492.2616, 403.02206, 491.53415, 403.5461, 491.14368, 402.53058);
	    ((GeneralPath) shape).curveTo(490.80103, 401.64005, 492.58264, 398.90045, 491.54727, 398.90045);
	    ((GeneralPath) shape).lineTo(491.14368, 398.90045);
	    ((GeneralPath) shape).curveTo(490.19016, 398.90045, 489.88895, 397.40088, 489.12537, 397.28687);
	    ((GeneralPath) shape).curveTo(486.77008, 396.93417, 487.33914, 396.3085, 485.89627, 394.86664);
	    ((GeneralPath) shape).curveTo(484.97498, 393.946, 483.53, 393.82242, 483.07077, 392.44644);
	    ((GeneralPath) shape).curveTo(481.67822, 392.91064, 479.43808, 392.7814, 479.43808, 394.06003);
	    ((GeneralPath) shape).curveTo(479.43808, 396.9023, 479.90085, 397.28687, 477.01617, 397.28687);
	    ((GeneralPath) shape).curveTo(470.38293, 397.28687, 471.7691, 397.25037, 471.7691, 402.1273);
	    ((GeneralPath) shape).curveTo(471.7691, 403.02914, 471.03384, 403.12936, 470.1544, 403.74054);
	    ((GeneralPath) shape).curveTo(469.6087, 404.12048, 468.54, 406.66003, 468.54, 407.77435);
	    ((GeneralPath) shape).curveTo(468.54, 409.33414, 467.5156, 408.76086, 467.3289, 410.1942);
	    ((GeneralPath) shape).curveTo(466.7591, 414.56775, 467.22263, 415.7073, 470.43765, 416.4889);
	    ((GeneralPath) shape).curveTo(470.32108, 416.81583, 468.40494, 416.5238, 468.10684, 416.53778);
	    ((GeneralPath) shape).curveTo(468.2576, 417.14502, 468.31998, 418.15594, 468.35507, 418.6644);
	    ((GeneralPath) shape).curveTo(468.39297, 419.21396, 468.1042, 419.4335, 468.1042, 420.04395);
	    ((GeneralPath) shape).curveTo(468.1042, 421.21777, 469.20087, 421.2567, 469.73593, 421.9256);
	    ((GeneralPath) shape).curveTo(470.02045, 422.28076, 470.3684, 423.0293, 470.991, 422.67804);
	    ((GeneralPath) shape).curveTo(471.38892, 422.4539, 471.44348, 422.67303, 471.9952, 423.05444);
	    ((GeneralPath) shape).lineTo(472.12064, 428.824);
	    ((GeneralPath) shape).curveTo(470.38828, 428.824, 469.92303, 429.45108, 468.6063, 429.45108);
	    ((GeneralPath) shape).curveTo(468.32993, 429.45108, 467.41995, 430.8037, 466.97455, 431.08167);
	    ((GeneralPath) shape).curveTo(465.9923, 431.69565, 465.16492, 430.27682, 464.9665, 432.2105);
	    ((GeneralPath) shape).curveTo(464.90628, 432.793, 464.96548, 434.4009, 463.9623, 433.7154);
	    ((GeneralPath) shape).curveTo(463.5449, 433.43, 464.57816, 432.71225, 463.33478, 432.71225);
	    ((GeneralPath) shape).curveTo(461.93832, 432.71225, 460.70807, 432.69244, 459.31833, 432.4612);
	    ((GeneralPath) shape).lineTo(459.5692, 438.7325);
	    ((GeneralPath) shape).lineTo(454.54858, 439.3596);
	    ((GeneralPath) shape).curveTo(454.10672, 439.47006, 454.52237, 439.59647, 453.92105, 439.736);
	    ((GeneralPath) shape).curveTo(453.52136, 439.8281, 453.1585, 439.85495, 452.7914, 439.9867);
	    ((GeneralPath) shape).curveTo(452.60962, 440.0522, 451.70358, 440.4215, 451.66177, 440.48843);
	    ((GeneralPath) shape).curveTo(451.4389, 440.84393, 451.5303, 440.73914, 450.9088, 440.73914);
	    ((GeneralPath) shape).curveTo(450.49176, 440.73914, 450.3493, 440.83545, 450.15585, 440.48843);
	    ((GeneralPath) shape).curveTo(449.83978, 439.92154, 449.5935, 439.96295, 449.2771, 439.61066);
	    ((GeneralPath) shape).curveTo(449.11057, 439.4244, 449.01666, 438.73428, 448.9008, 438.4818);
	    ((GeneralPath) shape).curveTo(448.59323, 437.81046, 448.48975, 437.37033, 448.14746, 436.60016);
	    ((GeneralPath) shape).curveTo(448.14746, 435.7514, 446.1419, 435.62463, 445.38608, 435.72238);
	    ((GeneralPath) shape).curveTo(444.7876, 435.7999, 445.24896, 436.72516, 444.2568, 436.97656);
	    ((GeneralPath) shape).curveTo(444.04562, 437.03006, 443.27103, 437.57993, 443.12717, 437.1019);
	    ((GeneralPath) shape).curveTo(442.92236, 436.42487, 443.00137, 435.67917, 443.00137, 434.96954);
	    ((GeneralPath) shape).curveTo(443.00137, 433.30814, 443.12503, 433.34995, 441.62085, 433.9664);
	    ((GeneralPath) shape).curveTo(439.86475, 434.68628, 441.7491, 432.21188, 440.74207, 431.58337);
	    ((GeneralPath) shape).curveTo(440.48517, 431.4226, 440.01462, 430.80084, 439.86368, 430.45453);
	    ((GeneralPath) shape).curveTo(439.6181, 429.88904, 439.6383, 429.66064, 438.9849, 429.5764);
	    ((GeneralPath) shape).curveTo(438.35135, 429.4946, 438.5317, 429.5814, 438.4828, 428.6986);
	    ((GeneralPath) shape).curveTo(438.4828, 427.5432, 438.26593, 426.56625, 439.61243, 426.56625);
	    ((GeneralPath) shape).curveTo(441.0149, 426.56625, 439.3782, 427.56973, 441.24417, 427.56973);
	    ((GeneralPath) shape).curveTo(442.10416, 427.56973, 442.24094, 427.72552, 442.75046, 427.19333);
	    ((GeneralPath) shape).curveTo(443.61542, 426.29004, 444.13098, 427.8686, 444.13098, 425.68808);
	    ((GeneralPath) shape).curveTo(444.13098, 424.85916, 442.61227, 425.8081, 441.9975, 425.56274);
	    ((GeneralPath) shape).curveTo(441.6949, 425.442, 440.68573, 424.34714, 440.11453, 425.061);
	    ((GeneralPath) shape).curveTo(439.96677, 425.24548, 439.7641, 425.66226, 439.61243, 425.8138);
	    ((GeneralPath) shape).curveTo(439.53763, 425.88852, 439.1107, 425.8485, 439.1107, 425.6881);
	    ((GeneralPath) shape).curveTo(439.1107, 425.33472, 440.0791, 425.43033, 439.61243, 424.68497);
	    ((GeneralPath) shape).curveTo(439.04407, 423.77567, 439.9611, 423.11493, 440.49118, 423.05438);
	    ((GeneralPath) shape).curveTo(440.95395, 423.0016, 441.028, 421.979, 441.1187, 421.54913);
	    ((GeneralPath) shape).curveTo(442.31177, 421.15186, 443.12143, 420.92206, 444.38217, 420.92206);
	    ((GeneralPath) shape).curveTo(444.77548, 420.92206, 445.14258, 420.03046, 445.38602, 419.5425);
	    ((GeneralPath) shape).curveTo(445.5554, 419.20364, 445.22443, 418.38605, 445.38602, 418.03726);
	    ((GeneralPath) shape).curveTo(445.44733, 417.90518, 446.34274, 416.34576, 446.01392, 416.15598);
	    ((GeneralPath) shape).curveTo(445.15393, 415.66025, 443.60938, 415.69672, 444.50763, 414.40005);
	    ((GeneralPath) shape).curveTo(444.00305, 414.40005, 444.06613, 413.77295, 445.00974, 413.77295);
	    ((GeneralPath) shape).curveTo(445.68335, 413.77295, 446.29068, 413.68616, 446.7669, 413.5219);
	    ((GeneralPath) shape).curveTo(447.5858, 413.23972, 447.13577, 411.47986, 448.6495, 411.26422);
	    ((GeneralPath) shape).curveTo(449.68347, 411.1169, 450.04736, 410.71255, 450.28125, 410.01004);
	    ((GeneralPath) shape).curveTo(450.6051, 409.03912, 451.7135, 409.68143, 452.16385, 409.00653);
	    ((GeneralPath) shape).curveTo(452.52527, 408.46478, 452.3871, 408.41025, 453.16806, 408.12875);
	    ((GeneralPath) shape).curveTo(453.96994, 407.84018, 453.6241, 408.31323, 454.42313, 408.37946);
	    ((GeneralPath) shape).curveTo(455.63107, 408.05792, 457.27628, 408.03705, 458.1887, 407.12527);
	    ((GeneralPath) shape).curveTo(458.2209, 407.09268, 458.1887, 406.0506, 458.1887, 405.99643);
	    ((GeneralPath) shape).curveTo(458.1887, 404.64557, 458.14548, 405.159, 457.05905, 404.61688);
	    ((GeneralPath) shape).curveTo(456.65793, 404.4168, 457.26422, 403.75256, 457.05905, 403.36234);
	    ((GeneralPath) shape).curveTo(456.7568, 402.78976, 456.86487, 402.05115, 457.30994, 401.60638);
	    ((GeneralPath) shape).curveTo(457.68448, 401.23245, 457.76953, 400.11282, 457.81204, 399.4744);
	    ((GeneralPath) shape).curveTo(457.81204, 398.3013, 457.4354, 397.94543, 457.4354, 396.8403);
	    ((GeneralPath) shape).curveTo(457.4354, 396.07724, 456.81918, 395.98517, 456.18033, 395.58612);
	    ((GeneralPath) shape).curveTo(455.29236, 395.03162, 455.56696, 395.14774, 455.30194, 394.45728);
	    ((GeneralPath) shape).curveTo(455.1538, 394.07272, 455.03088, 394.31317, 454.6744, 394.08087);
	    ((GeneralPath) shape).curveTo(453.74957, 393.47964, 454.6654, 393.57913, 453.29355, 393.57913);
	    ((GeneralPath) shape).curveTo(452.9034, 394.0993, 451.85953, 394.53696, 451.53638, 395.08438);
	    ((GeneralPath) shape).curveTo(451.33014, 395.4335, 450.78622, 395.79504, 450.78342, 395.83682);
	    ((GeneralPath) shape).curveTo(450.69693, 397.0857, 450.21362, 397.7645, 450.658, 398.7216);
	    ((GeneralPath) shape).curveTo(450.86987, 399.17944, 451.24548, 399.14154, 451.41095, 399.59973);
	    ((GeneralPath) shape).curveTo(451.50696, 399.86636, 450.3327, 400.7909, 450.03043, 400.97928);
	    ((GeneralPath) shape).curveTo(449.84332, 401.09613, 448.90576, 400.84897, 448.775, 400.97928);
	    ((GeneralPath) shape).curveTo(448.48938, 401.26468, 448.777, 402.2416, 448.64957, 402.60986);
	    ((GeneralPath) shape).curveTo(448.34872, 403.4827, 448.3785, 401.86627, 448.02203, 403.7387);
	    ((GeneralPath) shape).lineTo(439.98914, 403.61337);
	    ((GeneralPath) shape).curveTo(439.24713, 401.38828, 440.87817, 403.18634, 441.2442, 401.60638);
	    ((GeneralPath) shape).curveTo(441.60352, 400.05865, 441.78952, 398.88733, 442.62506, 397.96918);
	    ((GeneralPath) shape).curveTo(442.65195, 397.9398, 442.9645, 397.0032, 443.2526, 396.84033);
	    ((GeneralPath) shape).curveTo(443.8068, 396.528, 443.6204, 394.9109, 443.88013, 394.33194);
	    ((GeneralPath) shape).curveTo(444.16998, 393.68396, 444.55374, 394.00723, 444.75854, 393.32843);
	    ((GeneralPath) shape).curveTo(445.1423, 392.0576, 444.2568, 393.10995, 444.2568, 391.94888);
	    ((GeneralPath) shape).curveTo(444.2568, 390.73224, 443.2526, 392.16772, 443.2526, 390.9454);
	    ((GeneralPath) shape).curveTo(443.2526, 389.18134, 443.2546, 389.18945, 441.7463, 389.18945);
	    ((GeneralPath) shape).lineTo(437.9811, 389.18945);
	    ((GeneralPath) shape).lineTo(434.5922, 402.7352);
	    ((GeneralPath) shape).lineTo(433.33713, 391.19608);
	    ((GeneralPath) shape).curveTo(433.33713, 390.683, 433.588, 390.65466, 433.588, 390.06723);
	    ((GeneralPath) shape).curveTo(433.588, 389.78043, 433.4633, 388.26773, 433.71344, 388.18594);
	    ((GeneralPath) shape).curveTo(434.32858, 387.98587, 437.22778, 388.18594, 437.35358, 388.0606);
	    ((GeneralPath) shape).curveTo(438.15332, 387.2614, 436.71472, 386.61945, 438.35742, 386.05362);
	    ((GeneralPath) shape).curveTo(438.74222, 385.9212, 438.72452, 385.80292, 438.232, 385.80292);
	    ((GeneralPath) shape).curveTo(437.26395, 385.80292, 437.60446, 384.21518, 437.60446, 383.4199);
	    ((GeneralPath) shape).lineTo(431.57962, 382.91815);
	    ((GeneralPath) shape).curveTo(430.4344, 382.63205, 429.07584, 384.30408, 429.94824, 385.17584);
	    ((GeneralPath) shape).curveTo(430.6693, 385.89676, 431.1668, 386.4828, 431.07788, 387.55887);
	    ((GeneralPath) shape).curveTo(431.05658, 387.817, 430.85605, 387.80142, 430.82666, 388.0606);
	    ((GeneralPath) shape).curveTo(430.77347, 388.5255, 430.66473, 388.095, 430.57578, 388.437);
	    ((GeneralPath) shape).curveTo(430.48788, 388.77448, 431.07718, 388.9285, 431.32874, 389.0641);
	    ((GeneralPath) shape).curveTo(431.57996, 389.31512, 431.52786, 392.13193, 431.45416, 392.70132);
	    ((GeneralPath) shape).curveTo(431.36697, 393.37552, 429.9482, 393.1163, 429.9482, 393.9555);
	    ((GeneralPath) shape).curveTo(429.9482, 395.01883, 429.7434, 394.9335, 428.81857, 395.3354);
	    ((GeneralPath) shape).curveTo(427.30554, 395.99258, 427.97488, 394.7961, 427.68893, 394.08084);
	    ((GeneralPath) shape).curveTo(427.19427, 392.84366, 426.9377, 393.27563, 427.18683, 391.94885);
	    ((GeneralPath) shape).curveTo(427.18683, 391.5636, 426.8431, 391.59158, 426.5593, 391.19604);
	    ((GeneralPath) shape).curveTo(426.4743, 391.07742, 426.44095, 390.34445, 426.43387, 390.1929);
	    ((GeneralPath) shape).curveTo(426.39777, 389.4348, 425.66, 389.3916, 424.92758, 389.56546);
	    ((GeneralPath) shape).curveTo(424.10233, 389.762, 424.0488, 391.06467, 424.0488, 392.0742);
	    ((GeneralPath) shape).curveTo(424.0488, 393.67575, 423.02972, 392.69916, 422.41742, 393.45374);
	    ((GeneralPath) shape).curveTo(422.29056, 393.60953, 422.2859, 394.00632, 422.1662, 394.0808);
	    ((GeneralPath) shape).curveTo(422.1103, 394.1156, 421.6768, 394.1059, 421.3265, 394.09442);
	    ((GeneralPath) shape).lineTo(421.3642, 393.60458);
	    ((GeneralPath) shape).curveTo(421.3602, 392.47797, 421.3501, 391.5055, 421.3501, 390.3629);
	    ((GeneralPath) shape).lineTo(421.3501, 388.1286);
	    ((GeneralPath) shape).curveTo(421.3501, 387.49585, 422.001, 387.61765, 422.40887, 387.3057);
	    ((GeneralPath) shape).curveTo(423.51123, 386.46118, 422.02866, 382.85583, 423.11508, 382.1317);
	    ((GeneralPath) shape).curveTo(423.94104, 381.58145, 424.12177, 381.65298, 424.88004, 381.30844);
	    ((GeneralPath) shape).curveTo(425.83713, 380.87396, 426.69177, 381.63846, 427.46884, 380.6031);
	    ((GeneralPath) shape).curveTo(427.46884, 380.33044, 427.35263, 377.7909, 427.46884, 377.66342);
	    ((GeneralPath) shape).curveTo(428.20163, 376.85788, 425.93915, 377.55225, 425.93915, 376.13483);
	    ((GeneralPath) shape).curveTo(425.93915, 375.45285, 426.0568, 374.91144, 426.0568, 374.136);
	    ((GeneralPath) shape).curveTo(426.0568, 373.278, 424.99765, 372.80957, 424.99765, 372.6074);
	    ((GeneralPath) shape).curveTo(424.99765, 369.95242, 424.2195, 368.60934, 427.4688, 368.60934);
	    ((GeneralPath) shape).curveTo(427.4688, 367.24078, 426.9756, 366.36725, 427.93936, 365.55212);
	    ((GeneralPath) shape).curveTo(428.8766, 364.76, 427.57758, 361.3016, 428.9985, 360.61325);
	    ((GeneralPath) shape).curveTo(429.49103, 360.3746, 430.04523, 359.41608, 430.41055, 358.96707);
	    ((GeneralPath) shape).curveTo(431.59866, 357.50574, 433.54327, 358.32193, 434.52905, 355.67474);
	    ((GeneralPath) shape).curveTo(434.93903, 354.57245, 437.23514, 354.22403, 437.23514, 352.97018);
	    ((GeneralPath) shape).curveTo(437.23514, 351.7854, 436.64694, 351.0602, 436.64694, 350.03052);
	    ((GeneralPath) shape).curveTo(436.64694, 349.2986, 436.7646, 348.56848, 436.7646, 347.91412);
	    ((GeneralPath) shape).curveTo(436.7646, 346.48004, 435.82312, 345.8363, 435.82312, 344.26877);
	    ((GeneralPath) shape).curveTo(435.82312, 343.24225, 436.1764, 342.209, 436.1764, 341.094);
	    ((GeneralPath) shape).curveTo(437.52112, 340.75797, 438.6497, 340.5795, 439.00046, 339.2127);
	    ((GeneralPath) shape).curveTo(439.35446, 337.83176, 439.07526, 337.80167, 440.88306, 337.80167);
	    ((GeneralPath) shape).curveTo(441.64877, 337.80167, 444.1777, 337.5761, 444.1777, 336.62573);
	    ((GeneralPath) shape).curveTo(444.1777, 334.49976, 444.31946, 334.913, 445.00156, 333.68607);
	    ((GeneralPath) shape).curveTo(445.30557, 333.13864, 445.28433, 332.6599, 445.7074, 332.27502);
	    ((GeneralPath) shape).curveTo(445.82645, 332.16702, 447.7895, 331.67484, 448.17856, 331.56967);
	    ((GeneralPath) shape).curveTo(450.92612, 330.82715, 448.82666, 326.9247, 450.76736, 326.27814);
	    ((GeneralPath) shape).curveTo(451.73364, 327.10565, 453.38876, 327.1053, 454.41495, 327.80673);
	    ((GeneralPath) shape).curveTo(455.0765, 328.25854, 456.2692, 328.83005, 457.00375, 328.98267);
	    ((GeneralPath) shape).curveTo(457.65112, 329.11722, 457.83893, 328.92038, 458.29816, 328.74756);
	    ((GeneralPath) shape).curveTo(459.57767, 328.266, 459.6436, 328.20828, 459.7102, 326.74872);
	    ((GeneralPath) shape).curveTo(459.78812, 325.0229, 465.6174, 327.3036, 466.65244, 327.9243);
	    ((GeneralPath) shape).curveTo(468.4167, 329.40933, 467.05286, 329.9235, 469.59418, 329.9235);
	    ((GeneralPath) shape).curveTo(470.95343, 329.9235, 470.79965, 329.875, 471.83008, 330.7464);
	    ((GeneralPath) shape).curveTo(473.78427, 332.3986, 472.8424, 329.8541, 473.35977, 328.98267);
	    ((GeneralPath) shape).curveTo(473.98553, 327.92926, 477.00558, 328.5135, 478.1841, 327.80673);
	    ((GeneralPath) shape).curveTo(478.96152, 326.9006, 478.30176, 324.91168, 478.30176, 323.6915);
	    ((GeneralPath) shape).curveTo(478.30176, 322.61188, 476.64273, 320.04614, 475.71295, 320.04614);
	    ((GeneralPath) shape).curveTo(474.70874, 320.04614, 476.3015, 318.8047, 476.3015, 317.69427);
	    ((GeneralPath) shape).curveTo(476.3015, 316.4298, 475.57617, 311.6318, 475.12476, 311.57983);
	    ((GeneralPath) shape).curveTo(472.98096, 311.33295, 472.2003, 309.3661, 471.63226, 307.762);
	    ((GeneralPath) shape).lineTo(472.7829, 306.35062);
	    ((GeneralPath) shape).lineTo(479.4009, 308.859);
	    ((GeneralPath) shape).lineTo(479.17273, 305.21045);
	    ((GeneralPath) shape).lineTo(486.01892, 304.75436);
	    ((GeneralPath) shape).lineTo(496.51624, 307.94687);
	    ((GeneralPath) shape).lineTo(500.3959, 313.19202);
	    ((GeneralPath) shape).lineTo(501.99326, 312.27988);
	    ((GeneralPath) shape).lineTo(504.7316, 312.27988);
	    ((GeneralPath) shape).lineTo(504.95978, 316.61255);
	    ((GeneralPath) shape).lineTo(510.8932, 315.47238);
	    ((GeneralPath) shape).curveTo(510.8932, 317.11322, 512.23083, 317.55655, 513.1751, 316.61255);
	    ((GeneralPath) shape).curveTo(513.78705, 316.00104, 514.91064, 316.10938, 516.142, 316.15646);
	    ((GeneralPath) shape).curveTo(519.56354, 316.28784, 516.5361, 317.40002, 517.51117, 319.3493);
	    ((GeneralPath) shape).curveTo(517.66815, 319.6634, 519.066, 320.48947, 519.33673, 320.48947);
	    ((GeneralPath) shape).curveTo(520.31934, 320.48947, 521.16547, 324.33563, 523.6728, 322.76984);
	    ((GeneralPath) shape).curveTo(524.4048, 322.3127, 527.121, 323.3427, 528.6925, 323.8735);
	    ((GeneralPath) shape).lineTo(520.60956, 337.58997);
	    ((GeneralPath) shape).lineTo(518.9948, 337.58997);
	    ((GeneralPath) shape).curveTo(518.1596, 337.58997, 518.1515, 337.0804, 516.97687, 337.18665);
	    ((GeneralPath) shape).curveTo(515.93756, 337.28085, 516.90985, 337.45538, 516.5733, 337.99326);
	    ((GeneralPath) shape).curveTo(516.16974, 338.63876, 515.7626, 338.14978, 516.1694, 338.80023);
	    ((GeneralPath) shape).curveTo(516.3118, 339.02792, 516.5386, 338.93726, 516.5733, 339.20355);
	    ((GeneralPath) shape).curveTo(516.6208, 339.57428, 516.5733, 340.036, 516.5733, 340.41348);
	    ((GeneralPath) shape).curveTo(516.5733, 341.3497, 516.25903, 342.19138, 516.97687, 342.4304);
	    ((GeneralPath) shape).lineTo(499.62024, 358.96786);
	    ((GeneralPath) shape).curveTo(497.19833, 356.95132, 497.74258, 356.98602, 497.60193, 356.95132);
	    ((GeneralPath) shape).curveTo(494.75763, 356.24103, 497.15405, 357.23636, 496.39114, 357.75793);
	    ((GeneralPath) shape).curveTo(495.65164, 358.2632, 494.07623, 357.2112, 493.96924, 358.96786);
	    ((GeneralPath) shape).curveTo(493.89734, 360.15228, 493.15637, 361.13492, 493.15637, 362.32748);
	    ((GeneralPath) shape).curveTo(491.66565, 362.28888, 489.1619, 364.01898, 487.10745, 363.74387);
	    ((GeneralPath) shape).curveTo(484.73584, 362.07574, 482.21472, 359.7582, 482.21472, 362.11328);
	    ((GeneralPath) shape).curveTo(482.21472, 362.6738, 481.0748, 376.3343, 484.28195, 379.53915);
	    ((GeneralPath) shape).curveTo(485.28827, 380.54477, 487.00293, 381.4633, 488.31824, 382.36267);
	    ((GeneralPath) shape).curveTo(489.84793, 383.40866, 489.86102, 387.22293, 492.34885, 387.22293);
	    ((GeneralPath) shape).curveTo(495.67963, 387.22293, 496.51233, 387.92014, 498.4095, 389.09006);
	    ((GeneralPath) shape).curveTo(500.56317, 390.4186, 499.4902, 390.42993, 501.63858, 390.42993);
	    ((GeneralPath) shape).curveTo(503.3185, 390.42993, 504.66464, 390.98444, 504.86768, 389.21967);
	    ((GeneralPath) shape).curveTo(504.91867, 388.77704, 504.91907, 387.37378, 505.27127, 387.20312);
	    ((GeneralPath) shape).curveTo(507.4182, 386.16315, 505.50833, 386.91525, 506.48206, 386.39615);
	    ((GeneralPath) shape).curveTo(509.58676, 384.7422, 506.6837, 387.20312, 507.69318, 385.58954);
	    ((GeneralPath) shape).curveTo(507.83527, 385.36185, 507.9065, 385.376, 508.09677, 385.18622);
	    ((GeneralPath) shape).curveTo(508.19107, 385.0916, 508.70587, 384.8346, 508.90396, 384.7829);
	    ((GeneralPath) shape).curveTo(509.5921, 384.60406, 509.7278, 384.37958, 510.51868, 384.37958);
	    ((GeneralPath) shape).curveTo(513.49866, 384.62744, 512.3545, 385.42767, 512.5366, 388.41302);
	    ((GeneralPath) shape).curveTo(512.60785, 389.5815, 513.3438, 390.48904, 513.3438, 392.44647);
	    ((GeneralPath) shape).curveTo(513.3438, 394.21515, 511.32584, 394.0569, 511.32584, 396.4803);
	    ((GeneralPath) shape).curveTo(511.32584, 399.87387, 512.8952, 401.85007, 512.13306, 405.35416);
	    ((GeneralPath) shape).curveTo(511.885, 406.49503, 509.9332, 408.13586, 509.30756, 409.3876);
	    ((GeneralPath) shape).curveTo(508.90488, 410.19324, 508.13007, 412.5445, 507.24136, 413.62427);
	    ((GeneralPath) shape).closePath();
	
	    g.setPaint(new Color(0x3c7a51));
	    g.fill(shape);
	    g.setPaint(Color.WHITE);
	    g.draw(shape);
	    if (this.drawSquares){ this.paintSquare(g, shape); }
	    this.detectMouse(g, shape, "Zacatecas");
	    
	    /*
	     * 
	     * Aguascalientes
	     * 
	     * */
	    // _0_0_0_25
	    shape = new GeneralPath();
	    ((GeneralPath) shape).moveTo(495.83472, 406.62454);
	    ((GeneralPath) shape).curveTo(495.48782, 406.73996, 495.0269, 409.66394, 494.83838, 410.38596);
	    ((GeneralPath) shape).curveTo(494.30014, 412.45102, 493.87387, 412.54272, 492.2028, 413.52142);
	    ((GeneralPath) shape).lineTo(484.92288, 417.7861);
	    ((GeneralPath) shape).curveTo(482.30112, 419.3218, 485.22726, 421.11954, 480.15347, 420.16913);
	    ((GeneralPath) shape).curveTo(479.35834, 420.16913, 479.22864, 419.19678, 479.02383, 418.66388);
	    ((GeneralPath) shape).curveTo(478.92563, 418.4093, 476.90915, 417.53326, 476.3879, 417.4097);
	    ((GeneralPath) shape).curveTo(475.68314, 417.24185, 476.0208, 416.91714, 475.63495, 416.53156);
	    ((GeneralPath) shape).curveTo(475.00067, 415.89774, 473.111, 417.09528, 472.6227, 415.7791);
	    ((GeneralPath) shape).curveTo(472.5118, 415.47955, 472.80627, 415.11804, 472.3715, 415.02667);
	    ((GeneralPath) shape).curveTo(472.3003, 415.01147, 471.49982, 415.3436, 471.11642, 415.4027);
	    ((GeneralPath) shape).curveTo(470.03003, 415.57126, 470.71814, 415.80957, 470.46326, 416.44727);
	    ((GeneralPath) shape).curveTo(467.2226, 415.70676, 466.7591, 414.5672, 467.3289, 410.19366);
	    ((GeneralPath) shape).curveTo(467.51562, 408.7603, 468.54, 409.3336, 468.54, 407.7738);
	    ((GeneralPath) shape).curveTo(468.54, 406.6595, 469.6087, 404.11993, 470.1544, 403.74);
	    ((GeneralPath) shape).curveTo(471.03384, 403.12885, 471.7691, 403.02863, 471.7691, 402.12674);
	    ((GeneralPath) shape).curveTo(471.7691, 397.24985, 470.38293, 397.28632, 477.01617, 397.28632);
	    ((GeneralPath) shape).curveTo(479.90085, 397.28632, 479.43808, 396.90176, 479.43808, 394.05948);
	    ((GeneralPath) shape).curveTo(479.43808, 392.78085, 481.67822, 392.9101, 483.07077, 392.4459);
	    ((GeneralPath) shape).curveTo(483.53, 393.8219, 484.97498, 393.94547, 485.89627, 394.8661);
	    ((GeneralPath) shape).curveTo(487.33914, 396.30795, 486.77008, 396.93362, 489.12537, 397.28632);
	    ((GeneralPath) shape).curveTo(489.88898, 397.40033, 490.19016, 398.8999, 491.14368, 398.8999);
	    ((GeneralPath) shape).lineTo(491.54727, 398.8999);
	    ((GeneralPath) shape).curveTo(492.58264, 398.8999, 490.80103, 401.6395, 491.14368, 402.53003);
	    ((GeneralPath) shape).curveTo(491.53415, 403.54556, 492.26163, 403.0215, 492.3548, 403.73996);
	    ((GeneralPath) shape).curveTo(492.3892, 404.00623, 492.2223, 404.31287, 492.3548, 404.54657);
	    ((GeneralPath) shape).curveTo(493.21338, 406.0656, 493.55212, 404.05508, 493.96918, 404.14325);
	    ((GeneralPath) shape).curveTo(495.54456, 404.47644, 495.05167, 404.61987, 495.17996, 406.16016);
	    ((GeneralPath) shape).lineTo(495.83472, 406.62448);
	    ((GeneralPath) shape).closePath();
	
	    g.setPaint(new Color(0x3c7a51));
	    g.fill(shape);
	    g.setPaint(Color.WHITE);
	    g.draw(shape);
	    if (this.drawSquares){ this.paintSquare(g, shape); }
	    this.detectMouse(g, shape, "Aguascalientes");
	    /*
	     * 
	     * 
	     * Guanajuato
	     * 
	     * */
	    // _0_0_0_26
	    shape = new GeneralPath();
	    ((GeneralPath) shape).moveTo(489.8134, 461.94025);
	    ((GeneralPath) shape).curveTo(489.8134, 458.58487, 490.08173, 457.96655, 491.32404, 455.5389);
	    ((GeneralPath) shape).curveTo(491.64825, 454.9058, 491.87396, 455.36716, 492.07736, 455.03717);
	    ((GeneralPath) shape).curveTo(493.32782, 453.00574, 493.66586, 453.8644, 492.2028, 451.5253);
	    ((GeneralPath) shape).curveTo(492.0256, 451.242, 492.50256, 450.35608, 492.32822, 450.2711);
	    ((GeneralPath) shape).curveTo(490.126, 449.19998, 489.6923, 451.31387, 489.6923, 448.51517);
	    ((GeneralPath) shape).curveTo(491.36053, 448.51517, 491.2156, 444.95584, 491.70068, 443.87445);
	    ((GeneralPath) shape).curveTo(492.6, 441.86746, 495.32452, 440.50388, 496.84677, 438.98267);
	    ((GeneralPath) shape).curveTo(498.7574, 437.07376, 499.77682, 432.29282, 501.61618, 431.33182);
	    ((GeneralPath) shape).curveTo(504.22058, 429.97174, 503.27768, 428.2243, 504.62842, 426.064);
	    ((GeneralPath) shape).curveTo(502.93112, 425.6398, 504.2521, 423.49826, 504.2521, 422.3011);
	    ((GeneralPath) shape).curveTo(504.2521, 420.9364, 504.6982, 419.74173, 505.13052, 418.5385);
	    ((GeneralPath) shape).curveTo(505.3541, 417.91672, 505.92035, 417.59167, 506.00928, 416.65723);
	    ((GeneralPath) shape).curveTo(506.10388, 415.66116, 506.30267, 414.07413, 507.24802, 413.61084);
	    ((GeneralPath) shape).curveTo(510.97104, 414.57135, 515.89496, 414.00836, 520.10376, 414.52283);
	    ((GeneralPath) shape).curveTo(523.5816, 414.9481, 530.2383, 420.5855, 532.4639, 423.238);
	    ((GeneralPath) shape).curveTo(534.6364, 425.82605, 542.3801, 417.72302, 544.5235, 417.00955);
	    ((GeneralPath) shape).curveTo(546.18286, 417.39233, 547.6948, 417.43872, 547.91064, 419.3115);
	    ((GeneralPath) shape).curveTo(548.2196, 421.98877, 552.1613, 422.7005, 554.14386, 423.50888);
	    ((GeneralPath) shape).curveTo(555.0382, 423.8736, 555.79047, 423.91504, 556.9892, 423.91504);
	    ((GeneralPath) shape).curveTo(558.2613, 423.91504, 558.69604, 424.32117, 559.80817, 424.33502);
	    ((GeneralPath) shape).lineTo(560.93726, 430.37897);
	    ((GeneralPath) shape).lineTo(562.00275, 429.49197);
	    ((GeneralPath) shape).curveTo(562.8865, 429.89954, 562.67, 429.77914, 563.4233, 429.84677);
	    ((GeneralPath) shape).curveTo(564.00793, 429.89957, 563.6876, 429.93317, 563.9559, 430.20157);
	    ((GeneralPath) shape).curveTo(564.037, 430.28265, 564.2156, 430.3085, 564.3113, 430.55637);
	    ((GeneralPath) shape).curveTo(564.3531, 430.66647, 564.2486, 430.8113, 564.3113, 430.91153);
	    ((GeneralPath) shape).curveTo(564.37396, 431.01132, 564.47394, 430.97202, 564.4888, 431.08893);
	    ((GeneralPath) shape).curveTo(564.49677, 431.15442, 564.46045, 431.59317, 564.4888, 431.62112);
	    ((GeneralPath) shape).curveTo(564.7152, 431.84738, 564.71094, 431.39948, 564.8438, 431.79852);
	    ((GeneralPath) shape).curveTo(564.53485, 431.86014, 562.5052, 432.05487, 562.3578, 432.3311);
	    ((GeneralPath) shape).curveTo(561.84186, 433.29987, 561.4808, 433.71875, 560.5822, 434.46024);
	    ((GeneralPath) shape).curveTo(559.943, 434.9882, 560.06946, 434.9928, 559.1617, 434.9928);
	    ((GeneralPath) shape).curveTo(558.68365, 434.9928, 557.8216, 434.82742, 558.2737, 434.10544);
	    ((GeneralPath) shape).curveTo(558.6695, 433.4727, 558.1451, 433.55484, 557.38574, 433.21808);
	    ((GeneralPath) shape).curveTo(555.2338, 432.2631, 556.3046, 434.1635, 554.8997, 434.10544);
	    ((GeneralPath) shape).curveTo(553.65424, 434.05414, 553.63544, 434.15964, 553.8346, 433.21808);
	    ((GeneralPath) shape).curveTo(553.94446, 432.69757, 552.4569, 433.24887, 552.23615, 433.39584);
	    ((GeneralPath) shape).lineTo(552.76904, 440.4936);
	    ((GeneralPath) shape).curveTo(550.7943, 440.4936, 550.8457, 440.28537, 550.63806, 442.09055);
	    ((GeneralPath) shape).curveTo(550.57007, 442.6819, 549.44745, 442.85114, 549.395, 442.4457);
	    ((GeneralPath) shape).curveTo(549.26886, 441.47586, 548.44293, 442.428, 548.152, 442.4457);
	    ((GeneralPath) shape).curveTo(547.2863, 442.4981, 545.95966, 442.86884, 546.3764, 441.55835);
	    ((GeneralPath) shape).curveTo(546.4136, 441.4401, 546.5674, 441.02615, 546.021, 441.02615);
	    ((GeneralPath) shape).curveTo(543.63983, 441.02615, 545.4888, 441.69965, 545.13336, 442.9779);
	    ((GeneralPath) shape).curveTo(544.71844, 444.47003, 542.7862, 444.04266, 541.22675, 444.04266);
	    ((GeneralPath) shape).curveTo(539.94934, 444.04266, 539.5482, 442.8979, 538.9182, 442.2683);
	    ((GeneralPath) shape).curveTo(538.33887, 443.59225, 537.4176, 445.5249, 536.4322, 446.17218);
	    ((GeneralPath) shape).curveTo(534.9624, 447.13672, 534.0762, 450.15146, 536.4322, 450.25342);
	    ((GeneralPath) shape).curveTo(541.1109, 450.4556, 536.6097, 449.9804, 536.6097, 452.91513);
	    ((GeneralPath) shape).curveTo(536.6097, 453.57834, 537.80804, 453.22568, 538.38525, 453.26993);
	    ((GeneralPath) shape).curveTo(538.8785, 453.30743, 538.797, 456.7517, 539.0957, 457.5286);
	    ((GeneralPath) shape).curveTo(539.3441, 458.1741, 538.775, 461.35632, 539.0957, 461.6102);
	    ((GeneralPath) shape).curveTo(539.44794, 461.8896, 541.6257, 461.5235, 542.2922, 461.6102);
	    ((GeneralPath) shape).curveTo(542.62384, 461.6527, 542.4426, 462.3467, 542.46967, 462.6746);
	    ((GeneralPath) shape).curveTo(542.48956, 462.91562, 543.18567, 464.12442, 543.79236, 465.12494);
	    ((GeneralPath) shape).curveTo(543.54034, 465.45718, 543.4051, 465.96106, 543.4051, 466.46017);
	    ((GeneralPath) shape).curveTo(543.4051, 467.22748, 542.6868, 468.02737, 542.7205, 468.32092);
	    ((GeneralPath) shape).curveTo(542.8516, 469.4664, 542.99475, 469.0068, 542.03595, 469.59424);
	    ((GeneralPath) shape).curveTo(541.71063, 469.79324, 542.8842, 471.717, 543.1117, 471.94434);
	    ((GeneralPath) shape).curveTo(544.6336, 473.4655, 541.8733, 472.9535, 541.5466, 473.80508);
	    ((GeneralPath) shape).curveTo(541.2298, 474.63013, 541.9045, 474.4233, 540.9598, 475.0784);
	    ((GeneralPath) shape).curveTo(540.7217, 475.24304, 540.6915, 475.4247, 540.3726, 475.47037);
	    ((GeneralPath) shape).curveTo(539.72986, 475.56168, 538.9397, 475.47937, 538.4163, 475.76392);
	    ((GeneralPath) shape).curveTo(538.24835, 475.25864, 536.0454, 475.47037, 535.4817, 475.47037);
	    ((GeneralPath) shape).curveTo(534.7599, 475.47037, 533.9899, 475.96573, 533.3298, 476.0578);
	    ((GeneralPath) shape).curveTo(532.92474, 476.1144, 533.18555, 476.40268, 532.7426, 476.5475);
	    ((GeneralPath) shape).curveTo(532.01373, 476.78613, 532.3525, 477.03683, 531.47125, 477.03683);
	    ((GeneralPath) shape).curveTo(530.3402, 477.03683, 529.44196, 476.05777, 528.53625, 476.05777);
	    ((GeneralPath) shape).curveTo(526.91656, 476.05777, 526.2876, 475.97168, 525.4064, 474.88254);
	    ((GeneralPath) shape).curveTo(524.8922, 474.24765, 524.17505, 474.98022, 523.7431, 474.19702);
	    ((GeneralPath) shape).curveTo(523.0915, 473.01364, 523.37775, 472.80685, 522.9604, 471.55267);
	    ((GeneralPath) shape).curveTo(522.37286, 469.78824, 520.13666, 470.495, 518.461, 470.86716);
	    ((GeneralPath) shape).curveTo(517.78174, 470.86716, 518.07587, 471.23117, 517.6783, 471.65076);
	    ((GeneralPath) shape).curveTo(517.4805, 471.8593, 517.11206, 472.24457, 516.9937, 472.43436);
	    ((GeneralPath) shape).curveTo(516.8874, 472.60538, 516.683, 472.94247, 516.60254, 473.11987);
	    ((GeneralPath) shape).curveTo(516.043, 474.35318, 514.15015, 474.40344, 512.983, 473.6096);
	    ((GeneralPath) shape).curveTo(512.87524, 473.53668, 511.74774, 473.4485, 511.61346, 473.41342);
	    ((GeneralPath) shape).curveTo(511.2148, 473.31003, 510.8311, 472.16312, 510.8311, 471.65076);
	    ((GeneralPath) shape).curveTo(510.8311, 470.12357, 510.70352, 471.02435, 510.14615, 470.27972);
	    ((GeneralPath) shape).curveTo(509.85345, 469.8888, 509.9509, 469.38528, 509.9509, 468.9087);
	    ((GeneralPath) shape).curveTo(509.9509, 468.24973, 512.488, 468.53726, 511.12448, 466.55823);
	    ((GeneralPath) shape).curveTo(510.66702, 465.8936, 509.67593, 463.41248, 509.36377, 463.32645);
	    ((GeneralPath) shape).curveTo(507.4149, 462.78577, 502.09238, 464.22266, 501.83157, 466.36276);
	    ((GeneralPath) shape).curveTo(501.68274, 467.58615, 498.25345, 467.24374, 496.9406, 467.24374);
	    ((GeneralPath) shape).curveTo(492.07022, 467.24374, 495.4372, 463.26788, 492.14746, 462.2493);
	    ((GeneralPath) shape).curveTo(491.06067, 461.9128, 490.57874, 462.0688, 489.81332, 461.94025);
	    ((GeneralPath) shape).closePath();
	    
	    g.setPaint(new Color(0x3c7a51));
	    g.fill(shape);
	    g.setPaint(Color.WHITE);
	    g.draw(shape);
	    if (this.drawSquares){ this.paintSquare(g, shape); }
	    this.detectMouse(g, shape, "Guanajuato");
	    
	    
	    /*
	     * 
	     * 
	     * Jalisco
	     * 
	     * */
	    // _0_0_0_27
	    shape = new GeneralPath();
	    ((GeneralPath) shape).moveTo(389.41336, 450.37787);
	    ((GeneralPath) shape).curveTo(389.74728, 451.0733, 389.59378, 452.10886, 389.59378, 453.24866);
	    ((GeneralPath) shape).curveTo(389.59378, 454.86508, 389.29117, 456.00278, 388.0464, 456.56223);
	    ((GeneralPath) shape).curveTo(386.28745, 457.35327, 382.8252, 456.39014, 382.07755, 456.78317);
	    ((GeneralPath) shape).curveTo(380.6981, 457.5087, 380.08224, 456.1621, 378.54016, 457.667);
	    ((GeneralPath) shape).curveTo(377.53455, 458.64853, 378.43777, 459.6552, 376.55054, 459.6552);
	    ((GeneralPath) shape).curveTo(377.38818, 464.95737, 377.91333, 467.0175, 380.30865, 471.80585);
	    ((GeneralPath) shape).curveTo(380.8196, 472.82706, 382.35815, 478.2, 382.7405, 478.43338);
	    ((GeneralPath) shape).curveTo(388.42944, 481.9003, 392.6461, 483.64136, 394.45746, 488.5958);
	    ((GeneralPath) shape).curveTo(397.0477, 495.6808, 403.13205, 497.82376, 409.16113, 500.13953);
	    ((GeneralPath) shape).curveTo(409.31244, 500.01276, 409.4283, 499.93945, 409.48926, 499.93945);
	    ((GeneralPath) shape).curveTo(410.87686, 499.93945, 413.22116, 498.4002, 414.25867, 497.43106);
	    ((GeneralPath) shape).curveTo(416.783, 495.07422, 421.63248, 496.60568, 424.5508, 495.2987);
	    ((GeneralPath) shape).curveTo(427.76892, 493.8586, 424.87894, 491.74045, 427.81427, 490.4073);
	    ((GeneralPath) shape).curveTo(429.26175, 490.04575, 428.76993, 490.83643, 429.82233, 491.03436);
	    ((GeneralPath) shape).curveTo(431.18015, 491.28894, 431.2549, 490.32053, 431.95615, 491.7868);
	    ((GeneralPath) shape).curveTo(432.39694, 492.7092, 434.5159, 491.767, 435.2196, 492.53958);
	    ((GeneralPath) shape).curveTo(435.45773, 492.80127, 435.2246, 493.52325, 435.4705, 493.66843);
	    ((GeneralPath) shape).curveTo(436.6873, 494.38617, 437.66635, 491.8523, 437.8552, 491.28503);
	    ((GeneralPath) shape).curveTo(438.45865, 489.47385, 439.65347, 491.006, 441.11865, 489.6548);
	    ((GeneralPath) shape).curveTo(443.08524, 488.99973, 442.20825, 493.07565, 443.88004, 493.29202);
	    ((GeneralPath) shape).curveTo(444.90054, 493.4241, 444.4654, 494.72043, 445.1351, 494.79727);
	    ((GeneralPath) shape).curveTo(445.45755, 494.83408, 446.90076, 494.62943, 447.1435, 494.9226);
	    ((GeneralPath) shape).curveTo(447.58926, 495.4626, 446.18747, 495.27173, 446.01385, 495.29865);
	    ((GeneralPath) shape).curveTo(445.1723, 495.4318, 445.06494, 498.7528, 445.38596, 499.43796);
	    ((GeneralPath) shape).curveTo(445.55142, 499.78992, 446.25656, 499.62634, 445.88806, 500.69217);
	    ((GeneralPath) shape).curveTo(445.77573, 501.01828, 444.12912, 501.10257, 443.62878, 501.4446);
	    ((GeneralPath) shape).curveTo(443.5395, 501.50552, 444.75842, 504.2869, 444.75842, 505.45822);
	    ((GeneralPath) shape).curveTo(444.75842, 507.09094, 445.76263, 505.72202, 445.76263, 507.0888);
	    ((GeneralPath) shape).curveTo(445.76263, 507.44397, 445.80164, 507.5038, 445.88806, 507.96658);
	    ((GeneralPath) shape).curveTo(445.89838, 507.9361, 449.38113, 508.6358, 450.28116, 507.96658);
	    ((GeneralPath) shape).curveTo(450.9303, 507.4836, 451.34665, 506.14337, 452.28918, 506.7124);
	    ((GeneralPath) shape).curveTo(453.82172, 507.63693, 453.08963, 507.15714, 453.92093, 506.83774);
	    ((GeneralPath) shape).curveTo(455.31348, 506.3027, 455.3018, 507.9549, 455.3018, 508.84473);
	    ((GeneralPath) shape).curveTo(455.3018, 511.08966, 457.245, 510.00967, 457.56107, 508.46832);
	    ((GeneralPath) shape).curveTo(457.95297, 506.55905, 458.27185, 506.54135, 459.94577, 505.8346);
	    ((GeneralPath) shape).curveTo(460.93616, 505.4157, 461.0552, 504.51736, 461.20084, 503.45157);
	    ((GeneralPath) shape).curveTo(461.3741, 502.7579, 461.57147, 502.21756, 461.9538, 501.69562);
	    ((GeneralPath) shape).curveTo(462.3131, 501.20627, 465.00467, 501.84717, 465.59393, 501.44458);
	    ((GeneralPath) shape).curveTo(465.9068, 501.2307, 466.00815, 500.65814, 466.09567, 500.1904);
	    ((GeneralPath) shape).curveTo(467.33267, 500.06717, 466.94394, 499.31226, 468.48074, 499.31226);
	    ((GeneralPath) shape).curveTo(469.81235, 499.31226, 468.61646, 500.43365, 469.7358, 500.5668);
	    ((GeneralPath) shape).curveTo(472.64316, 500.91238, 471.06882, 500.1125, 471.86963, 499.31226);
	    ((GeneralPath) shape).curveTo(472.50638, 498.67596, 472.50674, 497.85236, 472.9989, 496.67853);
	    ((GeneralPath) shape).curveTo(473.3752, 495.78232, 473.48328, 495.72778, 473.8777, 495.29865);
	    ((GeneralPath) shape).curveTo(474.4765, 494.64676, 474.4053, 494.4906, 474.63065, 493.66843);
	    ((GeneralPath) shape).curveTo(474.82162, 492.97052, 474.96265, 492.71805, 475.13275, 492.03784);
	    ((GeneralPath) shape).curveTo(475.497, 491.91675, 475.38397, 490.09918, 475.38397, 489.65482);
	    ((GeneralPath) shape).curveTo(475.38397, 488.47287, 473.68207, 489.0858, 472.74805, 488.90204);
	    ((GeneralPath) shape).curveTo(470.08978, 488.3801, 471.86752, 491.61508, 469.4846, 490.53262);
	    ((GeneralPath) shape).curveTo(468.96228, 490.29538, 469.54868, 489.07166, 468.98248, 488.90204);
	    ((GeneralPath) shape).curveTo(467.3341, 488.40915, 468.6632, 486.28708, 467.3511, 486.01727);
	    ((GeneralPath) shape).curveTo(466.07193, 485.75418, 466.1527, 485.93298, 466.3469, 484.63773);
	    ((GeneralPath) shape).curveTo(466.5152, 483.51135, 466.6828, 482.08224, 466.47232, 480.74945);
	    ((GeneralPath) shape).curveTo(465.9663, 480.5809, 466.69165, 480.26932, 466.72354, 480.2477);
	    ((GeneralPath) shape).curveTo(467.01126, 480.05084, 467.64197, 480.1004, 468.10403, 479.997);
	    ((GeneralPath) shape).curveTo(469.04092, 479.78775, 469.8612, 480.0083, 469.8612, 478.86816);
	    ((GeneralPath) shape).curveTo(469.8612, 478.04913, 469.60468, 477.25034, 469.23367, 476.35944);
	    ((GeneralPath) shape).curveTo(468.49594, 476.11404, 467.4655, 475.9834, 466.4723, 475.9834);
	    ((GeneralPath) shape).curveTo(465.15344, 475.9834, 464.5096, 474.38574, 463.20883, 474.72922);
	    ((GeneralPath) shape).curveTo(462.7379, 474.85315, 461.37582, 474.91193, 461.2008, 475.3563);
	    ((GeneralPath) shape).curveTo(461.10016, 475.6123, 461.1978, 476.4529, 460.6987, 476.48514);
	    ((GeneralPath) shape).curveTo(458.91354, 476.60022, 460.79898, 475.35382, 458.69064, 475.48166);
	    ((GeneralPath) shape).curveTo(458.18643, 475.51215, 458.72714, 476.36935, 458.0631, 475.23062);
	    ((GeneralPath) shape).lineTo(460.94992, 468.3322);
	    ((GeneralPath) shape).curveTo(461.97183, 467.56665, 461.09732, 467.32907, 463.0834, 467.32907);
	    ((GeneralPath) shape).curveTo(464.0596, 467.32907, 464.4097, 466.95267, 464.84058, 466.95267);
	    ((GeneralPath) shape).curveTo(465.66016, 466.95267, 465.1928, 467.38892, 465.5939, 467.57974);
	    ((GeneralPath) shape).curveTo(467.08212, 468.28793, 467.72278, 468.85483, 469.48456, 468.7086);
	    ((GeneralPath) shape).curveTo(470.48627, 468.6257, 470.2726, 467.88675, 470.74, 467.2037);
	    ((GeneralPath) shape).curveTo(470.91043, 466.95444, 471.679, 466.868, 471.74384, 466.70197);
	    ((GeneralPath) shape).curveTo(471.9157, 466.26114, 471.82812, 465.94916, 472.49716, 465.94916);
	    ((GeneralPath) shape).lineTo(473.8777, 465.94916);
	    ((GeneralPath) shape).curveTo(474.06265, 465.3943, 474.6859, 465.06146, 474.75644, 464.06787);
	    ((GeneralPath) shape).curveTo(474.81104, 463.29242, 476.3017, 462.35052, 476.76447, 462.06122);
	    ((GeneralPath) shape).curveTo(477.13226, 461.83176, 477.00153, 462.61185, 477.14114, 462.81366);
	    ((GeneralPath) shape).curveTo(477.61914, 463.50626, 479.697, 462.90076, 480.15338, 462.81366);
	    ((GeneralPath) shape).curveTo(480.4521, 462.75626, 484.07272, 462.13983, 484.16983, 462.18655);
	    ((GeneralPath) shape).curveTo(484.3215, 462.25986, 483.90973, 463.3947, 484.42072, 463.44073);
	    ((GeneralPath) shape).curveTo(485.40686, 463.52963, 486.58926, 462.45883, 486.9312, 461.81015);
	    ((GeneralPath) shape).curveTo(487.34402, 461.0262, 489.03705, 461.80515, 489.81802, 461.9355);
	    ((GeneralPath) shape).curveTo(489.81802, 458.58014, 490.08163, 457.9665, 491.32397, 455.53885);
	    ((GeneralPath) shape).curveTo(491.6482, 454.90573, 491.8739, 455.3671, 492.0773, 455.0371);
	    ((GeneralPath) shape).curveTo(493.32776, 453.00568, 493.6658, 453.86435, 492.20273, 451.52524);
	    ((GeneralPath) shape).curveTo(492.02554, 451.24194, 492.5025, 450.35602, 492.32816, 450.27103);
	    ((GeneralPath) shape).curveTo(490.12595, 449.19992, 489.69223, 451.3138, 489.69223, 448.5151);
	    ((GeneralPath) shape).curveTo(491.36047, 448.5151, 491.21555, 444.95578, 491.70062, 443.8744);
	    ((GeneralPath) shape).curveTo(492.59995, 441.8674, 495.32446, 440.5038, 496.8467, 438.9826);
	    ((GeneralPath) shape).curveTo(498.75732, 437.0737, 499.77676, 432.29276, 501.61612, 431.33176);
	    ((GeneralPath) shape).curveTo(504.22052, 429.97168, 503.27762, 428.22424, 504.62836, 426.06393);
	    ((GeneralPath) shape).curveTo(502.93106, 425.63974, 504.25204, 423.4982, 504.25204, 422.30103);
	    ((GeneralPath) shape).curveTo(504.25204, 420.93634, 504.69815, 419.74167, 505.13046, 418.53845);
	    ((GeneralPath) shape).curveTo(505.35403, 417.91666, 505.9203, 417.5916, 506.00922, 416.65717);
	    ((GeneralPath) shape).curveTo(506.10382, 415.6611, 506.3026, 414.07407, 507.26428, 413.6467);
	    ((GeneralPath) shape).lineTo(499.48264, 406.62296);
	    ((GeneralPath) shape).lineTo(495.8425, 406.62296);
	    ((GeneralPath) shape).curveTo(495.4956, 406.73837, 495.0268, 409.66388, 494.8383, 410.38586);
	    ((GeneralPath) shape).curveTo(494.30005, 412.45093, 493.87378, 412.54263, 492.2027, 413.52133);
	    ((GeneralPath) shape).lineTo(484.9228, 417.786);
	    ((GeneralPath) shape).curveTo(482.30103, 419.32172, 485.22717, 421.11945, 480.15338, 420.16904);
	    ((GeneralPath) shape).curveTo(479.35825, 420.16904, 479.22855, 419.1967, 479.02374, 418.6638);
	    ((GeneralPath) shape).curveTo(478.92554, 418.4092, 476.90906, 417.53317, 476.38782, 417.4096);
	    ((GeneralPath) shape).curveTo(475.68304, 417.24176, 476.02072, 416.91705, 475.63486, 416.53146);
	    ((GeneralPath) shape).curveTo(475.00058, 415.89764, 473.1109, 417.09518, 472.62262, 415.77902);
	    ((GeneralPath) shape).curveTo(472.51172, 415.47946, 472.80618, 415.11795, 472.3714, 415.02658);
	    ((GeneralPath) shape).curveTo(472.3002, 415.01138, 471.49973, 415.3435, 471.11633, 415.40262);
	    ((GeneralPath) shape).curveTo(470.02994, 415.57117, 470.71805, 415.80948, 470.4888, 416.4061);
	    ((GeneralPath) shape).curveTo(470.31268, 416.8636, 468.6016, 416.53143, 468.1041, 416.53143);
	    ((GeneralPath) shape).curveTo(468.25754, 417.14435, 468.3199, 418.1553, 468.35498, 418.66376);
	    ((GeneralPath) shape).curveTo(468.39288, 419.21332, 468.1041, 419.43286, 468.1041, 420.0433);
	    ((GeneralPath) shape).curveTo(468.1041, 421.21713, 469.20078, 421.25607, 469.73584, 421.92496);
	    ((GeneralPath) shape).curveTo(470.02036, 422.28012, 470.36832, 423.02866, 470.9909, 422.6774);
	    ((GeneralPath) shape).curveTo(471.38882, 422.45325, 471.4434, 422.6724, 471.99512, 423.0538);
	    ((GeneralPath) shape).lineTo(472.12054, 428.82336);
	    ((GeneralPath) shape).curveTo(470.38818, 428.82336, 469.92294, 429.45044, 468.6062, 429.45044);
	    ((GeneralPath) shape).curveTo(468.32983, 429.45044, 467.41986, 430.80307, 466.97446, 431.08102);
	    ((GeneralPath) shape).curveTo(465.99222, 431.695, 465.16483, 430.27618, 464.9664, 432.20987);
	    ((GeneralPath) shape).curveTo(464.9062, 432.79236, 464.9654, 434.40027, 463.96222, 433.71475);
	    ((GeneralPath) shape).curveTo(463.5448, 433.42935, 464.57806, 432.7116, 463.3347, 432.7116);
	    ((GeneralPath) shape).curveTo(461.93823, 432.7116, 460.70798, 432.6918, 459.31824, 432.46057);
	    ((GeneralPath) shape).lineTo(459.56912, 438.73187);
	    ((GeneralPath) shape).lineTo(454.5485, 439.35895);
	    ((GeneralPath) shape).curveTo(454.10663, 439.46942, 454.52228, 439.59583, 453.92096, 439.73535);
	    ((GeneralPath) shape).curveTo(453.52127, 439.82745, 453.15842, 439.8543, 452.79132, 439.98605);
	    ((GeneralPath) shape).curveTo(452.60953, 440.05154, 451.7035, 440.42087, 451.66168, 440.4878);
	    ((GeneralPath) shape).curveTo(451.4388, 440.8433, 451.5302, 440.7385, 450.90872, 440.7385);
	    ((GeneralPath) shape).curveTo(450.49167, 440.7385, 450.3492, 440.8348, 450.15576, 440.4878);
	    ((GeneralPath) shape).curveTo(449.8397, 439.9209, 449.5934, 439.9623, 449.277, 439.61002);
	    ((GeneralPath) shape).curveTo(449.11047, 439.42377, 449.01657, 438.73364, 448.9007, 438.48117);
	    ((GeneralPath) shape).curveTo(448.59314, 437.8098, 448.48965, 437.3697, 448.14737, 436.59952);
	    ((GeneralPath) shape).curveTo(448.14737, 435.75076, 446.1418, 435.624, 445.386, 435.72174);
	    ((GeneralPath) shape).curveTo(444.7875, 435.79926, 445.24887, 436.72452, 444.2567, 436.97592);
	    ((GeneralPath) shape).curveTo(444.04553, 437.02942, 443.27094, 437.57928, 443.12708, 437.10126);
	    ((GeneralPath) shape).curveTo(442.92227, 436.42422, 443.00128, 435.67853, 443.00128, 434.9689);
	    ((GeneralPath) shape).curveTo(443.00128, 433.3075, 443.12494, 433.3493, 441.62076, 433.96576);
	    ((GeneralPath) shape).curveTo(439.86465, 434.68564, 441.74902, 432.21124, 440.74197, 431.58273);
	    ((GeneralPath) shape).curveTo(440.48508, 431.42197, 440.01453, 430.8002, 439.8636, 430.4539);
	    ((GeneralPath) shape).curveTo(439.618, 429.8884, 439.6382, 429.66, 438.9848, 429.57574);
	    ((GeneralPath) shape).curveTo(438.35126, 429.49396, 438.53162, 429.58075, 438.4827, 428.69797);
	    ((GeneralPath) shape).curveTo(438.4827, 427.54257, 438.26584, 426.5656, 439.61234, 426.5656);
	    ((GeneralPath) shape).curveTo(441.0148, 426.5656, 439.3781, 427.5691, 441.24408, 427.5691);
	    ((GeneralPath) shape).curveTo(442.10406, 427.5691, 442.24084, 427.72488, 442.75037, 427.1927);
	    ((GeneralPath) shape).curveTo(443.61533, 426.2894, 444.1309, 427.86795, 444.1309, 425.68744);
	    ((GeneralPath) shape).curveTo(444.1309, 424.85852, 442.61218, 425.80746, 441.9974, 425.5621);
	    ((GeneralPath) shape).curveTo(441.6948, 425.44135, 440.68564, 424.3465, 440.11444, 425.06036);
	    ((GeneralPath) shape).curveTo(439.96667, 425.24484, 439.764, 425.66162, 439.61234, 425.81317);
	    ((GeneralPath) shape).curveTo(439.53754, 425.88788, 439.1106, 425.84787, 439.1106, 425.68747);
	    ((GeneralPath) shape).curveTo(439.1106, 425.33408, 440.079, 425.4297, 439.61234, 424.68433);
	    ((GeneralPath) shape).curveTo(439.04398, 423.77502, 439.961, 423.1143, 440.4911, 423.05374);
	    ((GeneralPath) shape).curveTo(440.95386, 423.00095, 441.02792, 421.97836, 441.11862, 421.5485);
	    ((GeneralPath) shape).curveTo(442.31168, 421.1512, 443.12134, 420.92142, 444.38208, 420.92142);
	    ((GeneralPath) shape).curveTo(444.7754, 420.92142, 445.1425, 420.02982, 445.38593, 419.54187);
	    ((GeneralPath) shape).curveTo(445.5553, 419.203, 445.22433, 418.3854, 445.38593, 418.03662);
	    ((GeneralPath) shape).curveTo(445.44724, 417.90454, 446.34265, 416.34512, 446.01382, 416.15533);
	    ((GeneralPath) shape).curveTo(445.15384, 415.6596, 443.60928, 415.69608, 444.50754, 414.3994);
	    ((GeneralPath) shape).curveTo(444.00296, 414.3994, 444.06604, 413.7723, 445.00964, 413.7723);
	    ((GeneralPath) shape).curveTo(445.68326, 413.7723, 446.2906, 413.68552, 446.7668, 413.52127);
	    ((GeneralPath) shape).curveTo(447.5857, 413.23907, 447.13568, 411.47922, 448.6494, 411.26358);
	    ((GeneralPath) shape).curveTo(449.68338, 411.11627, 450.04727, 410.7119, 450.28116, 410.0094);
	    ((GeneralPath) shape).curveTo(450.605, 409.03848, 451.7134, 409.6808, 452.16376, 409.0059);
	    ((GeneralPath) shape).curveTo(452.52518, 408.46414, 452.387, 408.4096, 453.16797, 408.1281);
	    ((GeneralPath) shape).curveTo(453.96985, 407.83954, 453.62402, 408.3126, 454.42303, 408.3788);
	    ((GeneralPath) shape).curveTo(455.63098, 408.05728, 457.27618, 408.0364, 458.1886, 407.12463);
	    ((GeneralPath) shape).curveTo(458.2208, 407.09204, 458.1886, 406.04996, 458.1886, 405.9958);
	    ((GeneralPath) shape).curveTo(458.1886, 404.64493, 458.1454, 405.15836, 457.05896, 404.61624);
	    ((GeneralPath) shape).curveTo(456.65784, 404.41617, 457.26413, 403.75192, 457.05896, 403.3617);
	    ((GeneralPath) shape).curveTo(456.7567, 402.78912, 456.86478, 402.0505, 457.30984, 401.60574);
	    ((GeneralPath) shape).curveTo(457.6844, 401.2318, 457.76944, 400.11218, 457.81195, 399.47375);
	    ((GeneralPath) shape).curveTo(457.81195, 398.30066, 457.4353, 397.9448, 457.4353, 396.83966);
	    ((GeneralPath) shape).curveTo(457.4353, 396.0766, 456.8191, 395.98453, 456.18024, 395.58548);
	    ((GeneralPath) shape).curveTo(455.29227, 395.03098, 455.56686, 395.1471, 455.30185, 394.45663);
	    ((GeneralPath) shape).curveTo(455.15372, 394.07208, 455.0308, 394.31253, 454.67432, 394.08023);
	    ((GeneralPath) shape).curveTo(453.74948, 393.479, 454.6653, 393.5785, 453.29346, 393.5785);
	    ((GeneralPath) shape).curveTo(452.90332, 394.09866, 451.85944, 394.53632, 451.5363, 395.08374);
	    ((GeneralPath) shape).curveTo(451.33005, 395.43286, 450.78613, 395.7944, 450.78333, 395.83618);
	    ((GeneralPath) shape).curveTo(450.69684, 397.08505, 450.21353, 397.76385, 450.6579, 398.72095);
	    ((GeneralPath) shape).curveTo(450.86978, 399.1788, 451.2454, 399.1409, 451.41086, 399.5991);
	    ((GeneralPath) shape).curveTo(451.50687, 399.86572, 450.3326, 400.79025, 450.03033, 400.97864);
	    ((GeneralPath) shape).curveTo(449.84323, 401.0955, 448.90567, 400.84833, 448.7749, 400.97864);
	    ((GeneralPath) shape).curveTo(448.4893, 401.26404, 448.77692, 402.24097, 448.64948, 402.60922);
	    ((GeneralPath) shape).curveTo(448.34863, 403.48206, 448.37842, 401.86563, 448.02194, 403.73807);
	    ((GeneralPath) shape).lineTo(439.98904, 403.61273);
	    ((GeneralPath) shape).curveTo(439.24704, 401.38763, 440.87808, 403.1857, 441.2441, 401.60574);
	    ((GeneralPath) shape).curveTo(441.60342, 400.058, 441.78943, 398.8867, 442.62497, 397.96854);
	    ((GeneralPath) shape).curveTo(442.65186, 397.93915, 442.96442, 397.00256, 443.2525, 396.8397);
	    ((GeneralPath) shape).curveTo(443.8067, 396.52737, 443.6203, 394.91025, 443.88004, 394.3313);
	    ((GeneralPath) shape).curveTo(444.1699, 393.68332, 444.55365, 394.0066, 444.75845, 393.3278);
	    ((GeneralPath) shape).curveTo(445.1422, 392.05695, 444.2567, 393.1093, 444.2567, 391.94824);
	    ((GeneralPath) shape).curveTo(444.2567, 390.7316, 443.2525, 392.16708, 443.2525, 390.94476);
	    ((GeneralPath) shape).curveTo(443.2525, 389.1807, 443.25452, 389.1888, 441.74622, 389.1888);
	    ((GeneralPath) shape).lineTo(437.98102, 389.1888);
	    ((GeneralPath) shape).lineTo(434.5921, 402.73456);
	    ((GeneralPath) shape).lineTo(433.33704, 391.19543);
	    ((GeneralPath) shape).curveTo(433.33704, 390.68237, 433.58792, 390.65402, 433.58792, 390.0666);
	    ((GeneralPath) shape).curveTo(433.58792, 389.7798, 433.4632, 388.2671, 433.71335, 388.1853);
	    ((GeneralPath) shape).curveTo(434.3285, 387.98523, 437.2277, 388.1853, 437.3535, 388.05997);
	    ((GeneralPath) shape).curveTo(438.15323, 387.26077, 436.71463, 386.6188, 438.35733, 386.05298);
	    ((GeneralPath) shape).curveTo(438.74213, 385.92056, 438.72443, 385.80228, 438.2319, 385.80228);
	    ((GeneralPath) shape).curveTo(437.26385, 385.80228, 437.60437, 384.21454, 437.60437, 383.41925);
	    ((GeneralPath) shape).lineTo(431.57953, 382.9175);
	    ((GeneralPath) shape).curveTo(430.4343, 382.6314, 429.07574, 384.30344, 429.94815, 385.1752);
	    ((GeneralPath) shape).curveTo(430.66922, 385.89612, 431.16672, 386.48215, 431.0778, 387.55823);
	    ((GeneralPath) shape).curveTo(431.0565, 387.81635, 430.85596, 387.80078, 430.82657, 388.05997);
	    ((GeneralPath) shape).curveTo(430.77338, 388.52487, 430.66464, 388.09436, 430.57568, 388.43637);
	    ((GeneralPath) shape).curveTo(430.4878, 388.77383, 431.0771, 388.92786, 431.32864, 389.06345);
	    ((GeneralPath) shape).curveTo(431.57986, 389.31448, 431.52777, 392.1313, 431.45407, 392.70068);
	    ((GeneralPath) shape).curveTo(431.36688, 393.37488, 429.94812, 393.11566, 429.94812, 393.95486);
	    ((GeneralPath) shape).curveTo(429.94812, 395.0182, 429.74332, 394.93286, 428.81848, 395.33475);
	    ((GeneralPath) shape).curveTo(427.30545, 395.99194, 427.9748, 394.79547, 427.68884, 394.0802);
	    ((GeneralPath) shape).curveTo(427.19418, 392.84302, 426.93762, 393.275, 427.18674, 391.9482);
	    ((GeneralPath) shape).curveTo(427.18674, 391.56296, 426.84302, 391.59094, 426.5592, 391.1954);
	    ((GeneralPath) shape).curveTo(426.4742, 391.07678, 426.44086, 390.3438, 426.43378, 390.19226);
	    ((GeneralPath) shape).curveTo(426.39767, 389.43417, 425.6599, 389.39096, 424.9275, 389.56482);
	    ((GeneralPath) shape).curveTo(424.10223, 389.76135, 424.0487, 391.06403, 424.0487, 392.07355);
	    ((GeneralPath) shape).curveTo(424.0487, 393.6751, 423.02963, 392.69852, 422.41733, 393.4531);
	    ((GeneralPath) shape).curveTo(422.29047, 393.6089, 422.2858, 394.00568, 422.1661, 394.08017);
	    ((GeneralPath) shape).curveTo(422.1102, 394.11496, 421.62982, 394.10526, 421.3051, 394.08417);
	    ((GeneralPath) shape).curveTo(421.26492, 394.91653, 421.13016, 396.29044, 420.96063, 396.83896);
	    ((GeneralPath) shape).curveTo(420.92014, 396.97003, 420.208, 397.04327, 420.15628, 397.442);
	    ((GeneralPath) shape).curveTo(420.00427, 398.61047, 420.2378, 398.7631, 419.55283, 399.6526);
	    ((GeneralPath) shape).curveTo(419.22647, 400.07642, 419.35156, 400.70883, 419.35156, 401.26016);
	    ((GeneralPath) shape).curveTo(419.35156, 402.28525, 418.14505, 401.5994, 418.14505, 403.06885);
	    ((GeneralPath) shape).curveTo(418.14505, 404.37262, 418.27014, 406.10944, 417.9438, 407.08813);
	    ((GeneralPath) shape).curveTo(419.92456, 408.00204, 420.20624, 406.78043, 421.96625, 406.88736);
	    ((GeneralPath) shape).curveTo(422.04065, 406.89136, 423.47467, 407.1979, 423.97714, 407.28925);
	    ((GeneralPath) shape).curveTo(425.02634, 407.4794, 425.70596, 409.7661, 424.7815, 410.50476);
	    ((GeneralPath) shape).curveTo(423.77872, 411.30606, 424.24432, 414.8569, 426.59146, 413.72028);
	    ((GeneralPath) shape).curveTo(427.3182, 413.36795, 428.29193, 413.49756, 429.20615, 414.12216);
	    ((GeneralPath) shape).curveTo(430.02042, 414.67914, 429.44247, 415.52896, 431.0161, 415.52896);
	    ((GeneralPath) shape).curveTo(431.37433, 417.32065, 430.94843, 416.5636, 432.02136, 417.33765);
	    ((GeneralPath) shape).curveTo(432.91748, 417.98422, 431.53168, 422.67593, 432.22263, 423.3664);
	    ((GeneralPath) shape).curveTo(432.25342, 423.39758, 432.75308, 423.3584, 432.8257, 423.3664);
	    ((GeneralPath) shape).curveTo(432.98624, 423.3845, 433.06952, 423.53848, 433.22824, 423.5675);
	    ((GeneralPath) shape).curveTo(437.6185, 424.3688, 434.83694, 426.05392, 434.83694, 428.9936);
	    ((GeneralPath) shape).curveTo(434.83694, 430.8115, 434.82895, 431.83908, 433.6304, 432.81177);
	    ((GeneralPath) shape).curveTo(432.47702, 433.74835, 431.77438, 431.29166, 430.41266, 432.00797);
	    ((GeneralPath) shape).curveTo(430.32657, 432.05325, 430.2114, 432.384, 430.2114, 432.611);
	    ((GeneralPath) shape).curveTo(430.2114, 433.8928, 429.40952, 433.5996, 429.20615, 434.8216);
	    ((GeneralPath) shape).curveTo(428.51624, 434.6626, 428.24164, 434.62045, 427.59708, 434.62045);
	    ((GeneralPath) shape).curveTo(427.2778, 434.62045, 426.91074, 434.64914, 426.59146, 434.62045);
	    ((GeneralPath) shape).curveTo(425.85373, 434.55386, 426.45184, 434.68176, 425.98837, 434.21857);
	    ((GeneralPath) shape).curveTo(425.87427, 434.10455, 425.746, 434.03586, 425.58618, 434.0178);
	    ((GeneralPath) shape).curveTo(425.0235, 433.953, 425.37146, 434.17856, 424.98273, 434.21857);
	    ((GeneralPath) shape).curveTo(424.27618, 434.29077, 423.4853, 434.21857, 422.7706, 434.21857);
	    ((GeneralPath) shape).lineTo(422.7706, 442.2596);
	    ((GeneralPath) shape).lineTo(419.35156, 445.67377);
	    ((GeneralPath) shape).lineTo(421.76498, 448.68814);
	    ((GeneralPath) shape).lineTo(422.16718, 454.31534);
	    ((GeneralPath) shape).curveTo(421.53787, 453.26688, 421.80008, 453.00732, 421.56372, 451.90363);
	    ((GeneralPath) shape).curveTo(421.28378, 450.59525, 419.6166, 451.27512, 418.9494, 450.09494);
	    ((GeneralPath) shape).curveTo(418.64856, 449.5631, 418.21237, 448.16833, 417.74286, 447.48245);
	    ((GeneralPath) shape).curveTo(416.98352, 446.37344, 411.86224, 445.18793, 411.70953, 443.86505);
	    ((GeneralPath) shape).curveTo(411.51605, 442.18314, 410.53384, 442.25714, 408.89432, 442.25714);
	    ((GeneralPath) shape).curveTo(408.51447, 442.25714, 408.18494, 440.82944, 408.0896, 440.44846);
	    ((GeneralPath) shape).curveTo(406.3165, 439.66095, 401.55627, 438.77786, 401.051, 441.2526);
	    ((GeneralPath) shape).curveTo(400.51486, 443.87924, 398.16916, 441.77133, 396.8276, 442.86017);
	    ((GeneralPath) shape).curveTo(395.76068, 443.72662, 394.69095, 443.67032, 394.0124, 444.87);
	    ((GeneralPath) shape).curveTo(393.2559, 446.2074, 390.5643, 446.31717, 390.1912, 447.88437);
	    ((GeneralPath) shape).curveTo(389.91516, 449.0433, 389.85062, 449.6989, 389.41333, 450.3777);
	    ((GeneralPath) shape).closePath();
	
	    g.setPaint(new Color(0x3c7a51));
	    g.fill(shape);
	    g.setPaint(Color.WHITE);
	    g.draw(shape);
	    if (this.drawSquares){ this.paintSquare(g, shape); }
	    this.detectMouse(g, shape, "Jalisco");
	    
	    /*
	     * 
	     * 
	     * 
	     * 
	     * Michoacán
	     * 
	     * 
	     * */
	    // _0_0_0_28
	    shape = new GeneralPath();
	    ((GeneralPath) shape).moveTo(446.7921, 508.09808);
	    ((GeneralPath) shape).curveTo(446.79178, 508.32675, 446.7702, 508.5406, 446.66873, 508.70288);
	    ((GeneralPath) shape).curveTo(446.2572, 509.36105, 445.8704, 509.2673, 445.47708, 510.291);
	    ((GeneralPath) shape).curveTo(445.1851, 511.0498, 444.16885, 510.50345, 443.68942, 510.8862);
	    ((GeneralPath) shape).curveTo(441.79123, 512.4039, 437.73474, 512.1468, 437.53278, 515.2525);
	    ((GeneralPath) shape).curveTo(437.43997, 516.67523, 437.1437, 515.48517, 436.53955, 516.4433);
	    ((GeneralPath) shape).curveTo(436.43396, 516.6108, 436.33368, 516.8473, 436.2419, 517.1228);
	    ((GeneralPath) shape).curveTo(440.1008, 519.6437, 439.90887, 526.57416, 444.1993, 529.0241);
	    ((GeneralPath) shape).curveTo(451.28464, 533.07007, 460.23672, 535.3404, 469.18097, 537.86084);
	    ((GeneralPath) shape).curveTo(473.6552, 539.12177, 481.90887, 544.3906, 485.31937, 544.70935);
	    ((GeneralPath) shape).curveTo(486.10812, 544.7833, 487.15695, 543.9229, 488.698, 543.1251);
	    ((GeneralPath) shape).curveTo(488.6282, 543.0207, 488.54102, 542.9282, 488.4301, 542.84717);
	    ((GeneralPath) shape).curveTo(487.3625, 542.0692, 487.59988, 542.2314, 486.76718, 541.08453);
	    ((GeneralPath) shape).curveTo(485.9699, 539.9858, 486.42844, 537.7968, 486.8654, 536.48206);
	    ((GeneralPath) shape).curveTo(487.37527, 534.94885, 488.8816, 535.40454, 490.28867, 535.40454);
	    ((GeneralPath) shape).curveTo(490.92966, 535.40454, 492.5444, 533.2237, 493.61487, 532.956);
	    ((GeneralPath) shape).curveTo(494.17154, 532.8172, 497.91867, 533.33203, 497.91867, 532.075);
	    ((GeneralPath) shape).curveTo(497.91867, 531.5591, 497.08704, 530.87994, 496.74475, 530.6059);
	    ((GeneralPath) shape).curveTo(496.23096, 530.1941, 496.25577, 529.0709, 496.25577, 528.3535);
	    ((GeneralPath) shape).curveTo(496.25577, 526.9711, 495.86456, 525.31934, 495.86456, 524.14233);
	    ((GeneralPath) shape).curveTo(495.86456, 523.55634, 496.3075, 523.37463, 496.45135, 522.8694);
	    ((GeneralPath) shape).curveTo(496.6466, 522.1842, 496.57324, 521.2519, 496.45135, 520.51855);
	    ((GeneralPath) shape).curveTo(496.32803, 520.51855, 497.98883, 520.8008, 498.50546, 520.8128);
	    ((GeneralPath) shape).curveTo(499.21768, 520.82874, 499.94797, 520.8365, 500.6577, 520.8128);
	    ((GeneralPath) shape).curveTo(501.2771, 520.7916, 502.0283, 519.9442, 502.32098, 520.12695);
	    ((GeneralPath) shape).curveTo(503.198, 520.67615, 504.12778, 521.23987, 505.3531, 521.49835);
	    ((GeneralPath) shape).curveTo(505.3531, 522.45087, 506.73465, 524.0446, 507.7984, 524.0446);
	    ((GeneralPath) shape).curveTo(508.75015, 524.0446, 512.0303, 524.0177, 512.3963, 523.261);
	    ((GeneralPath) shape).curveTo(512.9537, 522.1066, 521.4093, 522.18524, 522.86316, 522.2819);
	    ((GeneralPath) shape).curveTo(523.03503, 522.71246, 524.33545, 525.1621, 524.4279, 525.2198);
	    ((GeneralPath) shape).curveTo(525.13556, 525.6628, 526.7265, 524.9354, 527.55853, 524.8278);
	    ((GeneralPath) shape).curveTo(527.8792, 524.786, 528.20984, 524.1423, 528.92804, 524.1423);
	    ((GeneralPath) shape).curveTo(530.9357, 524.1423, 530.6898, 524.17944, 531.2755, 525.611);
	    ((GeneralPath) shape).curveTo(531.981, 527.33545, 533.63007, 527.3457, 535.28625, 528.45154);
	    ((GeneralPath) shape).curveTo(536.09625, 528.45154, 535.9659, 524.6872, 535.77527, 524.5339);
	    ((GeneralPath) shape).curveTo(534.77356, 523.73047, 534.64136, 524.17126, 533.32996, 523.359);
	    ((GeneralPath) shape).curveTo(531.58374, 522.27795, 531.47144, 522.32544, 531.47144, 520.42114);
	    ((GeneralPath) shape).curveTo(531.47144, 519.1075, 530.69293, 519.34186, 530.3953, 518.2665);
	    ((GeneralPath) shape).curveTo(530.29645, 517.9089, 531.0757, 516.24286, 530.6646, 516.0031);
	    ((GeneralPath) shape).curveTo(529.06726, 515.54596, 528.3639, 512.41156, 530.77515, 512.5861);
	    ((GeneralPath) shape).curveTo(531.35486, 512.62823, 532.87317, 513.636, 533.32996, 512.9781);
	    ((GeneralPath) shape).curveTo(533.94476, 512.09216, 532.99866, 511.90057, 534.50354, 511.90057);
	    ((GeneralPath) shape).curveTo(535.7168, 511.90057, 534.5297, 510.63788, 536.0728, 510.4318);
	    ((GeneralPath) shape).lineTo(542.72064, 502.59717);
	    ((GeneralPath) shape).curveTo(546.23926, 501.42264, 544.67694, 498.92313, 544.67694, 496.13358);
	    ((GeneralPath) shape).curveTo(544.67694, 495.45975, 547.51874, 492.41776, 548.58954, 492.31433);
	    ((GeneralPath) shape).curveTo(550.6638, 492.11322, 549.6674, 488.59708, 549.2745, 488.69092);
	    ((GeneralPath) shape).curveTo(547.5095, 489.1112, 548.5548, 488.84634, 548.00275, 487.4176);
	    ((GeneralPath) shape).curveTo(547.53357, 486.202, 545.4699, 486.89673, 546.5354, 484.87134);
	    ((GeneralPath) shape).curveTo(547.1544, 483.69504, 546.624, 483.50064, 548.49207, 483.50064);
	    ((GeneralPath) shape).curveTo(550.392, 483.50064, 550.44836, 482.5892, 550.44836, 480.8563);
	    ((GeneralPath) shape).curveTo(550.44836, 479.12125, 552.5028, 479.6453, 552.5028, 477.52643);
	    ((GeneralPath) shape).curveTo(552.2363, 476.4606, 550.48413, 476.30374, 550.3502, 475.27405);
	    ((GeneralPath) shape).curveTo(550.318, 475.02158, 549.9597, 472.845, 550.15497, 472.6297);
	    ((GeneralPath) shape).curveTo(550.24036, 472.5366, 551.0348, 470.68396, 551.0355, 470.67157);
	    ((GeneralPath) shape).curveTo(551.111, 469.5753, 549.8531, 470.39362, 549.7634, 469.39825);
	    ((GeneralPath) shape).curveTo(549.73224, 469.0484, 548.4871, 469.02222, 548.2961, 468.90854);
	    ((GeneralPath) shape).curveTo(548.23895, 468.87424, 547.9283, 467.984, 547.7093, 467.8314);
	    ((GeneralPath) shape).curveTo(547.17426, 467.4582, 546.18915, 467.38596, 545.65515, 466.852);
	    ((GeneralPath) shape).curveTo(545.18176, 466.37927, 544.9323, 465.39526, 544.5787, 464.59927);
	    ((GeneralPath) shape).curveTo(543.8147, 464.70834, 543.4051, 465.59143, 543.4051, 466.46002);
	    ((GeneralPath) shape).curveTo(543.4051, 467.22733, 542.6868, 468.02722, 542.7205, 468.32077);
	    ((GeneralPath) shape).curveTo(542.8516, 469.46625, 542.99475, 469.00665, 542.03595, 469.5941);
	    ((GeneralPath) shape).curveTo(541.71063, 469.7931, 542.8842, 471.71686, 543.1117, 471.94418);
	    ((GeneralPath) shape).curveTo(544.6336, 473.46536, 541.8733, 472.95334, 541.5466, 473.80493);
	    ((GeneralPath) shape).curveTo(541.2298, 474.62997, 541.9045, 474.42316, 540.9598, 475.07825);
	    ((GeneralPath) shape).curveTo(540.7217, 475.2429, 540.6915, 475.42456, 540.3726, 475.4702);
	    ((GeneralPath) shape).curveTo(539.72986, 475.56152, 538.9397, 475.47922, 538.4163, 475.76376);
	    ((GeneralPath) shape).curveTo(538.24835, 475.25848, 536.0454, 475.4702, 535.4817, 475.4702);
	    ((GeneralPath) shape).curveTo(534.7599, 475.4702, 533.9899, 475.96558, 533.3298, 476.05765);
	    ((GeneralPath) shape).curveTo(532.92474, 476.11426, 533.18555, 476.40253, 532.7426, 476.54733);
	    ((GeneralPath) shape).curveTo(532.01373, 476.78598, 532.3525, 477.03668, 531.47125, 477.03668);
	    ((GeneralPath) shape).curveTo(530.3402, 477.03668, 529.44196, 476.05762, 528.53625, 476.05762);
	    ((GeneralPath) shape).curveTo(526.91656, 476.05762, 526.2876, 475.97153, 525.4064, 474.8824);
	    ((GeneralPath) shape).curveTo(524.8922, 474.2475, 524.17505, 474.98007, 523.7431, 474.19687);
	    ((GeneralPath) shape).curveTo(523.0915, 473.0135, 523.37775, 472.8067, 522.9604, 471.55252);
	    ((GeneralPath) shape).curveTo(522.37286, 469.7881, 520.13666, 470.49484, 518.461, 470.867);
	    ((GeneralPath) shape).curveTo(517.78174, 470.867, 518.07587, 471.23102, 517.6783, 471.6506);
	    ((GeneralPath) shape).curveTo(517.4805, 471.85916, 517.11206, 472.24442, 516.9937, 472.4342);
	    ((GeneralPath) shape).curveTo(516.8874, 472.60522, 516.683, 472.94232, 516.60254, 473.11972);
	    ((GeneralPath) shape).curveTo(516.043, 474.35303, 514.15015, 474.4033, 512.983, 473.60944);
	    ((GeneralPath) shape).curveTo(512.87524, 473.53653, 511.74774, 473.44833, 511.61346, 473.41327);
	    ((GeneralPath) shape).curveTo(511.2148, 473.30988, 510.8311, 472.16296, 510.8311, 471.6506);
	    ((GeneralPath) shape).curveTo(510.8311, 470.1234, 510.70352, 471.0242, 510.14615, 470.27957);
	    ((GeneralPath) shape).curveTo(509.85345, 469.88864, 509.9509, 469.38513, 509.9509, 468.90854);
	    ((GeneralPath) shape).curveTo(509.9509, 468.24957, 512.488, 468.5371, 511.12448, 466.55807);
	    ((GeneralPath) shape).curveTo(510.66702, 465.89343, 509.67593, 463.41232, 509.36377, 463.3263);
	    ((GeneralPath) shape).curveTo(507.4149, 462.7856, 502.09238, 464.2225, 501.83157, 466.3626);
	    ((GeneralPath) shape).curveTo(501.68274, 467.586, 498.25345, 467.2436, 496.9406, 467.2436);
	    ((GeneralPath) shape).curveTo(492.07022, 467.2436, 495.4372, 463.26773, 492.14746, 462.24915);
	    ((GeneralPath) shape).curveTo(491.06067, 461.91266, 490.574, 462.0733, 489.81332, 461.9401);
	    ((GeneralPath) shape).curveTo(489.03708, 461.80545, 487.34406, 461.02612, 486.93124, 461.81006);
	    ((GeneralPath) shape).curveTo(486.5893, 462.45877, 485.40686, 463.52954, 484.42075, 463.44064);
	    ((GeneralPath) shape).curveTo(483.9098, 463.39465, 484.32153, 462.25977, 484.16986, 462.18646);
	    ((GeneralPath) shape).curveTo(484.07275, 462.13977, 480.45212, 462.7562, 480.1534, 462.81357);
	    ((GeneralPath) shape).curveTo(479.69702, 462.90067, 477.61917, 463.50616, 477.14117, 462.81357);
	    ((GeneralPath) shape).curveTo(477.00156, 462.61172, 477.13217, 461.83167, 476.7645, 462.06113);
	    ((GeneralPath) shape).curveTo(476.30173, 462.35043, 474.81104, 463.2923, 474.75647, 464.06778);
	    ((GeneralPath) shape).curveTo(474.68597, 465.06137, 474.06268, 465.3942, 473.87772, 465.94907);
	    ((GeneralPath) shape).lineTo(472.4972, 465.94907);
	    ((GeneralPath) shape).curveTo(471.8282, 465.94907, 471.9157, 466.26102, 471.74387, 466.70187);
	    ((GeneralPath) shape).curveTo(471.67908, 466.86795, 470.91046, 466.95435, 470.74002, 467.2036);
	    ((GeneralPath) shape).curveTo(470.27264, 467.88666, 470.4863, 468.62564, 469.4846, 468.7085);
	    ((GeneralPath) shape).curveTo(467.7228, 468.85474, 467.08215, 468.28784, 465.59393, 467.57965);
	    ((GeneralPath) shape).curveTo(465.1928, 467.3888, 465.66025, 466.95258, 464.8406, 466.95258);
	    ((GeneralPath) shape).curveTo(464.40973, 466.95258, 464.05966, 467.32898, 463.08344, 467.32898);
	    ((GeneralPath) shape).curveTo(461.09735, 467.32898, 461.97186, 467.56656, 460.94995, 468.33212);
	    ((GeneralPath) shape).lineTo(458.06314, 475.23053);
	    ((GeneralPath) shape).curveTo(458.72717, 476.3693, 458.18646, 475.51202, 458.69067, 475.48157);
	    ((GeneralPath) shape).curveTo(460.79898, 475.35373, 458.91354, 476.60013, 460.69873, 476.48505);
	    ((GeneralPath) shape).curveTo(461.198, 476.45285, 461.1002, 475.6122, 461.20084, 475.3562);
	    ((GeneralPath) shape).curveTo(461.3759, 474.91183, 462.73795, 474.85303, 463.20886, 474.72913);
	    ((GeneralPath) shape).curveTo(464.50964, 474.38565, 465.15347, 475.9833, 466.47232, 475.9833);
	    ((GeneralPath) shape).curveTo(467.46555, 475.9833, 468.49594, 476.11395, 469.2337, 476.35934);
	    ((GeneralPath) shape).curveTo(469.6047, 477.25024, 469.86124, 478.04907, 469.86124, 478.86807);
	    ((GeneralPath) shape).curveTo(469.86124, 480.00824, 469.04095, 479.78763, 468.10406, 479.99692);
	    ((GeneralPath) shape).curveTo(467.642, 480.1003, 467.0113, 480.05072, 466.72357, 480.24762);
	    ((GeneralPath) shape).curveTo(466.69168, 480.26923, 465.96634, 480.5808, 466.47235, 480.74936);
	    ((GeneralPath) shape).curveTo(466.68283, 482.08215, 466.51526, 483.51126, 466.34692, 484.63763);
	    ((GeneralPath) shape).curveTo(466.15274, 485.9329, 466.07196, 485.7541, 467.35114, 486.01718);
	    ((GeneralPath) shape).curveTo(468.66327, 486.287, 467.33414, 488.40906, 468.9825, 488.90195);
	    ((GeneralPath) shape).curveTo(469.54877, 489.07156, 468.9623, 490.2953, 469.48462, 490.53253);
	    ((GeneralPath) shape).curveTo(471.86755, 491.615, 470.08984, 488.38004, 472.74808, 488.90195);
	    ((GeneralPath) shape).curveTo(473.68213, 489.08572, 475.384, 488.47278, 475.384, 489.65472);
	    ((GeneralPath) shape).curveTo(475.384, 490.09912, 475.49704, 491.91666, 475.13278, 492.03775);
	    ((GeneralPath) shape).curveTo(474.96268, 492.71796, 474.8217, 492.97043, 474.63068, 493.66833);
	    ((GeneralPath) shape).curveTo(474.4053, 494.49054, 474.47653, 494.6467, 473.87772, 495.29855);
	    ((GeneralPath) shape).curveTo(473.48334, 495.72772, 473.37524, 495.78226, 472.99893, 496.67844);
	    ((GeneralPath) shape).curveTo(472.50677, 497.85226, 472.5064, 498.67587, 471.86966, 499.31216);
	    ((GeneralPath) shape).curveTo(471.06885, 500.11243, 472.6432, 500.9123, 469.73584, 500.5667);
	    ((GeneralPath) shape).curveTo(468.6165, 500.43356, 469.81235, 499.31216, 468.48077, 499.31216);
	    ((GeneralPath) shape).curveTo(466.944, 499.31216, 467.3327, 500.06708, 466.0957, 500.1903);
	    ((GeneralPath) shape).curveTo(466.0082, 500.65805, 465.90683, 501.23062, 465.59396, 501.4445);
	    ((GeneralPath) shape).curveTo(465.0047, 501.84708, 462.31314, 501.20618, 461.95383, 501.69553);
	    ((GeneralPath) shape).curveTo(461.57147, 502.21747, 461.3741, 502.75778, 461.20087, 503.45148);
	    ((GeneralPath) shape).curveTo(461.05524, 504.51727, 460.93616, 505.41562, 459.9458, 505.8345);
	    ((GeneralPath) shape).curveTo(458.2719, 506.54126, 457.953, 506.55896, 457.5611, 508.46823);
	    ((GeneralPath) shape).curveTo(457.24503, 510.00958, 455.30182, 511.08957, 455.30182, 508.84464);
	    ((GeneralPath) shape).curveTo(455.30182, 507.9548, 455.3135, 506.3026, 453.92096, 506.83765);
	    ((GeneralPath) shape).curveTo(453.0897, 507.15704, 453.82175, 507.63684, 452.2892, 506.7123);
	    ((GeneralPath) shape).curveTo(451.34668, 506.14328, 450.9304, 507.48364, 450.2812, 507.9665);
	    ((GeneralPath) shape).curveTo(449.67328, 508.41867, 447.89066, 508.24808, 446.79208, 508.09787);
	    ((GeneralPath) shape).closePath();
	
	    g.setPaint(new Color(0x3c7a51));
	    g.fill(shape);
	    g.setPaint(Color.WHITE);
	    g.draw(shape);
	    if (this.drawSquares){ this.paintSquare(g, shape); }
	    this.detectMouse(g, shape, "Michoacán");
	    
	    
	    /*
	     * 
	     * 
	     * Colima
	     * 
	     * 
	     * */
	    
	    // _0_0_0_29
	    shape = new GeneralPath();
	    ((GeneralPath) shape).moveTo(214.82951, 490.20016);
	    ((GeneralPath) shape).curveTo(214.12544, 490.52487, 213.46991, 490.92923, 212.70418, 491.04962);
	    ((GeneralPath) shape).curveTo(212.285, 491.1155, 211.79884, 491.25818, 211.42926, 491.04962);
	    ((GeneralPath) shape).curveTo(210.97073, 490.79077, 211.30205, 490.45474, 211.85411, 489.7756);
	    ((GeneralPath) shape).curveTo(211.92711, 489.6857, 212.20207, 488.62692, 212.27933, 488.50122);
	    ((GeneralPath) shape).curveTo(212.40263, 488.30115, 213.35403, 487.32706, 213.55423, 487.2272);
	    ((GeneralPath) shape).curveTo(213.80759, 487.1008, 214.12366, 487.1907, 214.4043, 487.2272);
	    ((GeneralPath) shape).curveTo(215.10873, 487.3182, 214.82951, 487.36426, 214.82951, 488.07666);
	    ((GeneralPath) shape).curveTo(214.82951, 489.1825, 214.99854, 490.03125, 214.82951, 490.20013);
	    ((GeneralPath) shape).lineTo(214.82951, 490.20013);
	    ((GeneralPath) shape).closePath();
	    ((GeneralPath) shape).moveTo(210.57921, 508.46384);
	    ((GeneralPath) shape).curveTo(209.87193, 508.6267, 209.1778, 508.84058, 208.45387, 508.88873);
	    ((GeneralPath) shape).curveTo(207.21545, 508.97052, 207.17896, 509.12915, 207.17896, 508.03928);
	    ((GeneralPath) shape).curveTo(207.17896, 507.23654, 207.54393, 506.34033, 206.75374, 506.34033);
	    ((GeneralPath) shape).lineTo(205.47882, 506.34033);
	    ((GeneralPath) shape).lineTo(205.47882, 505.91544);
	    ((GeneralPath) shape).lineTo(205.0536, 505.91544);
	    ((GeneralPath) shape).lineTo(205.0536, 505.49088);
	    ((GeneralPath) shape).lineTo(205.0536, 505.06598);
	    ((GeneralPath) shape).lineTo(205.47882, 505.06598);
	    ((GeneralPath) shape).lineTo(205.47882, 504.64142);
	    ((GeneralPath) shape).lineTo(205.90367, 504.64142);
	    ((GeneralPath) shape).lineTo(206.32889, 504.64142);
	    ((GeneralPath) shape).lineTo(206.32889, 504.21652);
	    ((GeneralPath) shape).lineTo(206.75374, 504.21652);
	    ((GeneralPath) shape).curveTo(207.15414, 504.21652, 207.37526, 503.6953, 207.6038, 503.36707);
	    ((GeneralPath) shape).curveTo(208.05841, 502.71378, 208.15764, 502.9425, 209.30392, 502.9425);
	    ((GeneralPath) shape).curveTo(210.01686, 502.9425, 210.06256, 502.66385, 210.15399, 503.36707);
	    ((GeneralPath) shape).curveTo(210.26349, 504.2098, 209.41624, 506.34036, 210.15399, 506.34036);
	    ((GeneralPath) shape).lineTo(210.57921, 506.34036);
	    ((GeneralPath) shape).lineTo(210.57921, 506.76492);
	    ((GeneralPath) shape).curveTo(210.57921, 507.59808, 210.79323, 507.34882, 210.57921, 508.46387);
	    ((GeneralPath) shape).lineTo(210.57921, 508.46387);
	    ((GeneralPath) shape).closePath();
	    ((GeneralPath) shape).moveTo(175.30115, 499.96918);
	    ((GeneralPath) shape).curveTo(173.7665, 498.69092, 173.38771, 499.06094, 173.60101, 497.42078);
	    ((GeneralPath) shape).curveTo(173.67542, 496.84964, 173.3466, 496.99588, 174.02623, 496.57132);
	    ((GeneralPath) shape).curveTo(174.26611, 496.42154, 174.67609, 496.3716, 174.8763, 496.57132);
	    ((GeneralPath) shape).lineTo(175.30116, 496.99588);
	    ((GeneralPath) shape).lineTo(175.72636, 496.99588);
	    ((GeneralPath) shape).curveTo(176.00949, 496.99588, 175.72636, 497.5624, 175.72636, 497.84534);
	    ((GeneralPath) shape).curveTo(175.72636, 498.68808, 175.80786, 498.44446, 175.30116, 499.96918);
	    ((GeneralPath) shape).closePath();
	    ((GeneralPath) shape).moveTo(89.86911, 511.86166);
	    ((GeneralPath) shape).curveTo(91.545494, 510.4662, 91.652504, 511.1843, 91.56959, 509.7382);
	    ((GeneralPath) shape).curveTo(91.53416, 509.11783, 91.566086, 506.3435, 90.71917, 507.1898);
	    ((GeneralPath) shape).lineTo(90.29432, 507.61435);
	    ((GeneralPath) shape).curveTo(90.05302, 507.8555, 89.95557, 508.13345, 89.86911, 508.4638);
	    ((GeneralPath) shape).curveTo(89.66466, 509.24918, 89.38898, 508.78568, 88.59419, 508.8887);
	    ((GeneralPath) shape).curveTo(88.39576, 508.9142, 87.83236, 509.2251, 87.74413, 509.31326);
	    ((GeneralPath) shape).curveTo(87.71401, 509.34335, 87.349045, 510.133, 87.318924, 510.16272);
	    ((GeneralPath) shape).lineTo(87.318924, 510.16272);
	    ((GeneralPath) shape).lineTo(87.318924, 510.58762);
	    ((GeneralPath) shape).lineTo(87.74413, 510.58762);
	    ((GeneralPath) shape).lineTo(88.16898, 511.01218);
	    ((GeneralPath) shape).curveTo(88.85605, 511.69806, 88.66364, 511.43707, 89.8691, 511.86163);
	    ((GeneralPath) shape).lineTo(89.8691, 511.86163);
	    ((GeneralPath) shape).closePath();
	    ((GeneralPath) shape).moveTo(409.167, 500.14096);
	    ((GeneralPath) shape).curveTo(409.3183, 500.01422, 409.4283, 499.93945, 409.48926, 499.93945);
	    ((GeneralPath) shape).curveTo(410.87686, 499.93945, 413.22116, 498.4002, 414.25867, 497.43106);
	    ((GeneralPath) shape).curveTo(416.783, 495.07422, 421.63248, 496.60568, 424.5508, 495.2987);
	    ((GeneralPath) shape).curveTo(427.76892, 493.8586, 424.87894, 491.74045, 427.81427, 490.4073);
	    ((GeneralPath) shape).curveTo(429.26175, 490.04575, 428.76993, 490.83643, 429.82233, 491.03436);
	    ((GeneralPath) shape).curveTo(431.18015, 491.28894, 431.2549, 490.32053, 431.95615, 491.7868);
	    ((GeneralPath) shape).curveTo(432.39694, 492.7092, 434.5159, 491.767, 435.2196, 492.53958);
	    ((GeneralPath) shape).curveTo(435.45773, 492.80127, 435.2246, 493.52325, 435.4705, 493.66843);
	    ((GeneralPath) shape).curveTo(436.6873, 494.38617, 437.66635, 491.8523, 437.8552, 491.28503);
	    ((GeneralPath) shape).curveTo(438.45865, 489.47385, 439.65347, 491.006, 441.11865, 489.6548);
	    ((GeneralPath) shape).curveTo(443.08524, 488.99973, 442.20825, 493.07565, 443.88004, 493.29202);
	    ((GeneralPath) shape).curveTo(444.90054, 493.4241, 444.4654, 494.72043, 445.1351, 494.79727);
	    ((GeneralPath) shape).curveTo(445.45755, 494.83408, 446.90076, 494.62943, 447.1435, 494.9226);
	    ((GeneralPath) shape).curveTo(447.58926, 495.4626, 446.18747, 495.27173, 446.01385, 495.29865);
	    ((GeneralPath) shape).curveTo(445.1723, 495.4318, 445.06494, 498.7528, 445.38596, 499.43796);
	    ((GeneralPath) shape).curveTo(445.55142, 499.78992, 446.25656, 499.62634, 445.88806, 500.69217);
	    ((GeneralPath) shape).curveTo(445.77573, 501.01828, 444.12912, 501.10257, 443.62878, 501.4446);
	    ((GeneralPath) shape).curveTo(443.5395, 501.50552, 444.75842, 504.2869, 444.75842, 505.45822);
	    ((GeneralPath) shape).curveTo(444.75842, 507.09094, 445.76263, 505.72202, 445.76263, 507.0888);
	    ((GeneralPath) shape).curveTo(445.76263, 507.44397, 445.80023, 507.5235, 445.88806, 507.96658);
	    ((GeneralPath) shape).curveTo(445.89008, 507.9766, 446.26038, 508.02368, 446.79205, 508.09796);
	    ((GeneralPath) shape).curveTo(446.79605, 508.32874, 446.77014, 508.54047, 446.66867, 508.70276);
	    ((GeneralPath) shape).curveTo(446.25714, 509.36093, 445.87033, 509.26718, 445.47702, 510.29086);
	    ((GeneralPath) shape).curveTo(445.18503, 511.04968, 444.1688, 510.50333, 443.68936, 510.88608);
	    ((GeneralPath) shape).curveTo(441.79117, 512.40375, 437.73468, 512.14667, 437.5327, 515.2524);
	    ((GeneralPath) shape).curveTo(437.4399, 516.6751, 437.14365, 515.48505, 436.5395, 516.4432);
	    ((GeneralPath) shape).curveTo(436.4339, 516.61066, 436.33362, 516.84717, 436.23972, 517.12054);
	    ((GeneralPath) shape).curveTo(435.7851, 516.82416, 435.2752, 516.58905, 434.6934, 516.4297);
	    ((GeneralPath) shape).curveTo(430.3701, 515.24457, 432.84552, 512.91394, 430.49304, 511.12753);
	    ((GeneralPath) shape).curveTo(428.5952, 509.68604, 421.22812, 509.76288, 420.98682, 507.59302);
	    ((GeneralPath) shape).curveTo(418.02786, 503.65033, 413.61026, 501.84744, 409.16693, 500.14084);
	    ((GeneralPath) shape).closePath();
	
	    g.setPaint(new Color(0x3c7a51));
	    g.fill(shape);
	    g.setPaint(Color.WHITE);
	    g.draw(shape);
	    
	    if (this.drawSquares){ this.paintSquare(g, shape); }
	    this.detectMouse(g, shape, "Colima");
	    /*
	     * 
	     * 
	     * 
	     * Quintana Roo
	     * 
	     * 
	     * 
	     * */
	    // _0_0_0_30
	    shape = new GeneralPath();
	    ((GeneralPath) shape).moveTo(894.08, 530.0115);
	    ((GeneralPath) shape).curveTo(894.42804, 529.98706, 898.5134, 529.7386, 898.86053, 529.7142);
	    ((GeneralPath) shape).lineTo(898.1437, 523.97375);
	    ((GeneralPath) shape).curveTo(898.1759, 523.97375, 900.27325, 522.8176, 900.7718, 522.65796);
	    ((GeneralPath) shape).curveTo(902.1835, 522.20685, 903.9435, 522.41895, 905.43134, 522.41895);
	    ((GeneralPath) shape).curveTo(908.55164, 522.41895, 907.2966, 520.8737, 909.25397, 520.3854);
	    ((GeneralPath) shape).curveTo(912.08795, 519.6783, 913.0929, 512.48315, 912.9579, 509.621);
	    ((GeneralPath) shape).curveTo(912.88666, 508.11365, 914.95917, 508.53464, 915.70544, 507.10907);
	    ((GeneralPath) shape).curveTo(917.58594, 503.51648, 918.7453, 504.28696, 921.6669, 504.35388);
	    ((GeneralPath) shape).curveTo(922.2129, 502.81714, 925.5997, 501.5162, 925.5997, 500.93335);
	    ((GeneralPath) shape).curveTo(925.5997, 498.88812, 927.84546, 501.1936, 926.3388, 497.48627);
	    ((GeneralPath) shape).curveTo(925.4891, 495.39572, 928.9722, 496.15488, 928.80286, 494.28528);
	    ((GeneralPath) shape).curveTo(928.80084, 494.26117, 927.21893, 491.08466, 928.30994, 491.08466);
	    ((GeneralPath) shape).curveTo(930.3279, 491.08466, 933.2133, 495.54126, 931.26654, 497.48627);
	    ((GeneralPath) shape).curveTo(929.981, 498.77127, 929.1093, 500.64865, 930.03485, 502.90314);
	    ((GeneralPath) shape).curveTo(931.6414, 506.81866, 937.9916, 506.20007, 936.2351, 512.12085);
	    ((GeneralPath) shape).lineTo(936.69183, 512.3347);
	    ((GeneralPath) shape).curveTo(940.2235, 512.732, 937.76196, 508.94394, 938.67084, 505.72665);
	    ((GeneralPath) shape).curveTo(939.5046, 502.77814, 939.4139, 499.36435, 940.0411, 496.2933);
	    ((GeneralPath) shape).curveTo(940.3221, 494.9159, 939.33026, 491.83282, 940.80255, 491.2723);
	    ((GeneralPath) shape).curveTo(942.5363, 490.61298, 944.4565, 478.58984, 944.4565, 475.90512);
	    ((GeneralPath) shape).curveTo(944.4565, 473.45126, 943.3357, 474.5911, 942.32513, 475.60095);
	    ((GeneralPath) shape).curveTo(941.5548, 476.37073, 939.7059, 477.1993, 941.10693, 476.66605);
	    ((GeneralPath) shape).curveTo(944.8317, 475.24863, 935.98175, 475.34955, 940.0411, 474.38394);
	    ((GeneralPath) shape).curveTo(941.0761, 474.13748, 940.3384, 471.94, 941.8684, 471.03638);
	    ((GeneralPath) shape).curveTo(943.2404, 470.22656, 946.7285, 469.4738, 947.65405, 467.99332);
	    ((GeneralPath) shape).curveTo(948.12354, 467.24265, 947.08997, 466.19205, 947.3497, 465.1025);
	    ((GeneralPath) shape).curveTo(947.8943, 462.81473, 943.02106, 465.2059, 942.93427, 465.25476);
	    ((GeneralPath) shape).curveTo(941.01587, 466.3383, 942.19867, 465.5894, 941.56366, 467.68915);
	    ((GeneralPath) shape).curveTo(941.20685, 468.8697, 938.4763, 467.38144, 940.34576, 466.16763);
	    ((GeneralPath) shape).curveTo(941.51294, 465.40952, 939.5765, 464.95062, 938.6708, 464.95062);
	    ((GeneralPath) shape).curveTo(937.7307, 464.95062, 939.16754, 460.76703, 940.041, 460.08188);
	    ((GeneralPath) shape).curveTo(940.9336, 459.3822, 942.9342, 459.87332, 942.9342, 458.56036);
	    ((GeneralPath) shape).curveTo(942.9342, 456.5679, 945.06555, 456.76547, 945.06555, 453.8435);
	    ((GeneralPath) shape).curveTo(945.06555, 451.78058, 943.54297, 450.90952, 943.54297, 448.5183);
	    ((GeneralPath) shape).curveTo(943.54297, 438.9844, 949.5246, 439.15402, 952.83057, 431.02127);
	    ((GeneralPath) shape).curveTo(953.9896, 428.17047, 958.94824, 426.0633, 959.0733, 422.5008);
	    ((GeneralPath) shape).curveTo(959.24976, 417.48865, 962.69183, 411.8292, 960.2182, 407.81097);
	    ((GeneralPath) shape).curveTo(959.58997, 406.79083, 957.8307, 404.4372, 956.63727, 402.11258);
	    ((GeneralPath) shape).curveTo(955.6926, 400.27377, 951.3349, 397.2438, 950.6992, 397.2438);
	    ((GeneralPath) shape).curveTo(949.48676, 401.06244, 944.78955, 402.1901, 938.7136, 402.31616);
	    ((GeneralPath) shape).lineTo(938.4614, 410.4688);
	    ((GeneralPath) shape).lineTo(936.0623, 410.4688);
	    ((GeneralPath) shape).lineTo(935.7625, 416.16644);
	    ((GeneralPath) shape).lineTo(942.9593, 415.56656);
	    ((GeneralPath) shape).lineTo(945.0584, 415.56656);
	    ((GeneralPath) shape).lineTo(945.0584, 418.56525);
	    ((GeneralPath) shape).lineTo(938.7612, 418.56525);
	    ((GeneralPath) shape).lineTo(935.7625, 426.96182);
	    ((GeneralPath) shape).lineTo(938.4614, 426.96182);
	    ((GeneralPath) shape).lineTo(938.1613, 433.259);
	    ((GeneralPath) shape).lineTo(933.9632, 433.8589);
	    ((GeneralPath) shape).lineTo(933.9632, 438.35675);
	    ((GeneralPath) shape).lineTo(935.7625, 438.35675);
	    ((GeneralPath) shape).lineTo(935.7625, 440.15604);
	    ((GeneralPath) shape).lineTo(930.66473, 439.55615);
	    ((GeneralPath) shape).lineTo(930.66473, 437.4571);
	    ((GeneralPath) shape).lineTo(928.8654, 437.75687);
	    ((GeneralPath) shape).lineTo(925.2669, 441.0557);
	    ((GeneralPath) shape).lineTo(925.8667, 443.75427);
	    ((GeneralPath) shape).lineTo(917.7703, 444.05438);
	    ((GeneralPath) shape).lineTo(917.7703, 446.15344);
	    ((GeneralPath) shape).lineTo(911.47314, 446.15344);
	    ((GeneralPath) shape).lineTo(911.47314, 449.4519);
	    ((GeneralPath) shape).lineTo(907.2747, 449.4519);
	    ((GeneralPath) shape).lineTo(907.8745, 453.05048);
	    ((GeneralPath) shape).lineTo(889.62427, 472.7557);
	    ((GeneralPath) shape).lineTo(894.0801, 477.64105);
	    ((GeneralPath) shape).lineTo(894.07983, 530.0114);
	    ((GeneralPath) shape).closePath();
	    ((GeneralPath) shape).moveTo(963.5173, 429.2321);
	    ((GeneralPath) shape).curveTo(963.44995, 430.31595, 962.34937, 430.152, 961.42206, 430.226);
	    ((GeneralPath) shape).curveTo(960.18896, 430.3237, 959.8619, 431.21924, 958.6653, 431.21924);
	    ((GeneralPath) shape).curveTo(957.95306, 431.21924, 956.6289, 431.39203, 955.68744, 431.4402);
	    ((GeneralPath) shape).curveTo(955.55383, 431.44717, 955.6218, 433.37564, 955.3565, 433.7588);
	    ((GeneralPath) shape).curveTo(954.9228, 434.38376, 954.9522, 435.80933, 955.0256, 436.73987);
	    ((GeneralPath) shape).curveTo(955.1453, 438.26105, 957.0545, 439.31693, 957.12115, 440.05203);
	    ((GeneralPath) shape).curveTo(957.3274, 442.32318, 958.8769, 440.73825, 959.32654, 439.94156);
	    ((GeneralPath) shape).curveTo(959.94415, 438.84634, 959.6479, 437.19205, 960.3194, 436.51926);
	    ((GeneralPath) shape).curveTo(961.2722, 435.56497, 960.6748, 435.26648, 962.1942, 434.42126);
	    ((GeneralPath) shape).curveTo(962.8664, 434.047, 962.8731, 432.5513, 963.07654, 431.8817);
	    ((GeneralPath) shape).curveTo(963.30756, 431.11902, 964.75433, 430.77554, 963.51733, 429.23206);
	    ((GeneralPath) shape).lineTo(963.51733, 429.23206);
	    ((GeneralPath) shape).closePath();
	    ((GeneralPath) shape).moveTo(962.3044, 406.7087);
	    ((GeneralPath) shape).lineTo(961.75305, 406.48776);
	    ((GeneralPath) shape).curveTo(960.9193, 406.20944, 961.50183, 406.55115, 961.3119, 405.93573);
	    ((GeneralPath) shape).curveTo(961.2673, 405.78983, 961.1634, 405.7392, 961.0911, 405.6043);
	    ((GeneralPath) shape).curveTo(960.95184, 405.3423, 960.848, 405.27747, 960.7605, 404.9418);
	    ((GeneralPath) shape).curveTo(960.7233, 404.80017, 960.854, 404.61322, 960.7605, 404.50024);
	    ((GeneralPath) shape).curveTo(960.50287, 404.19077, 960.43555, 404.6688, 960.31934, 404.27963);
	    ((GeneralPath) shape).curveTo(960.14923, 403.70883, 959.52985, 404.24283, 959.6574, 404.8313);
	    ((GeneralPath) shape).curveTo(959.684, 404.9538, 959.94086, 405.22754, 959.98834, 405.27286);
	    ((GeneralPath) shape).curveTo(960.24384, 405.5186, 960.2768, 405.935, 960.3193, 406.26678);
	    ((GeneralPath) shape).curveTo(960.32526, 406.3111, 960.57794, 406.8103, 960.6502, 406.81882);
	    ((GeneralPath) shape).curveTo(961.02014, 406.86063, 961.3798, 406.8839, 961.7529, 406.9293);
	    ((GeneralPath) shape).curveTo(962.07184, 406.9679, 962.23303, 406.99588, 962.30426, 406.70868);
	    ((GeneralPath) shape).lineTo(962.30426, 406.70868);
	    ((GeneralPath) shape).closePath();
	    ((GeneralPath) shape).moveTo(959.4371, 400.19415);
	    ((GeneralPath) shape).lineTo(960.09863, 400.52524);
	    ((GeneralPath) shape).curveTo(960.09863, 400.74017, 960.0703, 401.47952, 959.87823, 401.51917);
	    ((GeneralPath) shape).curveTo(959.73474, 401.54855, 959.58344, 401.51315, 959.4371, 401.51917);
	    ((GeneralPath) shape).curveTo(958.77515, 401.54605, 958.66534, 401.9101, 958.66534, 401.18808);
	    ((GeneralPath) shape).curveTo(958.66534, 400.6481, 958.7269, 400.8662, 958.4446, 400.6357);
	    ((GeneralPath) shape).curveTo(958.3879, 400.58972, 958.3861, 400.5769, 958.33435, 400.52524);
	    ((GeneralPath) shape).curveTo(958.0282, 400.2186, 958.2241, 400.15735, 958.2241, 399.6425);
	    ((GeneralPath) shape).lineTo(958.2241, 398.8695);
	    ((GeneralPath) shape).curveTo(958.2241, 398.2357, 958.27124, 398.42017, 958.6653, 398.5381);
	    ((GeneralPath) shape).curveTo(958.89594, 398.6071, 958.7755, 399.0515, 958.7755, 399.31107);
	    ((GeneralPath) shape).curveTo(958.7755, 399.63507, 958.7655, 399.7891, 958.9959, 399.97357);
	    ((GeneralPath) shape).curveTo(959.1288, 400.07944, 959.2078, 400.19418, 959.4371, 400.19418);
	    ((GeneralPath) shape).lineTo(959.4371, 400.19418);
	    ((GeneralPath) shape).closePath();
	    ((GeneralPath) shape).moveTo(938.7795, 400.3585);
	    ((GeneralPath) shape).lineTo(938.8052, 399.4083);
	    ((GeneralPath) shape).curveTo(941.01697, 399.29022, 942.92914, 398.68115, 945.15076, 398.12695);
	    ((GeneralPath) shape).curveTo(946.442, 397.80484, 948.5896, 396.40677, 949.2122, 398.00763);
	    ((GeneralPath) shape).lineTo(949.2122, 398.00763);
	    ((GeneralPath) shape).curveTo(947.10815, 398.41095, 946.4799, 399.47244, 944.6728, 399.7979);
	    ((GeneralPath) shape).curveTo(942.7408, 400.14587, 940.804, 400.29813, 938.7795, 400.3585);
	    ((GeneralPath) shape).closePath();
	
	    g.setPaint(new Color(0x3c7a51));
	    g.fill(shape);
	    g.setPaint(Color.WHITE);
	    g.draw(shape);
	    if (this.drawSquares){ this.paintSquare(g, shape); }
	    this.detectMouse(g, shape, "Quintana Roo");
	    
	    /*
	     * 
	     * 
	     * Yucatán
	     * 
	     * 
	     * */
	    // _0_0_0_31
	    shape = new GeneralPath();
	    ((GeneralPath) shape).moveTo(938.7756, 400.3551);
	    ((GeneralPath) shape).lineTo(938.8025, 399.40027);
	    ((GeneralPath) shape).curveTo(938.5379, 399.43167, 938.2635, 399.43988, 937.9835, 399.43988);
	    ((GeneralPath) shape).curveTo(937.2617, 399.43988, 935.4716, 399.18884, 934.87775, 399.5592);
	    ((GeneralPath) shape).curveTo(933.5518, 400.3878, 934.9936, 400.39487, 936.3114, 400.39487);
	    ((GeneralPath) shape).curveTo(937.15375, 400.39487, 937.96814, 400.37918, 938.7756, 400.35507);
	    ((GeneralPath) shape).closePath();
	    ((GeneralPath) shape).moveTo(889.6244, 472.75574);
	    ((GeneralPath) shape).lineTo(907.87463, 453.0505);
	    ((GeneralPath) shape).lineTo(907.27484, 449.45193);
	    ((GeneralPath) shape).lineTo(911.47327, 449.45193);
	    ((GeneralPath) shape).lineTo(911.47327, 446.15347);
	    ((GeneralPath) shape).lineTo(917.77045, 446.15347);
	    ((GeneralPath) shape).lineTo(917.77045, 444.0544);
	    ((GeneralPath) shape).lineTo(925.8668, 443.7543);
	    ((GeneralPath) shape).lineTo(925.267, 441.05573);
	    ((GeneralPath) shape).lineTo(928.86554, 437.7569);
	    ((GeneralPath) shape).lineTo(930.66486, 437.45712);
	    ((GeneralPath) shape).lineTo(930.66486, 439.55618);
	    ((GeneralPath) shape).lineTo(935.76263, 440.15607);
	    ((GeneralPath) shape).lineTo(935.76263, 438.35678);
	    ((GeneralPath) shape).lineTo(933.9633, 438.35678);
	    ((GeneralPath) shape).lineTo(933.9633, 433.85892);
	    ((GeneralPath) shape).lineTo(938.16144, 433.25903);
	    ((GeneralPath) shape).lineTo(938.46155, 426.96185);
	    ((GeneralPath) shape).lineTo(935.76263, 426.96185);
	    ((GeneralPath) shape).lineTo(938.76135, 418.56528);
	    ((GeneralPath) shape).lineTo(945.05853, 418.56528);
	    ((GeneralPath) shape).lineTo(945.05853, 415.5666);
	    ((GeneralPath) shape).lineTo(942.9594, 415.5666);
	    ((GeneralPath) shape).lineTo(935.76263, 416.16647);
	    ((GeneralPath) shape).lineTo(936.06244, 410.46884);
	    ((GeneralPath) shape).lineTo(938.46155, 410.46884);
	    ((GeneralPath) shape).lineTo(938.71375, 402.3162);
	    ((GeneralPath) shape).curveTo(926.76447, 402.5587, 909.4652, 398.91125, 902.855, 404.22653);
	    ((GeneralPath) shape).curveTo(894.5847, 410.876, 886.32855, 411.20105, 875.6899, 414.37442);
	    ((GeneralPath) shape).curveTo(862.98926, 418.16318, 863.47186, 416.0553, 855.1258, 424.39554);
	    ((GeneralPath) shape).curveTo(852.88043, 424.7278, 851.28357, 426.91434, 850.1647, 429.87256);
	    ((GeneralPath) shape).lineTo(852.09845, 429.96194);
	    ((GeneralPath) shape).lineTo(852.69836, 440.4572);
	    ((GeneralPath) shape).lineTo(855.09717, 440.4572);
	    ((GeneralPath) shape).lineTo(858.9955, 440.757);
	    ((GeneralPath) shape).lineTo(858.9955, 444.95544);
	    ((GeneralPath) shape).lineTo(869.4912, 444.35556);
	    ((GeneralPath) shape).lineTo(870.0907, 450.0532);
	    ((GeneralPath) shape).lineTo(871.5902, 450.0532);
	    ((GeneralPath) shape).lineTo(874.2892, 453.35165);
	    ((GeneralPath) shape).lineTo(875.78827, 451.2526);
	    ((GeneralPath) shape).lineTo(878.1871, 450.6527);
	    ((GeneralPath) shape).lineTo(878.787, 460.8482);
	    ((GeneralPath) shape).lineTo(889.62445, 472.75568);
	    ((GeneralPath) shape).closePath();
	    ((GeneralPath) shape).moveTo(869.8411, 379.1002);
	    ((GeneralPath) shape).curveTo(869.73267, 379.5042, 869.5346, 379.83917, 869.1544, 379.9415);
	    ((GeneralPath) shape).curveTo(868.6449, 380.0789, 868.57434, 379.39975, 868.4642, 378.92102);
	    ((GeneralPath) shape).curveTo(868.8869, 379.00992, 869.28516, 379.07822, 869.4372, 379.0938);
	    ((GeneralPath) shape).curveTo(869.5952, 379.1105, 869.7281, 379.1101, 869.8411, 379.09982);
	    ((GeneralPath) shape).closePath();
	    ((GeneralPath) shape).moveTo(867.74023, 378.74927);
	    ((GeneralPath) shape).curveTo(867.5701, 378.87106, 867.3108, 379.00314, 866.89233, 379.0938);
	    ((GeneralPath) shape).curveTo(866.20703, 379.2429, 863.17706, 379.2422, 862.93365, 378.81125);
	    ((GeneralPath) shape).curveTo(862.698, 378.39413, 864.35596, 376.89136, 863.21643, 376.55072);
	    ((GeneralPath) shape).curveTo(862.9333, 376.46613, 862.2264, 374.89713, 862.36816, 374.57278);
	    ((GeneralPath) shape).curveTo(862.5641, 374.12485, 863.32916, 373.99704, 863.4992, 373.7251);
	    ((GeneralPath) shape).curveTo(863.6452, 373.4907, 863.4549, 372.37, 863.4992, 372.0297);
	    ((GeneralPath) shape).curveTo(863.5633, 371.53326, 865.62274, 370.46036, 866.32684, 370.89944);
	    ((GeneralPath) shape).curveTo(866.50684, 371.01205, 866.72974, 371.46988, 866.9384, 371.91852);
	    ((GeneralPath) shape).curveTo(866.5532, 371.84952, 865.8623, 371.9858, 865.4785, 372.0297);
	    ((GeneralPath) shape).curveTo(864.9761, 372.0871, 864.5232, 372.42096, 864.3475, 372.87738);
	    ((GeneralPath) shape).curveTo(864.09375, 373.53705, 864.62067, 373.5636, 864.0647, 374.00763);
	    ((GeneralPath) shape).curveTo(863.8875, 374.14963, 863.839, 374.3532, 863.7819, 374.57275);
	    ((GeneralPath) shape).curveTo(863.64124, 375.11346, 863.2086, 375.69522, 863.7819, 376.26816);
	    ((GeneralPath) shape).curveTo(863.8407, 376.32697, 864.2153, 376.53372, 864.3475, 376.55072);
	    ((GeneralPath) shape).curveTo(865.37897, 376.68457, 864.7971, 376.76175, 865.19574, 377.3984);
	    ((GeneralPath) shape).curveTo(865.28156, 377.5365, 865.7131, 377.68097, 866.044, 377.68097);
	    ((GeneralPath) shape).curveTo(866.22046, 377.68097, 866.7445, 377.62326, 866.8923, 377.68097);
	    ((GeneralPath) shape).curveTo(867.24304, 377.818, 866.9023, 378.26947, 867.17505, 378.52866);
	    ((GeneralPath) shape).curveTo(867.246, 378.59595, 867.46454, 378.67346, 867.74023, 378.74924);
	    ((GeneralPath) shape).lineTo(867.74023, 378.74924);
	    ((GeneralPath) shape).closePath();
	    ((GeneralPath) shape).moveTo(867.1783, 372.4291);
	    ((GeneralPath) shape).lineTo(867.21936, 372.5134);
	    ((GeneralPath) shape).curveTo(867.17084, 372.4847, 867.16626, 372.4589, 867.1783, 372.4291);
	    ((GeneralPath) shape).closePath();
	    ((GeneralPath) shape).moveTo(868.6194, 373.23502);
	    ((GeneralPath) shape).curveTo(868.97015, 373.3055, 869.2912, 373.36566, 869.4372, 373.4425);
	    ((GeneralPath) shape).curveTo(870.11255, 373.79767, 871.0909, 372.8933, 871.41656, 373.72507);
	    ((GeneralPath) shape).curveTo(871.9296, 375.0377, 870.70825, 374.88968, 870.5683, 375.13788);
	    ((GeneralPath) shape).curveTo(869.944, 376.24194, 871.0502, 376.44907, 870.5215, 377.1824);
	    ((GeneralPath) shape).lineTo(869.72, 375.42044);
	    ((GeneralPath) shape).curveTo(869.6427, 374.49167, 869.6966, 374.26718, 869.1544, 373.72507);
	    ((GeneralPath) shape).curveTo(868.9935, 373.56467, 868.8157, 373.39542, 868.6194, 373.235);
	    ((GeneralPath) shape).lineTo(868.6194, 373.235);
	    ((GeneralPath) shape).closePath();
	
	    g.setPaint(new Color(0x3c7a51));
	    g.fill(shape);
	    g.setPaint(Color.WHITE);
	    g.draw(shape);
	    if (this.drawSquares){ this.paintSquare(g, shape); }
	    this.detectMouse(g, shape, "Yucatán");
	    
	    if(!this.inState){
	    	this.inState=false;
	    }
	    
	    
	    g.setTransform(transformations.poll()); // _0_0_0
	    transformations.offer(g.getTransform());
	    g.transform(new AffineTransform(1.25f, 0, 0, -1.25f, 1636.39f, 215.04306f));
	
	    // _0_0_1
	
	    g.setTransform(transformations.poll()); // _0_0_1
	
	    g.setTransform(transformations.poll()); // _0_0
	
	}

	/**
	 * Returns the X of the bounding box of the original SVG image.
	 * 
	 * @return The X of the bounding box of the original SVG image.
	 */
	public static int getOrigX() {
	    return 11;
	}

	/**
	 * Returns the Y of the bounding box of the original SVG image.
	 * 
	 * @return The Y of the bounding box of the original SVG image.
	 */
	public static int getOrigY() {
	    return 25;
	}

	/**
	 * Returns the width of the bounding box of the original SVG image.
	 * 
	 * @return The width of the bounding box of the original SVG image.
	 */
	public static int getOrigWidth() {
	    return 952;
	}

	/**
	 * Returns the height of the bounding box of the original SVG image.
	 * 
	 * @return The height of the bounding box of the original SVG image.
	 */
	public static int getOrigHeight() {
	    return 609;
	}

	@Override
	public void mouseDragged(MouseEvent arg0) {
		// TODO Auto-generated method stub
		
	}

	@Override
	public void mouseMoved(MouseEvent arg0) {
		// TODO Auto-generated method stub
		this.setMouseX(arg0.getX());
		this.setMouseY(arg0.getY());
//		System.out.println("X " +this.getMouseX());
//		System.out.println("Y " +this.getMouseY());
		this.repaint();
	}

	public Integer getMouseX() {
		return mouseX;
	}

	public void setMouseX(Integer mouseX) {
		this.mouseX = mouseX;
	}

	public Integer getMouseY() {
		return mouseY;
	}

	public void setMouseY(Integer mouseY) {
		this.mouseY = mouseY;
	}

	@Override
	public void mouseClicked(MouseEvent e) {
		// TODO Auto-generated method stub
		
	}

	@Override
	public void mouseEntered(MouseEvent e) {
		// TODO Auto-generated method stub
		
	}

	@Override
	public void mouseExited(MouseEvent e) {
		// TODO Auto-generated method stub
		
	}

	@Override
	public void mousePressed(MouseEvent e) {
		// TODO Auto-generated method stub
		if (Desktop.isDesktopSupported()){
			try {
				String[] splitted = this.estadoActual.split(" ");
				String res="";
				if(splitted.length>0){
					for (int i = 0 ; i< splitted.length; i++){
						res+=splitted[i]+"+";
					}
				}
				String URL = "http://www.google.com/search?q="  + res;
				Desktop.getDesktop().browse(new URI(URL));
			} catch (IOException | URISyntaxException e1) {
				// TODO Auto-generated catch block
				e1.printStackTrace();
			}
		}
	}

	@Override
	public void mouseReleased(MouseEvent e) {
		// TODO Auto-generated method stub
		
	}


	
	
}
